{
  "version": "1.0",
  "truncation": null,
  "padding": null,
  "added_tokens": [
    {
      "id": 0,
      "content": "[UNK]",
      "single_word": false,
      "lstrip": false,
      "rstrip": false,
      "normalized": false,
      "special": true
    },
    {
      "id": 1,
      "content": "[CLS]",
      "single_word": false,
      "lstrip": false,
      "rstrip": false,
      "normalized": false,
      "special": true
    },
    {
      "id": 2,
      "content": "[SEP]",
      "single_word": false,
      "lstrip": false,
      "rstrip": false,
      "normalized": false,
      "special": true
    },
    {
      "id": 3,
      "content": "[PAD]",
      "single_word": false,
      "lstrip": false,
      "rstrip": false,
      "normalized": false,
      "special": true
    },
    {
      "id": 4,
      "content": "[MASK]",
      "single_word": false,
      "lstrip": false,
      "rstrip": false,
      "normalized": false,
      "special": true
    }
  ],
  "normalizer": null,
  "pre_tokenizer": {
    "type": "Whitespace"
  },
  "post_processor": null,
  "decoder": null,
  "model": {
    "type": "BPE",
    "dropout": null,
    "unk_token": "[UNK]",
    "continuing_subword_prefix": null,
    "end_of_word_suffix": null,
    "fuse_unk": false,
    "byte_fallback": false,
    "ignore_merges": false,
    "vocab": {
      "[UNK]": 0,
      "[CLS]": 1,
      "[SEP]": 2,
      "[PAD]": 3,
      "[MASK]": 4,
      "!": 5,
      "\"": 6,
      "#": 7,
      "&": 8,
      "'": 9,
      "(": 10,
      ")": 11,
      "*": 12,
      ",": 13,
      "-": 14,
      ".": 15,
      "/": 16,
      "0": 17,
      "1": 18,
      "2": 19,
      "3": 20,
      "4": 21,
      "5": 22,
      "6": 23,
      "7": 24,
      "8": 25,
      "9": 26,
      ":": 27,
      ";": 28,
      "<": 29,
      "=": 30,
      ">": 31,
      "?": 32,
      "A": 33,
      "B": 34,
      "C": 35,
      "D": 36,
      "E": 37,
      "F": 38,
      "G": 39,
      "H": 40,
      "I": 41,
      "J": 42,
      "K": 43,
      "L": 44,
      "M": 45,
      "N": 46,
      "O": 47,
      "P": 48,
      "Q": 49,
      "R": 50,
      "S": 51,
      "T": 52,
      "U": 53,
      "V": 54,
      "W": 55,
      "X": 56,
      "Y": 57,
      "Z": 58,
      "_": 59,
      "`": 60,
      "a": 61,
      "b": 62,
      "c": 63,
      "d": 64,
      "e": 65,
      "f": 66,
      "g": 67,
      "h": 68,
      "i": 69,
      "j": 70,
      "k": 71,
      "l": 72,
      "m": 73,
      "n": 74,
      "o": 75,
      "p": 76,
      "q": 77,
      "r": 78,
      "s": 79,
      "t": 80,
      "u": 81,
      "v": 82,
      "w": 83,
      "x": 84,
      "y": 85,
      "z": 86,
      "}": 87,
      "¢": 88,
      "¤": 89,
      "¥": 90,
      "«": 91,
      "®": 92,
      "µ": 93,
      "»": 94,
      "ó": 95,
      "–": 96,
      "—": 97,
      "‘": 98,
      "’": 99,
      "‚": 100,
      "…": 101,
      "he": 102,
      "the": 103,
      "in": 104,
      "an": 105,
      "re": 106,
      "and": 107,
      "ou": 108,
      "th": 109,
      "as": 110,
      "er": 111,
      "on": 112,
      "at": 113,
      "ed": 114,
      "or": 115,
      "ing": 116,
      "ll": 117,
      "to": 118,
      "en": 119,
      "of": 120,
      "ar": 121,
      "is": 122,
      "es": 123,
      "it": 124,
      "ow": 125,
      "st": 126,
      "ha": 127,
      "id": 128,
      "om": 129,
      "be": 130,
      "le": 131,
      "se": 132,
      "we": 133,
      "gh": 134,
      "ld": 135,
      "no": 136,
      "was": 137,
      "hi": 138,
      "sa": 139,
      "wi": 140,
      "that": 141,
      "ut": 142,
      "you": 143,
      "ve": 144,
      "am": 145,
      "The": 146,
      "ro": 147,
      "ir": 148,
      "ay": 149,
      "all": 150,
      "his": 151,
      "li": 152,
      "ad": 153,
      "ly": 154,
      "al": 155,
      "ght": 156,
      "nd": 157,
      "they": 158,
      "for": 159,
      "ac": 160,
      "not": 161,
      "said": 162,
      "ver": 163,
      "had": 164,
      "ag": 165,
      "oo": 166,
      "do": 167,
      "ke": 168,
      "ri": 169,
      "with": 170,
      "##": 171,
      "me": 172,
      "ain": 173,
      "il": 174,
      "out": 175,
      "ho": 176,
      "ould": 177,
      "ne": 178,
      "ur": 179,
      "ome": 180,
      "ard": 181,
      "ent": 182,
      "ast": 183,
      "ch": 184,
      "were": 185,
      "are": 186,
      "go": 187,
      "now": 188,
      "ore": 189,
      "up": 190,
      "him": 191,
      "un": 192,
      "ther": 193,
      "ce": 194,
      "ong": 195,
      "de": 196,
      "one": 197,
      "fe": 198,
      "but": 199,
      "et": 200,
      ".'": 201,
      "have": 202,
      ",'": 203,
      "them": 204,
      "pe": 205,
      "fr": 206,
      "He": 207,
      "ind": 208,
      "way": 209,
      "ter": 210,
      "any": 211,
      "But": 212,
      "own": 213,
      "from": 214,
      "our": 215,
      "there": 216,
      "ab": 217,
      "gre": 218,
      "if": 219,
      "hat": 220,
      "ack": 221,
      "their": 222,
      "ess": 223,
      "us": 224,
      "ill": 225,
      "lo": 226,
      "see": 227,
      "rou": 228,
      "red": 229,
      "so": 230,
      "ame": 231,
      "ck": 232,
      "sh": 233,
      "Fro": 234,
      "whe": 235,
      "Frodo": 236,
      "will": 237,
      "ide": 238,
      "ight": 239,
      "ord": 240,
      "ge": 241,
      "ep": 242,
      "my": 243,
      "bl": 244,
      "bo": 245,
      "ti": 246,
      "end": 247,
      "ry": 248,
      "thing": 249,
      "ven": 250,
      "And": 251,
      "um": 252,
      "ook": 253,
      "pp": 254,
      "ood": 255,
      "orn": 256,
      "by": 257,
      "came": 258,
      "too": 259,
      "It": 260,
      "long": 261,
      "ust": 262,
      "!'": 263,
      "some": 264,
      "ra": 265,
      "ark": 266,
      "ves": 267,
      "could": 268,
      "sp": 269,
      "fore": 270,
      "nt": 271,
      "ers": 272,
      "mo": 273,
      "again": 274,
      "down": 275,
      "ond": 276,
      "like": 277,
      "whi": 278,
      "ak": 279,
      "hed": 280,
      "its": 281,
      "this": 282,
      "would": 283,
      "look": 284,
      "your": 285,
      "into": 286,
      "alf": 287,
      "thou": 288,
      "come": 289,
      "ward": 290,
      "great": 291,
      "##-": 292,
      "####-": 293,
      "Sam": 294,
      "more": 295,
      "su": 296,
      "urn": 297,
      "Gand": 298,
      "Gandalf": 299,
      "other": 300,
      "old": 301,
      "el": 302,
      "can": 303,
      "They": 304,
      "ted": 305,
      "back": 306,
      "com": 307,
      "We": 308,
      "est": 309,
      "qu": 310,
      "what": 311,
      "light": 312,
      "over": 313,
      "ass": 314,
      "den": 315,
      "sha": 316,
      "te": 317,
      "been": 318,
      "ount": 319,
      "low": 320,
      "lf": 321,
      "ey": 322,
      "fi": 323,
      "und": 324,
      "bb": 325,
      "ran": 326,
      "ound": 327,
      "before": 328,
      "dark": 329,
      "day": 330,
      "im": 331,
      "know": 332,
      "pl": 333,
      "than": 334,
      "tre": 335,
      "ake": 336,
      "tle": 337,
      "turn": 338,
      "then": 339,
      "seem": 340,
      "ever": 341,
      "away": 342,
      "ft": 343,
      "art": 344,
      "There": 345,
      "ink": 346,
      "far": 347,
      "when": 348,
      "about": 349,
      "?'": 350,
      "rag": 351,
      "war": 352,
      "ap": 353,
      "still": 354,
      "did": 355,
      "gu": 356,
      "ace": 357,
      "ath": 358,
      "last": 359,
      "lit": 360,
      "ous": 361,
      "po": 362,
      "au": 363,
      "oll": 364,
      "row": 365,
      "led": 366,
      "here": 367,
      "Then": 368,
      "hand": 369,
      "went": 370,
      "time": 371,
      "Bil": 372,
      "Bilbo": 373,
      "af": 374,
      "many": 375,
      "ate": 376,
      "may": 377,
      "air": 378,
      "wat": 379,
      "even": 380,
      "less": 381,
      "tr": 382,
      "ant": 383,
      "upon": 384,
      "hobb": 385,
      "fu": 386,
      "land": 387,
      "under": 388,
      "pass": 389,
      "op": 390,
      "only": 391,
      "Th": 392,
      "side": 393,
      "read": 394,
      "word": 395,
      "ss": 396,
      "ist": 397,
      "ite": 398,
      "You": 399,
      "ear": 400,
      "has": 401,
      "king": 402,
      "must": 403,
      "ol": 404,
      "very": 405,
      "ree": 406,
      "well": 407,
      "where": 408,
      "who": 409,
      "seemed": 410,
      "lt": 411,
      "No": 412,
      "per": 413,
      "self": 414,
      "shall": 415,
      "ade": 416,
      "say": 417,
      "cl": 418,
      "ang": 419,
      "ountain": 420,
      "thought": 421,
      "men": 422,
      "get": 423,
      "little": 424,
      "round": 425,
      "night": 426,
      "ion": 427,
      "ice": 428,
      "rough": 429,
      "Arag": 430,
      "right": 431,
      "Aragorn": 432,
      "wor": 433,
      "head": 434,
      "ring": 435,
      "looked": 436,
      "ipp": 437,
      "mb": 438,
      "off": 439,
      "spe": 440,
      "which": 441,
      "eyes": 442,
      "erry": 443,
      "new": 444,
      "hadow": 445,
      "ried": 446,
      "while": 447,
      "ave": 448,
      "Pipp": 449,
      "Pippin": 450,
      "road": 451,
      "should": 452,
      "El": 453,
      "ish": 454,
      "ans": 455,
      "beg": 456,
      "think": 457,
      "ved": 458,
      "ick": 459,
      "got": 460,
      "wards": 461,
      "through": 462,
      "res": 463,
      "ting": 464,
      "hind": 465,
      "her": 466,
      "after": 467,
      "stoo": 468,
      "ked": 469,
      "wh": 470,
      "yet": 471,
      "mu": 472,
      "nor": 473,
      "she": 474,
      "good": 475,
      "ic": 476,
      "wo": 477,
      "pt": 478,
      "dden": 479,
      "saw": 480,
      "wind": 481,
      "clo": 482,
      "gr": 483,
      "sil": 484,
      "ble": 485,
      "most": 486,
      "left": 487,
      "heard": 488,
      "For": 489,
      "gl": 490,
      "hill": 491,
      "aster": 492,
      "made": 493,
      "turned": 494,
      "behind": 495,
      "fell": 496,
      "ru": 497,
      "vo": 498,
      "ex": 499,
      "man": 500,
      "ine": 501,
      "bet": 502,
      "call": 503,
      "rid": 504,
      "stood": 505,
      "fl": 506,
      "fall": 507,
      "ness": 508,
      "much": 509,
      "Merry": 510,
      "fir": 511,
      "shadow": 512,
      "!\"": 513,
      "What": 514,
      "stre": 515,
      "though": 516,
      "ig": 517,
      "outh": 518,
      "set": 519,
      "ove": 520,
      "ins": 521,
      "sm": 522,
      "cre": 523,
      "In": 524,
      "ale": 525,
      "lay": 526,
      "door": 527,
      "found": 528,
      "ise": 529,
      "going": 530,
      "things": 531,
      "trees": 532,
      "water": 533,
      "passed": 534,
      "ue": 535,
      "ddenly": 536,
      "himself": 537,
      "At": 538,
      "cle": 539,
      "ling": 540,
      "deep": 541,
      "ts": 542,
      "ened": 543,
      "hobbits": 544,
      "first": 545,
      "Or": 546,
      "ene": 547,
      "Goll": 548,
      "hor": 549,
      "arm": 550,
      "Gollum": 551,
      "wood": 552,
      "ving": 553,
      "wall": 554,
      "jo": 555,
      "ared": 556,
      "soon": 557,
      "find": 558,
      "seen": 559,
      "near": 560,
      "might": 561,
      "ith": 562,
      "unt": 563,
      "So": 564,
      "don": 565,
      "las": 566,
      "gi": 567,
      "ough": 568,
      "ps": 569,
      "black": 570,
      "ci": 571,
      "ready": 572,
      "sun": 573,
      "wa": 574,
      "dre": 575,
      "how": 576,
      "two": 577,
      "hope": 578,
      "ning": 579,
      "once": 580,
      "bre": 581,
      "Ro": 582,
      "ched": 583,
      "tal": 584,
      "stand": 585,
      "riend": 586,
      "che": 587,
      "never": 588,
      "hel": 589,
      "friend": 590,
      "ies": 591,
      "That": 592,
      "ful": 593,
      "fire": 594,
      ",\"": 595,
      "spo": 596,
      "pre": 597,
      "ped": 598,
      "ten": 599,
      "cr": 600,
      "cried": 601,
      "heart": 602,
      "let": 603,
      "pped": 604,
      "able": 605,
      "aid": 606,
      "des": 607,
      "dwar": 608,
      "ure": 609,
      "Le": 610,
      "sk": 611,
      "ons": 612,
      "Ring": 613,
      "If": 614,
      "aw": 615,
      "cli": 616,
      "mountain": 617,
      "ars": 618,
      "stone": 619,
      "ering": 620,
      "days": 621,
      "ance": 622,
      "feet": 623,
      "above": 624,
      "Be": 625,
      "take": 626,
      "need": 627,
      "Mr": 628,
      "rest": 629,
      "ste": 630,
      "these": 631,
      "yond": 632,
      "cour": 633,
      "fa": 634,
      "sle": 635,
      "oud": 636,
      "until": 637,
      "part": 638,
      "Gim": 639,
      "tho": 640,
      "words": 641,
      "Gimli": 642,
      "dis": 643,
      "just": 644,
      "high": 645,
      "deed": 646,
      "tell": 647,
      "Now": 648,
      "pr": 649,
      "wal": 650,
      "towards": 651,
      "ally": 652,
      "ken": 653,
      "ross": 654,
      ".\"": 655,
      "sat": 656,
      "ince": 657,
      "ef": 658,
      "ity": 659,
      "beyond": 660,
      "bur": 661,
      "olk": 662,
      "eld": 663,
      "ort": 664,
      "mind": 665,
      "owed": 666,
      "began": 667,
      "fear": 668,
      "such": 669,
      "hobbit": 670,
      "con": 671,
      "Far": 672,
      "ach": 673,
      "suddenly": 674,
      "voice": 675,
      "raw": 676,
      "aking": 677,
      "white": 678,
      "Is": 679,
      "les": 680,
      "eng": 681,
      "Shi": 682,
      "ev": 683,
      "ng": 684,
      "ings": 685,
      "ider": 686,
      "those": 687,
      "run": 688,
      "foll": 689,
      "put": 690,
      "slow": 691,
      "grey": 692,
      "took": 693,
      "ower": 694,
      "cau": 695,
      "folk": 696,
      "path": 697,
      "sing": 698,
      "gone": 699,
      "hear": 700,
      "Well": 701,
      "full": 702,
      "As": 703,
      "bro": 704,
      "cs": 705,
      "face": 706,
      "age": 707,
      "ga": 708,
      "Lego": 709,
      "Legolas": 710,
      "foo": 711,
      "coming": 712,
      "sel": 713,
      "felt": 714,
      "others": 715,
      "open": 716,
      "ung": 717,
      "mom": 718,
      "make": 719,
      "tain": 720,
      "comp": 721,
      "moment": 722,
      "ment": 723,
      "sed": 724,
      "sound": 725,
      "Ri": 726,
      "year": 727,
      "Shire": 728,
      "shi": 729,
      "pro": 730,
      "Men": 731,
      "hard": 732,
      "di": 733,
      "ither": 734,
      "sc": 735,
      "green": 736,
      "gether": 737,
      "ory": 738,
      "without": 739,
      "small": 740,
      "another": 741,
      "wered": 742,
      "count": 743,
      "mar": 744,
      "ouse": 745,
      "ished": 746,
      "str": 747,
      "Mountain": 748,
      "dwarves": 749,
      "Bag": 750,
      "fair": 751,
      "wond": 752,
      "ank": 753,
      "stran": 754,
      "along": 755,
      "keep": 756,
      "lau": 757,
      "rought": 758,
      "answered": 759,
      "since": 760,
      "together": 761,
      "ween": 762,
      "ily": 763,
      "gold": 764,
      "guess": 765,
      "indeed": 766,
      "nothing": 767,
      "ground": 768,
      "wer": 769,
      "place": 770,
      "between": 771,
      "feel": 772,
      "arrow": 773,
      "ered": 774,
      "uck": 775,
      "enough": 776,
      "amir": 777,
      "Faramir": 778,
      "Sar": 779,
      "Whe": 780,
      "bit": 781,
      "among": 782,
      "St": 783,
      "Gre": 784,
      "mes": 785,
      "cannot": 786,
      "spoke": 787,
      "against": 788,
      "clear": 789,
      "sleep": 790,
      "aces": 791,
      "knew": 792,
      "rock": 793,
      "ff": 794,
      "morn": 795,
      "swi": 796,
      "asked": 797,
      "wish": 798,
      "few": 799,
      "uman": 800,
      "All": 801,
      "cold": 802,
      "Saruman": 803,
      "Bor": 804,
      "ser": 805,
      "already": 806,
      "sto": 807,
      "step": 808,
      "east": 809,
      "omir": 810,
      "hands": 811,
      "Orcs": 812,
      "Boromir": 813,
      "ence": 814,
      "dead": 815,
      "mountains": 816,
      "This": 817,
      "used": 818,
      "called": 819,
      "ople": 820,
      "master": 821,
      "wide": 822,
      "hold": 823,
      "something": 824,
      "When": 825,
      "morning": 826,
      "main": 827,
      "rode": 828,
      "ways": 829,
      "ondor": 830,
      "aves": 831,
      "br": 832,
      "Gondor": 833,
      "sword": 834,
      "Sm": 835,
      "ls": 836,
      "ned": 837,
      "looking": 838,
      "quick": 839,
      "climb": 840,
      "Do": 841,
      "Lord": 842,
      "cha": 843,
      "lie": 844,
      "world": 845,
      "sl": 846,
      "ones": 847,
      "Nor": 848,
      "also": 849,
      "wait": 850,
      "wear": 851,
      "every": 852,
      "Not": 853,
      "fur": 854,
      "Elves": 855,
      "bat": 856,
      "house": 857,
      "lord": 858,
      "help": 859,
      "course": 860,
      "bes": 861,
      "dy": 862,
      "grow": 863,
      "use": 864,
      "orin": 865,
      "cho": 866,
      "tra": 867,
      "Thorin": 868,
      "brought": 869,
      "ches": 870,
      "Wh": 871,
      "won": 872,
      "iled": 873,
      "speak": 874,
      "evil": 875,
      "wonder": 876,
      "ney": 877,
      "hea": 878,
      "name": 879,
      "fort": 880,
      "better": 881,
      "His": 882,
      "hills": 883,
      "On": 884,
      "dou": 885,
      "leave": 886,
      "people": 887,
      "mber": 888,
      "--": 889,
      "ged": 890,
      "car": 891,
      "south": 892,
      "tall": 893,
      "qui": 894,
      "sit": 895,
      "west": 896,
      "grew": 897,
      "bled": 898,
      "hur": 899,
      "ct": 900,
      "int": 901,
      "happ": 902,
      "anger": 903,
      "slowly": 904,
      "flow": 905,
      "gave": 906,
      "alley": 907,
      "darkness": 908,
      "Str": 909,
      "ourney": 910,
      "illed": 911,
      "plain": 912,
      "hour": 913,
      "guard": 914,
      "rand": 915,
      "sig": 916,
      "tree": 917,
      "stream": 918,
      "ple": 919,
      "oft": 920,
      "ching": 921,
      "Ho": 922,
      "Yes": 923,
      "tered": 924,
      "north": 925,
      "sky": 926,
      "Jom": 927,
      "lar": 928,
      "roll": 929,
      "drew": 930,
      "star": 931,
      "grass": 932,
      "Ent": 933,
      "dle": 934,
      "gs": 935,
      "tion": 936,
      "give": 937,
      "strange": 938,
      "Strider": 939,
      "chi": 940,
      "journey": 941,
      "want": 942,
      "silent": 943,
      "bus": 944,
      "kind": 945,
      "ago": 946,
      "Come": 947,
      "mer": 948,
      "ild": 949,
      "lands": 950,
      "bu": 951,
      "sho": 952,
      "iders": 953,
      "least": 954,
      "gate": 955,
      "sup": 956,
      "three": 957,
      "Thjo": 958,
      "Mord": 959,
      "bed": 960,
      "done": 961,
      "dist": 962,
      "valley": 963,
      "beard": 964,
      "Mordor": 965,
      "ses": 966,
      "swift": 967,
      "hall": 968,
      "doub": 969,
      "Jomer": 970,
      "song": 971,
      "forward": 972,
      "Thjoden": 973,
      "dr": 974,
      "river": 975,
      "friends": 976,
      "years": 977,
      "mat": 978,
      "rim": 979,
      "han": 980,
      "mean": 981,
      "mid": 982,
      "lost": 983,
      "horse": 984,
      "almost": 985,
      "rying": 986,
      "West": 987,
      "ty": 988,
      "top": 989,
      "haps": 990,
      "alone": 991,
      "rond": 992,
      "gins": 993,
      "times": 994,
      "strong": 995,
      "Let": 996,
      "Yet": 997,
      "draw": 998,
      "pon": 999,
      "ions": 1000,
      "longer": 1001,
      "cap": 1002,
      "reme": 1003,
      "foot": 1004,
      "selves": 1005,
      "beside": 1006,
      "To": 1007,
      "ere": 1008,
      "does": 1009,
      "Baggins": 1010,
      "pi": 1011,
      "son": 1012,
      "told": 1013,
      "battle": 1014,
      "Elrond": 1015,
      "Rohan": 1016,
      "hid": 1017,
      "lad": 1018,
      "oun": 1019,
      "lead": 1020,
      "silver": 1021,
      "trou": 1022,
      "walls": 1023,
      "River": 1024,
      "slo": 1025,
      "zard": 1026,
      "across": 1027,
      "cur": 1028,
      "sur": 1029,
      "held": 1030,
      "iness": 1031,
      "remain": 1032,
      "rang": 1033,
      "fast": 1034,
      "list": 1035,
      "rose": 1036,
      "drag": 1037,
      "pale": 1038,
      "ening": 1039,
      "cloud": 1040,
      "shadows": 1041,
      "heav": 1042,
      "doubt": 1043,
      "Com": 1044,
      "az": 1045,
      "em": 1046,
      "mist": 1047,
      "half": 1048,
      "Mor": 1049,
      "gobl": 1050,
      "ious": 1051,
      "quite": 1052,
      "ca": 1053,
      "loom": 1054,
      "appe": 1055,
      "?\"": 1056,
      "cer": 1057,
      "ask": 1058,
      "ows": 1059,
      "ell": 1060,
      "assa": 1061,
      "ird": 1062,
      "Some": 1063,
      "cu": 1064,
      "app": 1065,
      "ices": 1066,
      "care": 1067,
      "ris": 1068,
      "smo": 1069,
      "further": 1070,
      "North": 1071,
      "Min": 1072,
      "ud": 1073,
      "yes": 1074,
      "return": 1075,
      "wild": 1076,
      "both": 1077,
      "Master": 1078,
      "either": 1079,
      "Great": 1080,
      "pes": 1081,
      "close": 1082,
      "home": 1083,
      "soft": 1084,
      "mis": 1085,
      "tong": 1086,
      "same": 1087,
      "cious": 1088,
      "flo": 1089,
      "power": 1090,
      "si": 1091,
      "whis": 1092,
      "arer": 1093,
      "quiet": 1094,
      "ping": 1095,
      "live": 1096,
      "adv": 1097,
      "ently": 1098,
      "aken": 1099,
      "Riders": 1100,
      "pose": 1101,
      "bar": 1102,
      "ised": 1103,
      "De": 1104,
      "King": 1105,
      "Tree": 1106,
      "bank": 1107,
      "danger": 1108,
      "being": 1109,
      "bright": 1110,
      "hung": 1111,
      "ated": 1112,
      "edge": 1113,
      "earth": 1114,
      "work": 1115,
      "news": 1116,
      "caught": 1117,
      "jag": 1118,
      "laid": 1119,
      "dered": 1120,
      "Tom": 1121,
      "co": 1122,
      "field": 1123,
      "cause": 1124,
      "ror": 1125,
      "anything": 1126,
      "streng": 1127,
      "arms": 1128,
      "sign": 1129,
      "burn": 1130,
      "food": 1131,
      "till": 1132,
      "thr": 1133,
      "bear": 1134,
      "answer": 1135,
      "pur": 1136,
      "ride": 1137,
      "ined": 1138,
      "ought": 1139,
      "lear": 1140,
      "wizard": 1141,
      "Here": 1142,
      "moon": 1143,
      "fully": 1144,
      "Hobb": 1145,
      "fo": 1146,
      "pres": 1147,
      "ase": 1148,
      "orm": 1149,
      "meet": 1150,
      "forest": 1151,
      "comes": 1152,
      "ili": 1153,
      "thor": 1154,
      "tom": 1155,
      "below": 1156,
      "lying": 1157,
      "perhaps": 1158,
      "City": 1159,
      "ail": 1160,
      "fter": 1161,
      "sn": 1162,
      "always": 1163,
      "followed": 1164,
      "One": 1165,
      "gle": 1166,
      "none": 1167,
      "ats": 1168,
      "nex": 1169,
      "dri": 1170,
      "ghed": 1171,
      "hast": 1172,
      "lted": 1173,
      "sent": 1174,
      "leap": 1175,
      "broken": 1176,
      "Su": 1177,
      "filled": 1178,
      "shout": 1179,
      "Se": 1180,
      "pter": 1181,
      "Comp": 1182,
      "ended": 1183,
      "peril": 1184,
      "glad": 1185,
      "strength": 1186,
      "bring": 1187,
      "wr": 1188,
      "ery": 1189,
      "laughed": 1190,
      "Dark": 1191,
      "eat": 1192,
      "par": 1193,
      "sight": 1194,
      "ady": 1195,
      "dell": 1196,
      "known": 1197,
      "cloak": 1198,
      "follow": 1199,
      "East": 1200,
      "Gate": 1201,
      "South": 1202,
      "ges": 1203,
      "horn": 1204,
      "wise": 1205,
      "leaves": 1206,
      "cked": 1207,
      "getting": 1208,
      "Iseng": 1209,
      "large": 1210,
      "jagol": 1211,
      "Where": 1212,
      "cted": 1213,
      "anc": 1214,
      "stones": 1215,
      "save": 1216,
      "themselves": 1217,
      "sure": 1218,
      "walked": 1219,
      "Smjagol": 1220,
      "heavy": 1221,
      "How": 1222,
      "cut": 1223,
      "sli": 1224,
      "tow": 1225,
      "stars": 1226,
      "fallen": 1227,
      "begin": 1228,
      "voices": 1229,
      "serv": 1230,
      "Company": 1231,
      "Isengard": 1232,
      "cross": 1233,
      "ached": 1234,
      "short": 1235,
      "dream": 1236,
      "aur": 1237,
      "ire": 1238,
      "orc": 1239,
      "stay": 1240,
      "secre": 1241,
      "zed": 1242,
      "forgot": 1243,
      "rather": 1244,
      "maybe": 1245,
      "why": 1246,
      "standing": 1247,
      "Cha": 1248,
      "Go": 1249,
      "lu": 1250,
      "ridge": 1251,
      "Minas": 1252,
      "After": 1253,
      "dim": 1254,
      "each": 1255,
      "became": 1256,
      "iles": 1257,
      "sprang": 1258,
      "else": 1259,
      "goblins": 1260,
      "Treebeard": 1261,
      "Ene": 1262,
      "Shadow": 1263,
      "often": 1264,
      "thered": 1265,
      "ush": 1266,
      "expe": 1267,
      "ahead": 1268,
      "dif": 1269,
      "swe": 1270,
      "tor": 1271,
      "taken": 1272,
      "young": 1273,
      "tongue": 1274,
      "Enemy": 1275,
      "bad": 1276,
      "fing": 1277,
      "rec": 1278,
      "With": 1279,
      "best": 1280,
      "act": 1281,
      "doors": 1282,
      "coun": 1283,
      "four": 1284,
      "lack": 1285,
      "irith": 1286,
      "move": 1287,
      "undred": 1288,
      "Chapter": 1289,
      "fin": 1290,
      "room": 1291,
      "ni": 1292,
      "tun": 1293,
      "van": 1294,
      "reg": 1295,
      "legs": 1296,
      "vell": 1297,
      "lim": 1298,
      "evening": 1299,
      "Dene": 1300,
      "ather": 1301,
      "wand": 1302,
      "silence": 1303,
      "Denethor": 1304,
      "Saur": 1305,
      "hundred": 1306,
      "vis": 1307,
      "ze": 1308,
      "watch": 1309,
      "eneath": 1310,
      "compan": 1311,
      "Why": 1312,
      "matter": 1313,
      "remember": 1314,
      "Sauron": 1315,
      "cry": 1316,
      "dread": 1317,
      "alad": 1318,
      "talk": 1319,
      "Even": 1320,
      "bow": 1321,
      "safe": 1322,
      "deal": 1323,
      "seems": 1324,
      "woods": 1325,
      "father": 1326,
      "gleam": 1327,
      "An": 1328,
      "aut": 1329,
      "inn": 1330,
      "lies": 1331,
      "lan": 1332,
      "rain": 1333,
      "horses": 1334,
      "running": 1335,
      "ates": 1336,
      "ool": 1337,
      "host": 1338,
      "chief": 1339,
      "Suddenly": 1340,
      "ded": 1341,
      "ive": 1342,
      "ren": 1343,
      "ash": 1344,
      "halted": 1345,
      "kept": 1346,
      "exce": 1347,
      "because": 1348,
      "ket": 1349,
      "Lady": 1350,
      "ining": 1351,
      "really": 1352,
      "chance": 1353,
      "bling": 1354,
      "country": 1355,
      "line": 1356,
      "miles": 1357,
      "wra": 1358,
      "death": 1359,
      "company": 1360,
      "climbed": 1361,
      "forgotten": 1362,
      "bran": 1363,
      "tern": 1364,
      "que": 1365,
      "eye": 1366,
      "tunne": 1367,
      "Black": 1368,
      "Don": 1369,
      "fted": 1370,
      "med": 1371,
      "passa": 1372,
      "tale": 1373,
      "ull": 1374,
      "inside": 1375,
      "spring": 1376,
      "comm": 1377,
      "appeared": 1378,
      "Bree": 1379,
      "gri": 1380,
      "late": 1381,
      "loud": 1382,
      "tri": 1383,
      "returned": 1384,
      "rien": 1385,
      "rible": 1386,
      "understand": 1387,
      "Road": 1388,
      "secret": 1389,
      "bird": 1390,
      "eas": 1391,
      "yn": 1392,
      "next": 1393,
      "May": 1394,
      "dro": 1395,
      "lat": 1396,
      "body": 1397,
      "aff": 1398,
      "Ents": 1399,
      "Dwar": 1400,
      "beneath": 1401,
      "glim": 1402,
      "ible": 1403,
      "mark": 1404,
      "reached": 1405,
      "thern": 1406,
      "break": 1407,
      "cliff": 1408,
      "belie": 1409,
      "ames": 1410,
      "walk": 1411,
      "weary": 1412,
      "floor": 1413,
      "Lo": 1414,
      "cast": 1415,
      "sor": 1416,
      "wis": 1417,
      "ump": 1418,
      "moved": 1419,
      "comfort": 1420,
      "places": 1421,
      "overed": 1422,
      "nearly": 1423,
      "precious": 1424,
      "quickly": 1425,
      "hidden": 1426,
      "mem": 1427,
      "arewell": 1428,
      "Riven": 1429,
      "drink": 1430,
      "afr": 1431,
      "cir": 1432,
      "Rivendell": 1433,
      "afraid": 1434,
      "Al": 1435,
      "ul": 1436,
      "anci": 1437,
      "arch": 1438,
      "ques": 1439,
      "mouth": 1440,
      "sen": 1441,
      "sum": 1442,
      "living": 1443,
      "opened": 1444,
      "trouble": 1445,
      "present": 1446,
      "Tower": 1447,
      "mur": 1448,
      "stru": 1449,
      "breath": 1450,
      "pleas": 1451,
      "bent": 1452,
      "gloom": 1453,
      "sw": 1454,
      "une": 1455,
      "stra": 1456,
      "turning": 1457,
      "true": 1458,
      "My": 1459,
      "ton": 1460,
      "ues": 1461,
      "tering": 1462,
      "orders": 1463,
      "crack": 1464,
      "Tirith": 1465,
      "big": 1466,
      "Mountains": 1467,
      "ging": 1468,
      "ms": 1469,
      "mon": 1470,
      "yell": 1471,
      "stair": 1472,
      "ending": 1473,
      "ants": 1474,
      "dragon": 1475,
      "cape": 1476,
      "narrow": 1477,
      "ures": 1478,
      "anted": 1479,
      "real": 1480,
      "aint": 1481,
      "falling": 1482,
      "creat": 1483,
      "ship": 1484,
      "suppose": 1485,
      "smoke": 1486,
      "Good": 1487,
      "covered": 1488,
      "inter": 1489,
      "ern": 1490,
      "lifted": 1491,
      "chang": 1492,
      "sudden": 1493,
      "given": 1494,
      "awn": 1495,
      "stopped": 1496,
      "free": 1497,
      "kne": 1498,
      "ont": 1499,
      "escape": 1500,
      "outside": 1501,
      "peace": 1502,
      "hardly": 1503,
      "sitting": 1504,
      "straight": 1505,
      "dom": 1506,
      "hu": 1507,
      "wound": 1508,
      "hair": 1509,
      "wel": 1510,
      "roo": 1511,
      "forth": 1512,
      "imp": 1513,
      "poss": 1514,
      "fight": 1515,
      "ks": 1516,
      "remained": 1517,
      "rising": 1518,
      "Elf": 1519,
      "fad": 1520,
      "aside": 1521,
      "amp": 1522,
      "iling": 1523,
      "golden": 1524,
      "Jow": 1525,
      "leng": 1526,
      "pack": 1527,
      "vi": 1528,
      "rep": 1529,
      "noise": 1530,
      "hir": 1531,
      "ries": 1532,
      "steep": 1533,
      "singing": 1534,
      "swiftly": 1535,
      "Jowyn": 1536,
      "Bal": 1537,
      "Galad": 1538,
      "point": 1539,
      "steps": 1540,
      "Of": 1541,
      "Old": 1542,
      "Who": 1543,
      "mut": 1544,
      "tent": 1545,
      "try": 1546,
      "shape": 1547,
      "trust": 1548,
      "tales": 1549,
      "command": 1550,
      "ancient": 1551,
      "End": 1552,
      "Sun": 1553,
      "bore": 1554,
      "ew": 1555,
      "arp": 1556,
      "ison": 1557,
      "become": 1558,
      "within": 1559,
      "guessed": 1560,
      "growing": 1561,
      "Bom": 1562,
      "Brand": 1563,
      "Mo": 1564,
      "hes": 1565,
      "ides": 1566,
      "leep": 1567,
      "hole": 1568,
      "arden": 1569,
      "shut": 1570,
      "bot": 1571,
      "riding": 1572,
      "enemy": 1573,
      "surpr": 1574,
      "empt": 1575,
      "certain": 1576,
      "except": 1577,
      "Fore": 1578,
      "She": 1579,
      "Will": 1580,
      "craw": 1581,
      "ia": 1582,
      "ier": 1583,
      "ony": 1584,
      "sad": 1585,
      "unless": 1586,
      "love": 1587,
      "shining": 1588,
      "happened": 1589,
      "tou": 1590,
      "Their": 1591,
      "life": 1592,
      "oose": 1593,
      "umbled": 1594,
      "ears": 1595,
      "feeling": 1596,
      "Moria": 1597,
      "eag": 1598,
      "faces": 1599,
      "faint": 1600,
      "front": 1601,
      "poor": 1602,
      "ali": 1603,
      "hood": 1604,
      "thick": 1605,
      "knows": 1606,
      "speed": 1607,
      "mighty": 1608,
      "White": 1609,
      "beginning": 1610,
      "counsel": 1611,
      "memory": 1612,
      "Lu": 1613,
      "dest": 1614,
      "ger": 1615,
      "ile": 1616,
      "yed": 1617,
      "thre": 1618,
      "start": 1619,
      "beast": 1620,
      "ushed": 1621,
      "lot": 1622,
      "dwarf": 1623,
      "Still": 1624,
      "ponies": 1625,
      "vanished": 1626,
      "length": 1627,
      "Mir": 1628,
      "Very": 1629,
      "eed": 1630,
      "estern": 1631,
      "beaut": 1632,
      "nearer": 1633,
      "fields": 1634,
      "Forest": 1635,
      "aim": 1636,
      "fled": 1637,
      "reck": 1638,
      "rent": 1639,
      "tired": 1640,
      "tru": 1641,
      "hearts": 1642,
      "opening": 1643,
      "stir": 1644,
      "chan": 1645,
      "ably": 1646,
      "elves": 1647,
      "treas": 1648,
      "tunnel": 1649,
      "empty": 1650,
      "gates": 1651,
      "making": 1652,
      "nice": 1653,
      "pa": 1654,
      "uin": 1655,
      "ation": 1656,
      "ided": 1657,
      "holl": 1658,
      "neither": 1659,
      "figu": 1660,
      "ruin": 1661,
      "business": 1662,
      "dwell": 1663,
      "tried": 1664,
      "stri": 1665,
      "dec": 1666,
      "whether": 1667,
      "whole": 1668,
      "Soon": 1669,
      "believe": 1670,
      "bowed": 1671,
      "cat": 1672,
      "ced": 1673,
      "val": 1674,
      "tower": 1675,
      "doom": 1676,
      "dear": 1677,
      "myself": 1678,
      "blow": 1679,
      "heads": 1680,
      "Before": 1681,
      "gathered": 1682,
      "eastward": 1683,
      "distance": 1684,
      "Hobbits": 1685,
      "passage": 1686,
      "ber": 1687,
      "luck": 1688,
      "snow": 1689,
      "ually": 1690,
      "ary": 1691,
      "leag": 1692,
      "ouses": 1693,
      "passing": 1694,
      "gather": 1695,
      "clouds": 1696,
      "shouted": 1697,
      "Fr": 1698,
      "bri": 1699,
      "sme": 1700,
      "doing": 1701,
      "press": 1702,
      "advent": 1703,
      "huge": 1704,
      "Balin": 1705,
      "By": 1706,
      "broad": 1707,
      "corn": 1708,
      "echo": 1709,
      "hide": 1710,
      "oc": 1711,
      "tory": 1712,
      "story": 1713,
      "noon": 1714,
      "ndeed": 1715,
      "met": 1716,
      "laugh": 1717,
      "Sea": 1718,
      "destro": 1719,
      "Ar": 1720,
      "ding": 1721,
      "grim": 1722,
      "hun": 1723,
      "heal": 1724,
      "roof": 1725,
      "sharp": 1726,
      "boat": 1727,
      "moving": 1728,
      "crown": 1729,
      "aware": 1730,
      "Indeed": 1731,
      "Mark": 1732,
      "Took": 1733,
      "cover": 1734,
      "pain": 1735,
      "poin": 1736,
      "aug": 1737,
      "Smaug": 1738,
      "softly": 1739,
      "companions": 1740,
      "birds": 1741,
      "bag": 1742,
      "hon": 1743,
      "har": 1744,
      "twi": 1745,
      "asleep": 1746,
      "riel": 1747,
      "eping": 1748,
      "akes": 1749,
      "aught": 1750,
      "prom": 1751,
      "broke": 1752,
      "wondered": 1753,
      "Brandy": 1754,
      "Ha": 1755,
      "ax": 1756,
      "bid": 1757,
      "ech": 1758,
      "weap": 1759,
      "window": 1760,
      "closed": 1761,
      "cially": 1762,
      "desire": 1763,
      "stead": 1764,
      "died": 1765,
      "slopes": 1766,
      "cond": 1767,
      "easter": 1768,
      "fle": 1769,
      "gro": 1770,
      "min": 1771,
      "mies": 1772,
      "ob": 1773,
      "past": 1774,
      "tid": 1775,
      "table": 1776,
      "blue": 1777,
      "lights": 1778,
      "worse": 1779,
      "crept": 1780,
      "middle": 1781,
      "changed": 1782,
      "fact": 1783,
      "rate": 1784,
      "uff": 1785,
      "vent": 1786,
      "goes": 1787,
      "shone": 1788,
      "rows": 1789,
      "shield": 1790,
      "travell": 1791,
      "hours": 1792,
      "Galadriel": 1793,
      "fit": 1794,
      "gg": 1795,
      "pick": 1796,
      "beat": 1797,
      "lived": 1798,
      "roud": 1799,
      "ends": 1800,
      "early": 1801,
      "talking": 1802,
      "Only": 1803,
      "dangerous": 1804,
      "learned": 1805,
      "Many": 1806,
      "fam": 1807,
      "merry": 1808,
      "tched": 1809,
      "leg": 1810,
      "vel": 1811,
      "ages": 1812,
      "walking": 1813,
      "drawn": 1814,
      "branches": 1815,
      "smell": 1816,
      "Qu": 1817,
      "athe": 1818,
      "ces": 1819,
      "names": 1820,
      "taking": 1821,
      "trying": 1822,
      "reach": 1823,
      "thin": 1824,
      "errand": 1825,
      "bell": 1826,
      "forget": 1827,
      "neck": 1828,
      "iful": 1829,
      "warm": 1830,
      "clad": 1831,
      "flat": 1832,
      "joy": 1833,
      "waiting": 1834,
      "songs": 1835,
      "change": 1836,
      "tidings": 1837,
      "mag": 1838,
      "vish": 1839,
      "escap": 1840,
      "sever": 1841,
      "These": 1842,
      "def": 1843,
      "ters": 1844,
      "thinking": 1845,
      "bitter": 1846,
      "slope": 1847,
      "thrust": 1848,
      "slipped": 1849,
      "town": 1850,
      "Look": 1851,
      "dare": 1852,
      "garden": 1853,
      "rum": 1854,
      "bered": 1855,
      "ours": 1856,
      "tions": 1857,
      "olves": 1858,
      "hurt": 1859,
      "rolled": 1860,
      "several": 1861,
      "Worm": 1862,
      "dawn": 1863,
      "ele": 1864,
      "fold": 1865,
      "pair": 1866,
      "ann": 1867,
      "aring": 1868,
      "amed": 1869,
      "thanc": 1870,
      "guest": 1871,
      "whom": 1872,
      "enemies": 1873,
      "prison": 1874,
      "Hobbit": 1875,
      "From": 1876,
      "eastern": 1877,
      "Down": 1878,
      "Hill": 1879,
      "borders": 1880,
      "igh": 1881,
      "kni": 1882,
      "vast": 1883,
      "wished": 1884,
      "thro": 1885,
      "ashed": 1886,
      "likely": 1887,
      "watched": 1888,
      "Though": 1889,
      "Orthanc": 1890,
      "listening": 1891,
      "pursu": 1892,
      "leaped": 1893,
      "Out": 1894,
      "bare": 1895,
      "wine": 1896,
      "seld": 1897,
      "claim": 1898,
      "burden": 1899,
      "fool": 1900,
      "stepped": 1901,
      "chair": 1902,
      "haste": 1903,
      "diffi": 1904,
      "later": 1905,
      "beautiful": 1906,
      "seldom": 1907,
      "bs": 1908,
      "born": 1909,
      "mor": 1910,
      "scr": 1911,
      "swords": 1912,
      "sort": 1913,
      "arad": 1914,
      "kets": 1915,
      "greater": 1916,
      "Isild": 1917,
      "dreadful": 1918,
      "circle": 1919,
      "Lurien": 1920,
      "reckon": 1921,
      "difficu": 1922,
      "Isildur": 1923,
      "Your": 1924,
      "alive": 1925,
      "tw": 1926,
      "vill": 1927,
      "att": 1928,
      "yourself": 1929,
      "poc": 1930,
      "spoken": 1931,
      "child": 1932,
      "drawing": 1933,
      "Dead": 1934,
      "burning": 1935,
      "learn": 1936,
      "hollow": 1937,
      "Cap": 1938,
      "ffi": 1939,
      "je": 1940,
      "lab": 1941,
      "sir": 1942,
      "tro": 1943,
      "blind": 1944,
      "boats": 1945,
      "desc": 1946,
      "Bereg": 1947,
      "distant": 1948,
      "appro": 1949,
      "creature": 1950,
      "faded": 1951,
      "corner": 1952,
      "Beregond": 1953,
      "),": 1954,
      "der": 1955,
      "num": 1956,
      "rel": 1957,
      "stro": 1958,
      "ays": 1959,
      "ilt": 1960,
      "terbur": 1961,
      "raised": 1962,
      "elf": 1963,
      "saying": 1964,
      "woke": 1965,
      "started": 1966,
      "shot": 1967,
      "bottom": 1968,
      "truth": 1969,
      "Captain": 1970,
      "Mid": 1971,
      "bor": 1972,
      "bridge": 1973,
      "city": 1974,
      "wolves": 1975,
      "ye": 1976,
      "height": 1977,
      "ines": 1978,
      "oured": 1979,
      "stony": 1980,
      "lean": 1981,
      "sea": 1982,
      "second": 1983,
      "ayed": 1984,
      "Butterbur": 1985,
      "Anduin": 1986,
      "speaking": 1987,
      "roads": 1988,
      "Beorn": 1989,
      "fax": 1990,
      "slept": 1991,
      "westward": 1992,
      "flowed": 1993,
      "pony": 1994,
      "muttered": 1995,
      "Wood": 1996,
      "fre": 1997,
      "kwood": 1998,
      "sand": 1999,
      "thy": 2000,
      "itself": 2001,
      "hot": 2002,
      "del": 2003,
      "show": 2004,
      "says": 2005,
      "shore": 2006,
      "leading": 2007,
      "hungry": 2008,
      "Shadowfax": 2009,
      "fingers": 2010,
      "Mirkwood": 2011,
      "treasure": 2012,
      "bound": 2013,
      "gain": 2014,
      "mount": 2015,
      "pat": 2016,
      "proud": 2017,
      "send": 2018,
      "western": 2019,
      "espe": 2020,
      "char": 2021,
      "pered": 2022,
      "rave": 2023,
      "five": 2024,
      "plan": 2025,
      "nights": 2026,
      "helm": 2027,
      "paths": 2028,
      "direc": 2029,
      "march": 2030,
      "rocks": 2031,
      "deadly": 2032,
      "guards": 2033,
      "busy": 2034,
      "iously": 2035,
      "difficult": 2036,
      "Fang": 2037,
      "cus": 2038,
      "sides": 2039,
      "troll": 2040,
      "thir": 2041,
      "orcs": 2042,
      "staff": 2043,
      "terror": 2044,
      "terrible": 2045,
      "willing": 2046,
      "waters": 2047,
      "fellow": 2048,
      "captain": 2049,
      "pier": 2050,
      "expected": 2051,
      "diffe": 2052,
      "easy": 2053,
      "tonight": 2054,
      "possible": 2055,
      "cil": 2056,
      "chill": 2057,
      "fou": 2058,
      "glow": 2059,
      "kill": 2060,
      "mail": 2061,
      "esseng": 2062,
      "windows": 2063,
      "flame": 2064,
      "climbing": 2065,
      "quietly": 2066,
      "breakfast": 2067,
      "question": 2068,
      "Moon": 2069,
      "leagues": 2070,
      "especially": 2071,
      "Long": 2072,
      "mine": 2073,
      "account": 2074,
      "holes": 2075,
      "peak": 2076,
      "blade": 2077,
      "whatever": 2078,
      "teen": 2079,
      "kings": 2080,
      "rested": 2081,
      "concer": 2082,
      "brown": 2083,
      "everything": 2084,
      "burned": 2085,
      "service": 2086,
      "Maybe": 2087,
      "escaped": 2088,
      "Whi": 2089,
      "Wild": 2090,
      "aving": 2091,
      "fli": 2092,
      "pill": 2093,
      "wanted": 2094,
      "hew": 2095,
      "storm": 2096,
      "oot": 2097,
      "key": 2098,
      "dev": 2099,
      "anyway": 2100,
      "iff": 2101,
      "Elven": 2102,
      "falls": 2103,
      "gazed": 2104,
      "messa": 2105,
      "chamber": 2106,
      "built": 2107,
      "queer": 2108,
      "yellow": 2109,
      "gathering": 2110,
      "travellers": 2111,
      "Just": 2112,
      "hang": 2113,
      "irth": 2114,
      "delight": 2115,
      "shri": 2116,
      "aked": 2117,
      "didn": 2118,
      "arrows": 2119,
      "pie": 2120,
      "writ": 2121,
      "expect": 2122,
      "Fangorn": 2123,
      "fif": 2124,
      "houses": 2125,
      "wings": 2126,
      "anx": 2127,
      "haven": 2128,
      "ents": 2129,
      "elven": 2130,
      "lower": 2131,
      "winding": 2132,
      "grin": 2133,
      "needed": 2134,
      "whisper": 2135,
      "purpose": 2136,
      "Dwarves": 2137,
      "knees": 2138,
      "destroyed": 2139,
      "honour": 2140,
      "Wormtongue": 2141,
      "camp": 2142,
      "fro": 2143,
      "flying": 2144,
      "farewell": 2145,
      "lake": 2146,
      "mad": 2147,
      "sang": 2148,
      "heed": 2149,
      "ased": 2150,
      "ens": 2151,
      "nder": 2152,
      "aged": 2153,
      "meant": 2154,
      "order": 2155,
      "pping": 2156,
      "carried": 2157,
      "midst": 2158,
      "comfortable": 2159,
      "foul": 2160,
      "Bard": 2161,
      "Farewell": 2162,
      "Gold": 2163,
      "Im": 2164,
      "cool": 2165,
      "fine": 2166,
      "glit": 2167,
      "mus": 2168,
      "heir": 2169,
      "ors": 2170,
      "orrow": 2171,
      "rope": 2172,
      "Hel": 2173,
      "inking": 2174,
      "ately": 2175,
      "shoulder": 2176,
      "horrible": 2177,
      "Grey": 2178,
      "crossed": 2179,
      "sweet": 2180,
      "Dwarf": 2181,
      "Bombur": 2182,
      "guests": 2183,
      "Middle": 2184,
      "Per": 2185,
      "blo": 2186,
      "bably": 2187,
      "case": 2188,
      "pri": 2189,
      "pers": 2190,
      "reas": 2191,
      "meal": 2192,
      "feast": 2193,
      "sometimes": 2194,
      "spread": 2195,
      "rank": 2196,
      "track": 2197,
      "shoulders": 2198,
      "grown": 2199,
      "parts": 2200,
      "slain": 2201,
      "flowers": 2202,
      "sighed": 2203,
      "troubled": 2204,
      "Morgu": 2205,
      "wrong": 2206,
      ").": 2207,
      "Buck": 2208,
      "cries": 2209,
      "dwe": 2210,
      "fright": 2211,
      "gent": 2212,
      "ating": 2213,
      "isn": 2214,
      "belt": 2215,
      "ets": 2216,
      "cks": 2217,
      "spl": 2218,
      "trem": 2219,
      "blew": 2220,
      "despair": 2221,
      "deeds": 2222,
      "stop": 2223,
      "whispered": 2224,
      "different": 2225,
      "dwelt": 2226,
      "Cele": 2227,
      "Gor": 2228,
      "Gam": 2229,
      "Un": 2230,
      "gif": 2231,
      "kes": 2232,
      "kno": 2233,
      "ns": 2234,
      "ured": 2235,
      "stick": 2236,
      "leaf": 2237,
      "keen": 2238,
      "endil": 2239,
      "Nothing": 2240,
      "angry": 2241,
      "rings": 2242,
      "speech": 2243,
      "Elendil": 2244,
      "iced": 2245,
      "however": 2246,
      "die": 2247,
      "listen": 2248,
      "torches": 2249,
      "roots": 2250,
      "surprise": 2251,
      "Dale": 2252,
      "cord": 2253,
      "ek": 2254,
      "gar": 2255,
      "gently": 2256,
      "mbered": 2257,
      "weather": 2258,
      "aced": 2259,
      "ards": 2260,
      "seek": 2261,
      "blood": 2262,
      "ledge": 2263,
      "riders": 2264,
      "choice": 2265,
      "supper": 2266,
      "remembered": 2267,
      "towers": 2268,
      "servants": 2269,
      "stirred": 2270,
      "direction": 2271,
      "Morgul": 2272,
      "Ah": 2273,
      "Are": 2274,
      "Alas": 2275,
      "Did": 2276,
      "Gr": 2277,
      "Half": 2278,
      "Have": 2279,
      "Ugl": 2280,
      "col": 2281,
      "dared": 2282,
      "ied": 2283,
      "la": 2284,
      "lore": 2285,
      "tur": 2286,
      "yl": 2287,
      "zing": 2288,
      "eds": 2289,
      "seven": 2290,
      "amaz": 2291,
      "mere": 2292,
      "asty": 2293,
      "choose": 2294,
      "unning": 2295,
      "usk": 2296,
      "shook": 2297,
      "fier": 2298,
      "fires": 2299,
      "Three": 2300,
      "whose": 2301,
      "ruffi": 2302,
      "probably": 2303,
      "laught": 2304,
      "listened": 2305,
      "Deep": 2306,
      "realm": 2307,
      "import": 2308,
      "Hobbiton": 2309,
      "Co": 2310,
      "Mu": 2311,
      "Pre": 2312,
      "eth": 2313,
      "fas": 2314,
      "pit": 2315,
      "pity": 2316,
      "lly": 2317,
      "ited": 2318,
      "hig": 2319,
      "amid": 2320,
      "ooth": 2321,
      "umped": 2322,
      "raft": 2323,
      "shapes": 2324,
      "watching": 2325,
      "thoughts": 2326,
      "northern": 2327,
      "stretched": 2328,
      "pret": 2329,
      "carry": 2330,
      "azg": 2331,
      "parted": 2332,
      "sense": 2333,
      "pleasant": 2334,
      "eager": 2335,
      "figure": 2336,
      "axe": 2337,
      "steadily": 2338,
      "Nay": 2339,
      "cher": 2340,
      "dry": 2341,
      "mit": 2342,
      "tled": 2343,
      "thunder": 2344,
      "third": 2345,
      "leaving": 2346,
      "iron": 2347,
      "thousand": 2348,
      "tem": 2349,
      "burst": 2350,
      "halls": 2351,
      "luin": 2352,
      "summer": 2353,
      "weapons": 2354,
      "Lake": 2355,
      "Sha": 2356,
      "Sil": 2357,
      "Ste": 2358,
      "Wat": 2359,
      "book": 2360,
      "gers": 2361,
      "pool": 2362,
      "race": 2363,
      "sick": 2364,
      "ref": 2365,
      "reve": 2366,
      "outhern": 2367,
      "hion": 2368,
      "aled": 2369,
      "somehow": 2370,
      "rance": 2371,
      "imag": 2372,
      "spears": 2373,
      "calling": 2374,
      "armed": 2375,
      "sooner": 2376,
      "desper": 2377,
      "waited": 2378,
      "trail": 2379,
      "appear": 2380,
      "certainly": 2381,
      "magic": 2382,
      "pocket": 2383,
      "Ith": 2384,
      "Land": 2385,
      "Mist": 2386,
      "Nazg": 2387,
      "Pere": 2388,
      "Rider": 2389,
      "Under": 2390,
      "bough": 2391,
      "dusk": 2392,
      "fun": 2393,
      "ming": 2394,
      "mound": 2395,
      "mile": 2396,
      "sus": 2397,
      "squ": 2398,
      "vic": 2399,
      "wrought": 2400,
      "thi": 2401,
      "asped": 2402,
      "ert": 2403,
      "stuff": 2404,
      "wet": 2405,
      "limb": 2406,
      "aloud": 2407,
      "vering": 2408,
      "spir": 2409,
      "breast": 2410,
      "affer": 2411,
      "questions": 2412,
      "music": 2413,
      "fierce": 2414,
      "Precious": 2415,
      "fashion": 2416,
      "Nazgyl": 2417,
      "Peregrin": 2418,
      "Gl": 2419,
      "Mith": 2420,
      "None": 2421,
      "Slow": 2422,
      "cup": 2423,
      "ds": 2424,
      "ired": 2425,
      "mering": 2426,
      "nasty": 2427,
      "rust": 2428,
      "rush": 2429,
      "ult": 2430,
      "itad": 2431,
      "aming": 2432,
      "noticed": 2433,
      "clut": 2434,
      "shel": 2435,
      "clothe": 2436,
      "grat": 2437,
      "ments": 2438,
      "weariness": 2439,
      "northward": 2440,
      "anced": 2441,
      "wrath": 2442,
      "struck": 2443,
      "welcome": 2444,
      "brief": 2445,
      "itadel": 2446,
      "Bill": 2447,
      "Ford": 2448,
      "House": 2449,
      "cave": 2450,
      "ma": 2451,
      "messeng": 2452,
      "ny": 2453,
      "wing": 2454,
      "wake": 2455,
      "seat": 2456,
      "als": 2457,
      "onely": 2458,
      "loved": 2459,
      "wenty": 2460,
      "shes": 2461,
      "rider": 2462,
      "sunlight": 2463,
      "Rohir": 2464,
      "single": 2465,
      "keeping": 2466,
      "southwards": 2467,
      "build": 2468,
      "foes": 2469,
      "wisdom": 2470,
      "view": 2471,
      "touch": 2472,
      "threw": 2473,
      "laughing": 2474,
      "minut": 2475,
      "children": 2476,
      "fresh": 2477,
      "mounted": 2478,
      "Helm": 2479,
      "Rohirrim": 2480,
      "Fili": 2481,
      "Gu": 2482,
      "Gluin": 2483,
      "War": 2484,
      "sank": 2485,
      "vain": 2486,
      "wore": 2487,
      "winter": 2488,
      "today": 2489,
      "ench": 2490,
      "stared": 2491,
      "stern": 2492,
      "sear": 2493,
      "history": 2494,
      "entered": 2495,
      "feared": 2496,
      "umbling": 2497,
      "sheer": 2498,
      "Stone": 2499,
      "six": 2500,
      "langu": 2501,
      "crawled": 2502,
      "Quick": 2503,
      "Can": 2504,
      "Up": 2505,
      "buck": 2506,
      "cru": 2507,
      "gen": 2508,
      "inted": 2509,
      "inte": 2510,
      "rod": 2511,
      "hissed": 2512,
      "enter": 2513,
      "cei": 2514,
      "seeing": 2515,
      "share": 2516,
      "trump": 2517,
      "smiled": 2518,
      "smooth": 2519,
      "clean": 2520,
      "failed": 2521,
      "wondering": 2522,
      "lords": 2523,
      "randir": 2524,
      "goblin": 2525,
      "wandering": 2526,
      "inner": 2527,
      "Already": 2528,
      "pleased": 2529,
      "catch": 2530,
      "scram": 2531,
      "reason": 2532,
      "important": 2533,
      "Shagrat": 2534,
      "Mithrandir": 2535,
      "Every": 2536,
      "Nine": 2537,
      "cas": 2538,
      "crying": 2539,
      "rise": 2540,
      "stumbled": 2541,
      "having": 2542,
      "ools": 2543,
      "ained": 2544,
      "trun": 2545,
      "clam": 2546,
      "begun": 2547,
      "broo": 2548,
      "tomorrow": 2549,
      "driven": 2550,
      "swept": 2551,
      "gleamed": 2552,
      "beasts": 2553,
      "attack": 2554,
      "Gamge": 2555,
      "ruffians": 2556,
      "Slowly": 2557,
      "Coun": 2558,
      "bann": 2559,
      "sque": 2560,
      "erable": 2561,
      "attered": 2562,
      "hither": 2563,
      "lives": 2564,
      "delay": 2565,
      "oney": 2566,
      "essed": 2567,
      "range": 2568,
      "post": 2569,
      "prep": 2570,
      "party": 2571,
      "brink": 2572,
      "udge": 2573,
      "horns": 2574,
      "finger": 2575,
      "hundreds": 2576,
      "lane": 2577,
      "threat": 2578,
      "paused": 2579,
      "knife": 2580,
      "stroke": 2581,
      "Perhaps": 2582,
      "laughter": 2583,
      "Misty": 2584,
      "Ed": 2585,
      "Horn": 2586,
      "Never": 2587,
      "bread": 2588,
      "dled": 2589,
      "gor": 2590,
      "grave": 2591,
      "ield": 2592,
      "lid": 2593,
      "pace": 2594,
      "pic": 2595,
      "tted": 2596,
      "ying": 2597,
      "stiff": 2598,
      "halt": 2599,
      "level": 2600,
      "sei": 2601,
      "nois": 2602,
      "ril": 2603,
      "showed": 2604,
      "endless": 2605,
      "space": 2606,
      "deeper": 2607,
      "courage": 2608,
      "flowing": 2609,
      "grief": 2610,
      "Loth": 2611,
      "sorry": 2612,
      "wisted": 2613,
      "adventures": 2614,
      "athed": 2615,
      "trolls": 2616,
      "Gamgee": 2617,
      "Hall": 2618,
      "Mar": 2619,
      "Oh": 2620,
      "Take": 2621,
      "bones": 2622,
      "ction": 2623,
      "fat": 2624,
      "fish": 2625,
      "fought": 2626,
      "h4": 2627,
      "harm": 2628,
      "twenty": 2629,
      "twisted": 2630,
      "wom": 2631,
      "rels": 2632,
      "thorn": 2633,
      "ations": 2634,
      "ories": 2635,
      "weight": 2636,
      "vered": 2637,
      "liked": 2638,
      "added": 2639,
      "hoped": 2640,
      "lightning": 2641,
      "spell": 2642,
      "afternoon": 2643,
      "steel": 2644,
      "content": 2645,
      "marched": 2646,
      "Doom": 2647,
      "hurry": 2648,
      "hurried": 2649,
      "hiding": 2650,
      "loomed": 2651,
      "advice": 2652,
      "banks": 2653,
      "meeting": 2654,
      "following": 2655,
      "wrapped": 2656,
      "trick": 2657,
      "Hald": 2658,
      "hanging": 2659,
      "Council": 2660,
      "Am": 2661,
      "Eye": 2662,
      "More": 2663,
      "southern": 2664,
      "ug": 2665,
      "zen": 2666,
      "eri": 2667,
      "stab": 2668,
      "stuck": 2669,
      "search": 2670,
      "wash": 2671,
      "altogether": 2672,
      "aston": 2673,
      "depart": 2674,
      "cking": 2675,
      "bold": 2676,
      "umn": 2677,
      "guide": 2678,
      "ridden": 2679,
      "friendly": 2680,
      "friendship": 2681,
      "hearing": 2682,
      "scar": 2683,
      "strangers": 2684,
      "southward": 2685,
      "mists": 2686,
      "apping": 2687,
      "drove": 2688,
      "stairs": 2689,
      "borne": 2690,
      "Cot": 2691,
      "higher": 2692,
      "language": 2693,
      "Haldir": 2694,
      "Po": 2695,
      "berry": 2696,
      "cent": 2697,
      "fly": 2698,
      "ike": 2699,
      "sne": 2700,
      "ual": 2701,
      "ught": 2702,
      "throw": 2703,
      "aggot": 2704,
      "rich": 2705,
      "outer": 2706,
      "idea": 2707,
      "bles": 2708,
      "blaz": 2709,
      "bye": 2710,
      "spare": 2711,
      "spite": 2712,
      "glass": 2713,
      "flung": 2714,
      "cheer": 2715,
      "Behind": 2716,
      "shores": 2717,
      "ancing": 2718,
      "lurien": 2719,
      "visible": 2720,
      "uneas": 2721,
      "Bombad": 2722,
      "message": 2723,
      "gift": 2724,
      "chers": 2725,
      "prepared": 2726,
      "Lothlurien": 2727,
      "Dor": 2728,
      "Dur": 2729,
      "cor": 2730,
      "cing": 2731,
      "gap": 2732,
      "ner": 2733,
      "oth": 2734,
      "pull": 2735,
      "pools": 2736,
      "tin": 2737,
      "task": 2738,
      "llen": 2739,
      "force": 2740,
      "notice": 2741,
      "ardon": 2742,
      "shud": 2743,
      "wheel": 2744,
      "blan": 2745,
      "ender": 2746,
      "tress": 2747,
      "grand": 2748,
      "gling": 2749,
      "exc": 2750,
      "talked": 2751,
      "skin": 2752,
      "conf": 2753,
      "holding": 2754,
      "staring": 2755,
      "horsemen": 2756,
      "pipe": 2757,
      "coat": 2758,
      "perilous": 2759,
      "wandered": 2760,
      "creatures": 2761,
      "fighting": 2762,
      "blowing": 2763,
      "adventure": 2764,
      "hideous": 2765,
      "Brandybuck": 2766,
      "picked": 2767,
      "throat": 2768,
      "Buckland": 2769,
      "Celeborn": 2770,
      "desperate": 2771,
      "ceived": 2772,
      "Bar": 2773,
      "Fire": 2774,
      "Re": 2775,
      "Two": 2776,
      "crow": 2777,
      "craft": 2778,
      "dra": 2779,
      "fill": 2780,
      "pse": 2781,
      "pardon": 2782,
      "shad": 2783,
      "tch": 2784,
      "thus": 2785,
      "oras": 2786,
      "llum": 2787,
      "issu": 2788,
      "belong": 2789,
      "hilt": 2790,
      "wicked": 2791,
      "ros": 2792,
      "allowed": 2793,
      "ache": 2794,
      "gollum": 2795,
      "pected": 2796,
      "anyone": 2797,
      "shine": 2798,
      "spider": 2799,
      "looks": 2800,
      "teeth": 2801,
      "knowing": 2802,
      "afterwards": 2803,
      "stooped": 2804,
      "horror": 2805,
      "dismay": 2806,
      "discovered": 2807,
      "minds": 2808,
      "gazing": 2809,
      "prove": 2810,
      "chain": 2811,
      "happy": 2812,
      "distur": 2813,
      "signs": 2814,
      "thrown": 2815,
      "dreams": 2816,
      "touched": 2817,
      "written": 2818,
      "boughs": 2819,
      "cruel": 2820,
      "gener": 2821,
      "Edoras": 2822,
      "Bridge": 2823,
      "Eor": 2824,
      "bree": 2825,
      "birth": 2826,
      "cess": 2827,
      "killed": 2828,
      "lines": 2829,
      "mn": 2830,
      "thic": 2831,
      "inging": 2832,
      "arri": 2833,
      "sty": 2834,
      "bearer": 2835,
      "nod": 2836,
      "waste": 2837,
      "acing": 2838,
      "mered": 2839,
      "lose": 2840,
      "roused": 2841,
      "myn": 2842,
      "vens": 2843,
      "unders": 2844,
      "thank": 2845,
      "rule": 2846,
      "flash": 2847,
      "lings": 2848,
      "sounded": 2849,
      "proved": 2850,
      "Green": 2851,
      "serve": 2852,
      "hurrying": 2853,
      "drum": 2854,
      "stronger": 2855,
      "See": 2856,
      "eaten": 2857,
      "sorrow": 2858,
      "crawling": 2859,
      "mortal": 2860,
      "approach": 2861,
      "Cotton": 2862,
      "Bombadil": 2863,
      "Pe": 2864,
      "Tell": 2865,
      "apped": 2866,
      "bay": 2867,
      "brow": 2868,
      "caves": 2869,
      "gn": 2870,
      "gall": 2871,
      "kin": 2872,
      "pay": 2873,
      "rup": 2874,
      "var": 2875,
      "wre": 2876,
      "worn": 2877,
      "ordered": 2878,
      "meas": 2879,
      "lob": 2880,
      "gear": 2881,
      "Its": 2882,
      "spiders": 2883,
      "backs": 2884,
      "shaft": 2885,
      "worst": 2886,
      "spear": 2887,
      "glance": 2888,
      "flames": 2889,
      "joined": 2890,
      "skill": 2891,
      "awake": 2892,
      "fail": 2893,
      "burg": 2894,
      "brother": 2895,
      "fortune": 2896,
      "works": 2897,
      "ilien": 2898,
      "Any": 2899,
      "glimpse": 2900,
      "promised": 2901,
      "twink": 2902,
      "labour": 2903,
      "Ithilien": 2904,
      "Poor": 2905,
      "draught": 2906,
      "Emyn": 2907,
      "Gaffer": 2908,
      "Kili": 2909,
      "Man": 2910,
      "Over": 2911,
      "Upon": 2912,
      "cons": 2913,
      "cunning": 2914,
      "dles": 2915,
      "loose": 2916,
      "pad": 2917,
      "tight": 2918,
      "ths": 2919,
      "orfin": 2920,
      "toes": 2921,
      "hief": 2922,
      "wield": 2923,
      "roth": 2924,
      "alth": 2925,
      "entrance": 2926,
      "####-\"": 2927,
      "elvish": 2928,
      "quar": 2929,
      "tears": 2930,
      "court": 2931,
      "disappeared": 2932,
      "effort": 2933,
      "proper": 2934,
      "rolling": 2935,
      "silently": 2936,
      "doesn": 2937,
      "bearing": 2938,
      "cloaks": 2939,
      "finished": 2940,
      "Shelob": 2941,
      "prisoners": 2942,
      "pretty": 2943,
      "victory": 2944,
      "Glorfin": 2945,
      "Dori": 2946,
      "Glorfindel": 2947,
      "Pres": 2948,
      "afar": 2949,
      "bly": 2950,
      "bund": 2951,
      "dull": 2952,
      "fal": 2953,
      "hy": 2954,
      "jumped": 2955,
      "od": 2956,
      "por": 2957,
      "scre": 2958,
      "zz": 2959,
      "inv": 2960,
      "inous": 2961,
      "ints": 2962,
      "ingly": 2963,
      "nose": 2964,
      "ceive": 2965,
      "peering": 2966,
      "lod": 2967,
      "loss": 2968,
      "tood": 2969,
      "raise": 2970,
      "hedge": 2971,
      "warri": 2972,
      "aths": 2973,
      "ssed": 2974,
      "angers": 2975,
      "Elvish": 2976,
      "setting": 2977,
      "deser": 2978,
      "chosen": 2979,
      "happen": 2980,
      "please": 2981,
      "lady": 2982,
      "leader": 2983,
      "cursed": 2984,
      "assault": 2985,
      "Gobl": 2986,
      "vision": 2987,
      "surprised": 2988,
      "hunting": 2989,
      "Water": 2990,
      "Durin": 2991,
      "understood": 2992,
      "Eld": 2993,
      "Maggot": 2994,
      "Pr": 2995,
      "Pel": 2996,
      "Red": 2997,
      "Sting": 2998,
      "Wind": 2999,
      "bout": 3000,
      "cou": 3001,
      "flight": 3002,
      "sons": 3003,
      "wag": 3004,
      "xed": 3005,
      "remo": 3006,
      "reward": 3007,
      "refu": 3008,
      "thread": 3009,
      "ham": 3010,
      "hil": 3011,
      "saved": 3012,
      "rious": 3013,
      "arest": 3014,
      "abroad": 3015,
      "seeking": 3016,
      "yours": 3017,
      "knowledge": 3018,
      "treache": 3019,
      "answ": 3020,
      "ruined": 3021,
      "finding": 3022,
      "sounds": 3023,
      "dying": 3024,
      "guarded": 3025,
      "kindled": 3026,
      "laden": 3027,
      "leaping": 3028,
      "figures": 3029,
      "pressed": 3030,
      "twice": 3031,
      "rumour": 3032,
      "pillars": 3033,
      "gentle": 3034,
      "clothes": 3035,
      "casion": 3036,
      "Amroth": 3037,
      "birthday": 3038,
      "Car": 3039,
      "Dun": 3040,
      "Fir": 3041,
      "High": 3042,
      "Os": 3043,
      "athing": 3044,
      "cy": 3045,
      "cow": 3046,
      "da": 3047,
      "nb": 3048,
      "piled": 3049,
      "rab": 3050,
      "sway": 3051,
      "wan": 3052,
      "waking": 3053,
      "theless": 3054,
      "token": 3055,
      "stam": 3056,
      "liath": 3057,
      "hoof": 3058,
      "terri": 3059,
      "greet": 3060,
      "rous": 3061,
      "sol": 3062,
      "sold": 3063,
      "rahil": 3064,
      "spent": 3065,
      "older": 3066,
      "fied": 3067,
      "bbed": 3068,
      "passes": 3069,
      "glar": 3070,
      "giliath": 3071,
      "putting": 3072,
      "marching": 3073,
      "clearly": 3074,
      "trap": 3075,
      "dragons": 3076,
      "rooms": 3077,
      "nigh": 3078,
      "medi": 3079,
      "Also": 3080,
      "murmur": 3081,
      "swung": 3082,
      "decided": 3083,
      "twilight": 3084,
      "promise": 3085,
      "family": 3086,
      "number": 3087,
      "piece": 3088,
      "Imrahil": 3089,
      "frightened": 3090,
      "Muil": 3091,
      "seized": 3092,
      "Presently": 3093,
      "Osgiliath": 3094,
      "Foll": 3095,
      "Her": 3096,
      "Ti": 3097,
      "emb": 3098,
      "judge": 3099,
      "kh": 3100,
      "mali": 3101,
      "ras": 3102,
      "wave": 3103,
      "strode": 3104,
      "adoc": 3105,
      "form": 3106,
      "ored": 3107,
      "fered": 3108,
      "lots": 3109,
      "claw": 3110,
      "worth": 3111,
      "ishnb": 3112,
      "explain": 3113,
      "ridges": 3114,
      "flood": 3115,
      "discover": 3116,
      "mention": 3117,
      "store": 3118,
      "kindly": 3119,
      "Bagginses": 3120,
      "careful": 3121,
      "barrels": 3122,
      "autumn": 3123,
      "dropped": 3124,
      "fading": 3125,
      "Most": 3126,
      "Bywater": 3127,
      "ggled": 3128,
      "village": 3129,
      "leaning": 3130,
      "Grishnb": 3131,
      "gallop": 3132,
      "Grishnbkh": 3133,
      "Bey": 3134,
      "Eag": 3135,
      "Last": 3136,
      "Our": 3137,
      "Other": 3138,
      "coll": 3139,
      "dut": 3140,
      "knights": 3141,
      "loo": 3142,
      "mast": 3143,
      "mood": 3144,
      "naught": 3145,
      "pin": 3146,
      "pen": 3147,
      "pal": 3148,
      "pushed": 3149,
      "thee": 3150,
      "beer": 3151,
      "beam": 3152,
      "sell": 3153,
      "mead": 3154,
      "unted": 3155,
      "unseen": 3156,
      "dep": 3157,
      "owned": 3158,
      "hate": 3159,
      "usually": 3160,
      "usual": 3161,
      "blast": 3162,
      "endure": 3163,
      "spur": 3164,
      "lessly": 3165,
      "tram": 3166,
      "wholly": 3167,
      "shallow": 3168,
      "stooping": 3169,
      "mostly": 3170,
      "job": 3171,
      "iths": 3172,
      "skir": 3173,
      "faith": 3174,
      "parting": 3175,
      "telling": 3176,
      "quicker": 3177,
      "useful": 3178,
      "bushes": 3179,
      "meaning": 3180,
      "carefully": 3181,
      "miserable": 3182,
      "stayed": 3183,
      "actually": 3184,
      "companion": 3185,
      "welve": 3186,
      "occasion": 3187,
      "pointed": 3188,
      "Brandywine": 3189,
      "weapon": 3190,
      "legend": 3191,
      "defence": 3192,
      "custom": 3193,
      "peaks": 3194,
      "hewn": 3195,
      "anxious": 3196,
      "Goldberry": 3197,
      "Silver": 3198,
      "Steward": 3199,
      "malice": 3200,
      "Beyond": 3201,
      "About": 3202,
      "Chief": 3203,
      "Gild": 3204,
      "Give": 3205,
      "Kings": 3206,
      "Meri": 3207,
      "Power": 3208,
      "Would": 3209,
      "cam": 3210,
      "dies": 3211,
      "eve": 3212,
      "fil": 3213,
      "fate": 3214,
      "glo": 3215,
      "lam": 3216,
      "lur": 3217,
      "named": 3218,
      "pu": 3219,
      "tling": 3220,
      "idently": 3221,
      "wasn": 3222,
      "accord": 3223,
      "means": 3224,
      "hose": 3225,
      "tied": 3226,
      "wouldn": 3227,
      "eyed": 3228,
      "play": 3229,
      "plans": 3230,
      "plung": 3231,
      "farthing": 3232,
      "warning": 3233,
      "polit": 3234,
      "posed": 3235,
      "antly": 3236,
      "ringing": 3237,
      "ishing": 3238,
      "ign": 3239,
      "lash": 3240,
      "comple": 3241,
      "scattered": 3242,
      "marvell": 3243,
      "erer": 3244,
      "curtain": 3245,
      "nexpected": 3246,
      "hasty": 3247,
      "shouting": 3248,
      "ances": 3249,
      "visit": 3250,
      "matters": 3251,
      "gleaming": 3252,
      "passages": 3253,
      "marks": 3254,
      "struggled": 3255,
      "claimed": 3256,
      "While": 3257,
      "flick": 3258,
      "splend": 3259,
      "amaze": 3260,
      "suspic": 3261,
      "limbs": 3262,
      "First": 3263,
      "mediately": 3264,
      "Gildor": 3265,
      "Meriadoc": 3266,
      "Book": 3267,
      "Cur": 3268,
      "Cirith": 3269,
      "Citadel": 3270,
      "Dol": 3271,
      "Ever": 3272,
      "Snow": 3273,
      "Wi": 3274,
      "Wise": 3275,
      "cke": 3276,
      "dale": 3277,
      "hut": 3278,
      "lonely": 3279,
      "ray": 3280,
      "hesit": 3281,
      "repe": 3282,
      "removed": 3283,
      "tops": 3284,
      "island": 3285,
      "weak": 3286,
      "hiss": 3287,
      "lip": 3288,
      "lied": 3289,
      "aling": 3290,
      "nearest": 3291,
      "upper": 3292,
      "deb": 3293,
      "defe": 3294,
      "peered": 3295,
      "fru": 3296,
      "somewhere": 3297,
      "spark": 3298,
      "quest": 3299,
      "affair": 3300,
      "anting": 3301,
      "Nob": 3302,
      "offer": 3303,
      "managed": 3304,
      "settled": 3305,
      "deeply": 3306,
      "Orc": 3307,
      "helped": 3308,
      "spot": 3309,
      "Isen": 3310,
      "smaller": 3311,
      "rocky": 3312,
      "caver": 3313,
      "Something": 3314,
      "tongues": 3315,
      "size": 3316,
      "fog": 3317,
      "parti": 3318,
      "crossing": 3319,
      "torch": 3320,
      "glimmering": 3321,
      "summon": 3322,
      "points": 3323,
      "harsh": 3324,
      "knives": 3325,
      "Captains": 3326,
      "Gorbag": 3327,
      "banner": 3328,
      "Prince": 3329,
      "hoofs": 3330,
      "Follow": 3331,
      "Time": 3332,
      "plunged": 3333,
      "Again": 3334,
      "Barad": 3335,
      "Days": 3336,
      "Get": 3337,
      "Houses": 3338,
      "Neither": 3339,
      "Those": 3340,
      "Vale": 3341,
      "Western": 3342,
      "bending": 3343,
      "crou": 3344,
      "daught": 3345,
      "drank": 3346,
      "ease": 3347,
      "hunt": 3348,
      "hud": 3349,
      "kins": 3350,
      "lain": 3351,
      "mir": 3352,
      "map": 3353,
      "slay": 3354,
      "sought": 3355,
      "tail": 3356,
      "twelve": 3357,
      "wed": 3358,
      "reed": 3359,
      "remind": 3360,
      "owers": 3361,
      "stout": 3362,
      "iding": 3363,
      "wels": 3364,
      "wives": 3365,
      "utter": 3366,
      "lift": 3367,
      "uring": 3368,
      "deem": 3369,
      "frag": 3370,
      "ourselves": 3371,
      "using": 3372,
      "shan": 3373,
      "gems": 3374,
      "bodies": 3375,
      "Weather": 3376,
      "wherever": 3377,
      "spect": 3378,
      "sunset": 3379,
      "ships": 3380,
      "scent": 3381,
      "marshes": 3382,
      "brand": 3383,
      "dyr": 3384,
      "growled": 3385,
      "plains": 3386,
      "lads": 3387,
      "smote": 3388,
      "miss": 3389,
      "leapt": 3390,
      "perils": 3391,
      "Darkness": 3392,
      "torment": 3393,
      "watchful": 3394,
      "fathers": 3395,
      "easier": 3396,
      "strug": 3397,
      "cracked": 3398,
      "packs": 3399,
      "Willi": 3400,
      "pierced": 3401,
      "fifty": 3402,
      "blocked": 3403,
      "revealed": 3404,
      "minute": 3405,
      "Eorl": 3406,
      "breeze": 3407,
      "remote": 3408,
      "amazement": 3409,
      "ckered": 3410,
      "Bert": 3411,
      "Dain": 3412,
      "Gil": 3413,
      "Night": 3414,
      "Sp": 3415,
      "Thir": 3416,
      "ait": 3417,
      "bade": 3418,
      "cal": 3419,
      "dust": 3420,
      "fountain": 3421,
      "gon": 3422,
      "nine": 3423,
      "pour": 3424,
      "ram": 3425,
      "tast": 3426,
      "unexpected": 3427,
      "incl": 3428,
      "rele": 3429,
      "thither": 3430,
      "attent": 3431,
      "stu": 3432,
      "string": 3433,
      "behold": 3434,
      "leather": 3435,
      "weed": 3436,
      "withered": 3437,
      "aded": 3438,
      "alas": 3439,
      "dozen": 3440,
      "neigh": 3441,
      "departed": 3442,
      "willow": 3443,
      "couldn": 3444,
      "Samwise": 3445,
      "shaking": 3446,
      "shaped": 3447,
      "arts": 3448,
      "menor": 3449,
      "manner": 3450,
      "firm": 3451,
      "smile": 3452,
      "creeping": 3453,
      "wooden": 3454,
      "crash": 3455,
      "Rings": 3456,
      "fav": 3457,
      "shivered": 3458,
      "swir": 3459,
      "nedain": 3460,
      "slender": 3461,
      "carrying": 3462,
      "plainly": 3463,
      "journeyed": 3464,
      "kindred": 3465,
      "caut": 3466,
      "curious": 3467,
      "returning": 3468,
      "missed": 3469,
      "sie": 3470,
      "sigh": 3471,
      "moonlight": 3472,
      "Such": 3473,
      "dimly": 3474,
      "branch": 3475,
      "cliffs": 3476,
      "repor": 3477,
      "Mirror": 3478,
      "strike": 3479,
      "jewels": 3480,
      "madness": 3481,
      "tempt": 3482,
      "messengers": 3483,
      "searching": 3484,
      "trumpets": 3485,
      "odd": 3486,
      "Eagles": 3487,
      "Weathertop": 3488,
      "William": 3489,
      "Away": 3490,
      "Big": 3491,
      "Ere": 3492,
      "Hal": 3493,
      "Nim": 3494,
      "Rau": 3495,
      "ald": 3496,
      "bas": 3497,
      "bend": 3498,
      "bite": 3499,
      "bows": 3500,
      "cook": 3501,
      "due": 3502,
      "fer": 3503,
      "game": 3504,
      "ose": 3505,
      "rri": 3506,
      "rushed": 3507,
      "sim": 3508,
      "torn": 3509,
      "tles": 3510,
      "rear": 3511,
      "reali": 3512,
      "ennor": 3513,
      "washed": 3514,
      "adan": 3515,
      "rill": 3516,
      "ils": 3517,
      "uncomfortable": 3518,
      "anywhere": 3519,
      "ourn": 3520,
      "someone": 3521,
      "otherwise": 3522,
      "played": 3523,
      "rage": 3524,
      "handed": 3525,
      "closer": 3526,
      "flashed": 3527,
      "shadowy": 3528,
      "giving": 3529,
      "resting": 3530,
      "discus": 3531,
      "Shirri": 3532,
      "events": 3533,
      "counted": 3534,
      "chose": 3535,
      "wonderful": 3536,
      "carved": 3537,
      "rivers": 3538,
      "wilder": 3539,
      "mischief": 3540,
      "barren": 3541,
      "eating": 3542,
      "ancy": 3543,
      "lantern": 3544,
      "hosts": 3545,
      "tunnels": 3546,
      "circl": 3547,
      "knelt": 3548,
      "root": 3549,
      "report": 3550,
      "healing": 3551,
      "crowned": 3552,
      "famili": 3553,
      "leaned": 3554,
      "flickered": 3555,
      "shrill": 3556,
      "funny": 3557,
      "mounds": 3558,
      "Hornburg": 3559,
      "various": 3560,
      "according": 3561,
      "complete": 3562,
      "debate": 3563,
      "huddled": 3564,
      "Rauros": 3565,
      "Shirriff": 3566,
      "Fern": 3567,
      "Had": 3568,
      "Paths": 3569,
      "Wake": 3570,
      "band": 3571,
      "bits": 3572,
      "brows": 3573,
      "dam": 3574,
      "eaves": 3575,
      "eks": 3576,
      "fond": 3577,
      "hom": 3578,
      "nin": 3579,
      "shim": 3580,
      "test": 3581,
      "vig": 3582,
      "wit": 3583,
      "relu": 3584,
      "asking": 3585,
      "attle": 3586,
      "army": 3587,
      "arled": 3588,
      "iss": 3589,
      "ition": 3590,
      "stag": 3591,
      "hau": 3592,
      "haz": 3593,
      "habit": 3594,
      "ominous": 3595,
      "bere": 3596,
      "wealth": 3597,
      "dol": 3598,
      "rier": 3599,
      "ripp": 3600,
      "cell": 3601,
      "fect": 3602,
      "sole": 3603,
      "boom": 3604,
      "motion": 3605,
      "lightly": 3606,
      "bbing": 3607,
      "ishment": 3608,
      "mured": 3609,
      "join": 3610,
      "rung": 3611,
      "openly": 3612,
      "slaves": 3613,
      "Once": 3614,
      "Entwash": 3615,
      "mistake": 3616,
      "foe": 3617,
      "servant": 3618,
      "ushing": 3619,
      "fourteen": 3620,
      "griev": 3621,
      "louder": 3622,
      "believed": 3623,
      "murmured": 3624,
      "faintly": 3625,
      "pointing": 3626,
      "bidden": 3627,
      "flew": 3628,
      "pursuit": 3629,
      "reckoning": 3630,
      "trembling": 3631,
      "winged": 3632,
      "scrambled": 3633,
      "People": 3634,
      "Pelennor": 3635,
      "skirts": 3636,
      "Wizard": 3637,
      "daughter": 3638,
      "Ferny": 3639,
      "reluct": 3640,
      "Barrow": 3641,
      "Day": 3642,
      "Fear": 3643,
      "Hold": 3644,
      "Light": 3645,
      "Ride": 3646,
      "Rangers": 3647,
      "bould": 3648,
      "cand": 3649,
      "ience": 3650,
      "kick": 3651,
      "maid": 3652,
      "pine": 3653,
      "praise": 3654,
      "sinking": 3655,
      "vale": 3656,
      "vali": 3657,
      "anim": 3658,
      "regre": 3659,
      "respect": 3660,
      "asp": 3661,
      "oned": 3662,
      "ising": 3663,
      "ster": 3664,
      "stories": 3665,
      "wept": 3666,
      "week": 3667,
      "hissing": 3668,
      "forgetting": 3669,
      "dogs": 3670,
      "upwards": 3671,
      "ordin": 3672,
      "rav": 3673,
      "spy": 3674,
      "downs": 3675,
      "greatly": 3676,
      "greatest": 3677,
      "els": 3678,
      "daylight": 3679,
      "apart": 3680,
      "poison": 3681,
      "Thus": 3682,
      "Thank": 3683,
      "nightfall": 3684,
      "howling": 3685,
      "breaking": 3686,
      "letters": 3687,
      "awned": 3688,
      "burglar": 3689,
      "runs": 3690,
      "prote": 3691,
      "fortun": 3692,
      "buried": 3693,
      "remains": 3694,
      "risk": 3695,
      "wildly": 3696,
      "closely": 3697,
      "driving": 3698,
      "glimmer": 3699,
      "steeply": 3700,
      "echoed": 3701,
      "shields": 3702,
      "concerning": 3703,
      "pieces": 3704,
      "glittered": 3705,
      "person": 3706,
      "clutching": 3707,
      "Guard": 3708,
      "pulled": 3709,
      "couple": 3710,
      "Amon": 3711,
      "Back": 3712,
      "Dim": 3713,
      "Dike": 3714,
      "Farm": 3715,
      "Harad": 3716,
      "Me": 3717,
      "Since": 3718,
      "Too": 3719,
      "Wait": 3720,
      "avo": 3721,
      "bra": 3722,
      "dwind": 3723,
      "fancy": 3724,
      "gasped": 3725,
      "hum": 3726,
      "mi": 3727,
      "oak": 3728,
      "tended": 3729,
      "tumbled": 3730,
      "wits": 3731,
      "invisible": 3732,
      "rect": 3733,
      "thres": 3734,
      "orse": 3735,
      "arg": 3736,
      "ister": 3737,
      "stained": 3738,
      "seas": 3739,
      "roaring": 3740,
      "lips": 3741,
      "ford": 3742,
      "forced": 3743,
      "dog": 3744,
      "rily": 3745,
      "meat": 3746,
      "outs": 3747,
      "hoard": 3748,
      "butter": 3749,
      "ety": 3750,
      "locked": 3751,
      "blessed": 3752,
      "rald": 3753,
      "yourselves": 3754,
      "treat": 3755,
      "warned": 3756,
      "Through": 3757,
      "perished": 3758,
      "goods": 3759,
      "cloven": 3760,
      "glade": 3761,
      "glint": 3762,
      "calls": 3763,
      "clearer": 3764,
      "armour": 3765,
      "blackness": 3766,
      "breathing": 3767,
      "prevent": 3768,
      "prof": 3769,
      "runes": 3770,
      "streams": 3771,
      "Entwives": 3772,
      "wants": 3773,
      "beds": 3774,
      "beards": 3775,
      "easily": 3776,
      "drop": 3777,
      "marked": 3778,
      "gloomy": 3779,
      "eagle": 3780,
      "Lug": 3781,
      "league": 3782,
      "destroy": 3783,
      "healed": 3784,
      "bagg": 3785,
      "fleet": 3786,
      "descri": 3787,
      "Golden": 3788,
      "glittering": 3789,
      "Gorgor": 3790,
      "Ungo": 3791,
      "turf": 3792,
      "imagined": 3793,
      "Quickly": 3794,
      "uneasy": 3795,
      "wretched": 3796,
      "bundle": 3797,
      "Elder": 3798,
      "answering": 3799,
      "duty": 3800,
      "polite": 3801,
      "fruit": 3802,
      "Spring": 3803,
      "valiant": 3804,
      "Farmer": 3805,
      "threshold": 3806,
      "Bur": 3807,
      "Bol": 3808,
      "Battle": 3809,
      "Drag": 3810,
      "Gh": 3811,
      "Glo": 3812,
      "Gates": 3813,
      "Ke": 3814,
      "Make": 3815,
      "Warden": 3816,
      "boo": 3817,
      "cting": 3818,
      "dun": 3819,
      "eh": 3820,
      "fed": 3821,
      "harrow": 3822,
      "ler": 3823,
      "lest": 3824,
      "lamp": 3825,
      "mill": 3826,
      "tide": 3827,
      "tting": 3828,
      "vn": 3829,
      "wain": 3830,
      "yield": 3831,
      "herald": 3832,
      "ane": 3833,
      "edges": 3834,
      "beheld": 3835,
      "ades": 3836,
      "alarm": 3837,
      "ague": 3838,
      "fears": 3839,
      "hated": 3840,
      "lode": 3841,
      "somewhat": 3842,
      "sub": 3843,
      "darker": 3844,
      "immediately": 3845,
      "plent": 3846,
      "wars": 3847,
      "menace": 3848,
      "mbers": 3849,
      "mud": 3850,
      "glinted": 3851,
      "exclaimed": 3852,
      "riddle": 3853,
      "nearby": 3854,
      "cial": 3855,
      "waist": 3856,
      "yonder": 3857,
      "folly": 3858,
      "--'": 3859,
      "carven": 3860,
      "happening": 3861,
      "flower": 3862,
      "larger": 3863,
      "meanwhile": 3864,
      "midnight": 3865,
      "appo": 3866,
      "bringing": 3867,
      "loudly": 3868,
      "Almost": 3869,
      "imply": 3870,
      "sadly": 3871,
      "hunted": 3872,
      "groan": 3873,
      "beating": 3874,
      "daresay": 3875,
      "Downs": 3876,
      "foolish": 3877,
      "Which": 3878,
      "messages": 3879,
      "whispering": 3880,
      "interested": 3881,
      "trunk": 3882,
      "noises": 3883,
      "scarce": 3884,
      "shuddered": 3885,
      "thickets": 3886,
      "warrior": 3887,
      "Silverlode": 3888,
      "Third": 3889,
      "favour": 3890,
      "reported": 3891,
      "ordinary": 3892,
      "Gloin": 3893,
      "'\"": 3894,
      "</": 3895,
      "Ara": 3896,
      "Bof": 3897,
      "Bes": 3898,
      "Carad": 3899,
      "Dwal": 3900,
      "Ep": 3901,
      "Ex": 3902,
      "Fat": 3903,
      "Fair": 3904,
      "Five": 3905,
      "Few": 3906,
      "Hb": 3907,
      "Him": 3908,
      "Mount": 3909,
      "aven": 3910,
      "bin": 3911,
      "bone": 3912,
      "bark": 3913,
      "fen": 3914,
      "hras": 3915,
      "lawn": 3916,
      "makes": 3917,
      "opp": 3918,
      "paces": 3919,
      "rz": 3920,
      "tar": 3921,
      "vided": 3922,
      "yards": 3923,
      "heap": 3924,
      "inion": 3925,
      "relat": 3926,
      "ashes": 3927,
      "itable": 3928,
      "stage": 3929,
      "omb": 3930,
      "betr": 3931,
      "webs": 3932,
      "veiled": 3933,
      "roar": 3934,
      "acce": 3935,
      "agree": 3936,
      "agreed": 3937,
      "ceased": 3938,
      "owning": 3939,
      "shoot": 3940,
      "box": 3941,
      "sped": 3942,
      "####-<": 3943,
      "backwards": 3944,
      "file": 3945,
      "rant": 3946,
      "farmer": 3947,
      "wary": 3948,
      "wolf": 3949,
      "rides": 3950,
      "riddles": 3951,
      "fles": 3952,
      "creep": 3953,
      "chen": 3954,
      "desired": 3955,
      "satis": 3956,
      "contin": 3957,
      "hearth": 3958,
      "curled": 3959,
      "dragged": 3960,
      "heavily": 3961,
      "gladly": 3962,
      "slip": 3963,
      "final": 3964,
      "wander": 3965,
      "wanderer": 3966,
      "companies": 3967,
      "ullo": 3968,
      "muttering": 3969,
      "eagles": 3970,
      "catching": 3971,
      "grimly": 3972,
      "defend": 3973,
      "pursued": 3974,
      "descended": 3975,
      "charge": 3976,
      "thirty": 3977,
      "captains": 3978,
      "piercing": 3979,
      "delighted": 3980,
      "thief": 3981,
      "rushing": 3982,
      "messenger": 3983,
      "Wargs": 3984,
      "trunks": 3985,
      "woman": 3986,
      "Dunharrow": 3987,
      "marvellous": 3988,
      "grievous": 3989,
      "Lugb": 3990,
      "Ungol": 3991,
      "Ghvn": 3992,
      "plenty": 3993,
      "Arathorn": 3994,
      "Bofur": 3995,
      "Caradhras": 3996,
      "Dwalin": 3997,
      "Ephel": 3998,
      "Hbma": 3999,
      "'.": 4000,
      "Bet": 4001,
      "Each": 4002,
      "Folk": 4003,
      "Field": 4004,
      "Has": 4005,
      "Hen": 4006,
      "Har": 4007,
      "Hullo": 4008,
      "Oft": 4009,
      "Put": 4010,
      "Sack": 4011,
      "Seven": 4012,
      "Shall": 4013,
      "Turn": 4014,
      "bbling": 4015,
      "cous": 4016,
      "cts": 4017,
      "citadel": 4018,
      "dir": 4019,
      "dancing": 4020,
      "flies": 4021,
      "gil": 4022,
      "gra": 4023,
      "ie": 4024,
      "iest": 4025,
      "jest": 4026,
      "money": 4027,
      "ption": 4028,
      "puff": 4029,
      "rend": 4030,
      "reeds": 4031,
      "resol": 4032,
      "attempt": 4033,
      "arose": 4034,
      "esse": 4035,
      "sts": 4036,
      "striding": 4037,
      "nobody": 4038,
      "vels": 4039,
      "irt": 4040,
      "allow": 4041,
      "lief": 4042,
      "although": 4043,
      "acket": 4044,
      "note": 4045,
      "necess": 4046,
      "decl": 4047,
      "fetch": 4048,
      "terday": 4049,
      "therefore": 4050,
      "usion": 4051,
      "cken": 4052,
      "shown": 4053,
      "gel": 4054,
      "boy": 4055,
      "umes": 4056,
      "spies": 4057,
      "downwards": 4058,
      "lighter": 4059,
      "shaken": 4060,
      "turns": 4061,
      "warn": 4062,
      "ault": 4063,
      "Thror": 4064,
      "kingdom": 4065,
      "permit": 4066,
      "worry": 4067,
      "Elbere": 4068,
      "cloth": 4069,
      "grab": 4070,
      "glory": 4071,
      "manage": 4072,
      "flut": 4073,
      "lashed": 4074,
      "urely": 4075,
      "steam": 4076,
      "prints": 4077,
      "evidently": 4078,
      "shivering": 4079,
      "countless": 4080,
      "stranger": 4081,
      "swim": 4082,
      "eastwards": 4083,
      "fury": 4084,
      "household": 4085,
      "grows": 4086,
      "taller": 4087,
      "drowned": 4088,
      "match": 4089,
      "Westfold": 4090,
      "surface": 4091,
      "misty": 4092,
      "floated": 4093,
      "barred": 4094,
      "drift": 4095,
      "recover": 4096,
      "drinking": 4097,
      "mouths": 4098,
      "interrup": 4099,
      "wounded": 4100,
      "startled": 4101,
      "decide": 4102,
      "valour": 4103,
      "lucky": 4104,
      "legends": 4105,
      "bells": 4106,
      "ville": 4107,
      "pockets": 4108,
      "numb": 4109,
      "charged": 4110,
      "Elvenking": 4111,
      "writing": 4112,
      "anxiously": 4113,
      "colour": 4114,
      "shelter": 4115,
      "minutes": 4116,
      "women": 4117,
      "drums": 4118,
      "approaching": 4119,
      "gnaw": 4120,
      "Anyway": 4121,
      "twinkling": 4122,
      "Goblin": 4123,
      "Curse": 4124,
      "repeated": 4125,
      "Westernesse": 4126,
      "solemn": 4127,
      "baggage": 4128,
      "Keep": 4129,
      "appointed": 4130,
      "Fatty": 4131,
      "Sackville": 4132,
      "Elbereth": 4133,
      ");": 4134,
      "Bif": 4135,
      "Horse": 4136,
      "Lonely": 4137,
      "Ranger": 4138,
      "Say": 4139,
      "Spe": 4140,
      "Sword": 4141,
      "bing": 4142,
      "ben": 4143,
      "cro": 4144,
      "cleft": 4145,
      "daz": 4146,
      "fis": 4147,
      "fade": 4148,
      "fern": 4149,
      "faced": 4150,
      "gest": 4151,
      "lap": 4152,
      "mand": 4153,
      "mers": 4154,
      "mith": 4155,
      "nat": 4156,
      "nest": 4157,
      "pan": 4158,
      "pted": 4159,
      "powers": 4160,
      "ron": 4161,
      "snor": 4162,
      "simply": 4163,
      "ture": 4164,
      "ued": 4165,
      "wider": 4166,
      "incre": 4167,
      "anno": 4168,
      "renow": 4169,
      "remark": 4170,
      "asm": 4171,
      "asse": 4172,
      "argu": 4173,
      "isted": 4174,
      "stal": 4175,
      "idle": 4176,
      "noble": 4177,
      "format": 4178,
      "acc": 4179,
      "feather": 4180,
      "abl": 4181,
      "illy": 4182,
      "shrou": 4183,
      "gered": 4184,
      "tip": 4185,
      "akened": 4186,
      "planted": 4187,
      "Things": 4188,
      "Thrain": 4189,
      "thoughtfully": 4190,
      "rightly": 4191,
      "mbas": 4192,
      "resist": 4193,
      "shelf": 4194,
      "sheath": 4195,
      "fling": 4196,
      "shadowed": 4197,
      "stands": 4198,
      "Leave": 4199,
      "needs": 4200,
      "steeds": 4201,
      "conqu": 4202,
      "score": 4203,
      "Stair": 4204,
      "rodel": 4205,
      "cular": 4206,
      "smoking": 4207,
      "floating": 4208,
      "whistling": 4209,
      "Deeping": 4210,
      "foam": 4211,
      "sniff": 4212,
      "drive": 4213,
      "cutting": 4214,
      "younger": 4215,
      "counsell": 4216,
      "region": 4217,
      "chiefly": 4218,
      "springing": 4219,
      "glimps": 4220,
      "commanded": 4221,
      "stricken": 4222,
      "sharply": 4223,
      "Tooks": 4224,
      "axes": 4225,
      "beaten": 4226,
      "folded": 4227,
      "prisoner": 4228,
      "scrat": 4229,
      "heights": 4230,
      "trembled": 4231,
      "Halflings": 4232,
      "merely": 4233,
      "Underhill": 4234,
      "trumpet": 4235,
      "clamour": 4236,
      "shade": 4237,
      "disturbed": 4238,
      "refuge": 4239,
      "treacherous": 4240,
      "colle": 4241,
      "puzz": 4242,
      "splendid": 4243,
      "summoned": 4244,
      "attention": 4245,
      "Nimrodel": 4246,
      "realized": 4247,
      "wilderness": 4248,
      "flesh": 4249,
      "Often": 4250,
      "Bifur": 4251,
      "mithril": 4252,
      "formation": 4253,
      "Ber": 4254,
      "Hard": 4255,
      "Must": 4256,
      "Nice": 4257,
      "Part": 4258,
      "Row": 4259,
      "Shar": 4260,
      "bir": 4261,
      "brave": 4262,
      "cop": 4263,
      "eight": 4264,
      "furn": 4265,
      "facing": 4266,
      "garm": 4267,
      "gging": 4268,
      "kit": 4269,
      "knot": 4270,
      "law": 4271,
      "mak": 4272,
      "mourn": 4273,
      "nr": 4274,
      "naked": 4275,
      "paid": 4276,
      "sore": 4277,
      "sending": 4278,
      "sister": 4279,
      "tang": 4280,
      "vap": 4281,
      "win": 4282,
      "wen": 4283,
      "yard": 4284,
      "thed": 4285,
      "inst": 4286,
      "information": 4287,
      "reared": 4288,
      "received": 4289,
      "tha": 4290,
      "ense": 4291,
      "offered": 4292,
      "ids": 4293,
      "ident": 4294,
      "bel": 4295,
      "seated": 4296,
      "weeks": 4297,
      "hial": 4298,
      "sailing": 4299,
      "liar": 4300,
      "hopes": 4301,
      "unhappy": 4302,
      "peep": 4303,
      "Healing": 4304,
      "ables": 4305,
      "lock": 4306,
      "bolt": 4307,
      "spared": 4308,
      "mother": 4309,
      "suc": 4310,
      "sund": 4311,
      "sullen": 4312,
      "comfor": 4313,
      "teach": 4314,
      "tread": 4315,
      "lesser": 4316,
      "landlord": 4317,
      "ruins": 4318,
      "Whatever": 4319,
      "cleared": 4320,
      "sung": 4321,
      "breathed": 4322,
      "crushed": 4323,
      "letter": 4324,
      "kenstone": 4325,
      "bury": 4326,
      "lesome": 4327,
      "runk": 4328,
      "gaze": 4329,
      "tained": 4330,
      "scouts": 4331,
      "stray": 4332,
      "keeper": 4333,
      "growth": 4334,
      "useless": 4335,
      "northwards": 4336,
      "strangely": 4337,
      "bul": 4338,
      "valleys": 4339,
      "troubles": 4340,
      "cursing": 4341,
      "risen": 4342,
      "yesterday": 4343,
      "barrel": 4344,
      "surely": 4345,
      "dreaming": 4346,
      "Lotho": 4347,
      "memories": 4348,
      "bigger": 4349,
      "replied": 4350,
      "bottle": 4351,
      "saddle": 4352,
      "beauty": 4353,
      "echoing": 4354,
      "Arkenstone": 4355,
      "bidding": 4356,
      "venture": 4357,
      "Looking": 4358,
      "troop": 4359,
      "approached": 4360,
      "concerned": 4361,
      "amazed": 4362,
      "imagine": 4363,
      "clutched": 4364,
      "astonishment": 4365,
      "blanket": 4366,
      "blankets": 4367,
      "masters": 4368,
      "hesitated": 4369,
      "taste": 4370,
      "released": 4371,
      "neighb": 4372,
      "circling": 4373,
      "regret": 4374,
      "ravine": 4375,
      "Dragon": 4376,
      "dirty": 4377,
      "numbers": 4378,
      "shrouded": 4379,
      "Ano": 4380,
      "Bless": 4381,
      "Bane": 4382,
      "Cross": 4383,
      "Hail": 4384,
      "Oin": 4385,
      "Running": 4386,
      "Tre": 4387,
      "Troll": 4388,
      "bind": 4389,
      "bru": 4390,
      "dang": 4391,
      "eved": 4392,
      "gged": 4393,
      "hm": 4394,
      "ient": 4395,
      "ires": 4396,
      "mas": 4397,
      "mass": 4398,
      "na": 4399,
      "prow": 4400,
      "port": 4401,
      "poured": 4402,
      "som": 4403,
      "uf": 4404,
      "vague": 4405,
      "wid": 4406,
      "yer": 4407,
      "relief": 4408,
      "asping": 4409,
      "attering": 4410,
      "orig": 4411,
      "lluin": 4412,
      "tomb": 4413,
      "arn": 4414,
      "arse": 4415,
      "around": 4416,
      "ittle": 4417,
      "bears": 4418,
      "liking": 4419,
      "liman": 4420,
      "forged": 4421,
      "aches": 4422,
      "dolluin": 4423,
      "nel": 4424,
      "aren": 4425,
      "unch": 4426,
      "unable": 4427,
      "unfriendly": 4428,
      "frowning": 4429,
      "hatred": 4430,
      "blown": 4431,
      "bother": 4432,
      "whir": 4433,
      "whither": 4434,
      "eless": 4435,
      "impossible": 4436,
      "seeming": 4437,
      "pol": 4438,
      "ause": 4439,
      "watchers": 4440,
      "itement": 4441,
      "reek": 4442,
      "wholesome": 4443,
      "clust": 4444,
      "worthy": 4445,
      "special": 4446,
      "shouldn": 4447,
      "reshed": 4448,
      "woven": 4449,
      "clock": 4450,
      "closing": 4451,
      "grate": 4452,
      "glare": 4453,
      "fellows": 4454,
      "mane": 4455,
      "clever": 4456,
      "prepar": 4457,
      "Ringwra": 4458,
      "partly": 4459,
      "event": 4460,
      "Whether": 4461,
      "sleepy": 4462,
      "sleeping": 4463,
      "Northern": 4464,
      "choked": 4465,
      "quire": 4466,
      "capti": 4467,
      "ladder": 4468,
      "curse": 4469,
      "Common": 4470,
      "Mindolluin": 4471,
      "udged": 4472,
      "hunger": 4473,
      "throne": 4474,
      "preser": 4475,
      "snapped": 4476,
      "secrets": 4477,
      "council": 4478,
      "movement": 4479,
      "finish": 4480,
      "bowls": 4481,
      "innac": 4482,
      "rence": 4483,
      "yelled": 4484,
      "impat": 4485,
      "possessed": 4486,
      "packed": 4487,
      "counsels": 4488,
      "paved": 4489,
      "echoes": 4490,
      "hunters": 4491,
      "Havens": 4492,
      "ggy": 4493,
      "picking": 4494,
      "gardens": 4495,
      "Wilder": 4496,
      "thousands": 4497,
      "refreshed": 4498,
      "squir": 4499,
      "spirits": 4500,
      "sheltered": 4501,
      "building": 4502,
      "searched": 4503,
      "interest": 4504,
      "posts": 4505,
      "Marshes": 4506,
      "centre": 4507,
      "Barliman": 4508,
      "nodded": 4509,
      "measure": 4510,
      "Others": 4511,
      "trampl": 4512,
      "lamps": 4513,
      "lipha": 4514,
      "affairs": 4515,
      "particular": 4516,
      "struggle": 4517,
      "candles": 4518,
      "dunge": 4519,
      "Sharkey": 4520,
      "Another": 4521,
      "..": 4522,
      "14": 4523,
      "Cer": 4524,
      "Dro": 4525,
      "Dern": 4526,
      "Eless": 4527,
      "Hm": 4528,
      "Little": 4529,
      "Messeng": 4530,
      "Rad": 4531,
      "Sleep": 4532,
      "av": 4533,
      "awoke": 4534,
      "bac": 4535,
      "cure": 4536,
      "eves": 4537,
      "fault": 4538,
      "galad": 4539,
      "lair": 4540,
      "nut": 4541,
      "opl": 4542,
      "pits": 4543,
      "pinnac": 4544,
      "rhy": 4545,
      "vol": 4546,
      "hem": 4547,
      "inqu": 4548,
      "instead": 4549,
      "recall": 4550,
      "relie": 4551,
      "ises": 4552,
      "stench": 4553,
      "stumbling": 4554,
      "haze": 4555,
      "ley": 4556,
      "lembas": 4557,
      "gho": 4558,
      "ropes": 4559,
      "add": 4560,
      "ales": 4561,
      "aloft": 4562,
      "accursed": 4563,
      "doings": 4564,
      "member": 4565,
      "hoom": 4566,
      "choo": 4567,
      "unknown": 4568,
      "deli": 4569,
      "debat": 4570,
      "Hey": 4571,
      "bless": 4572,
      "blame": 4573,
      "longed": 4574,
      "rap": 4575,
      "splash": 4576,
      "whip": 4577,
      "suff": 4578,
      "athom": 4579,
      "clasped": 4580,
      "specially": 4581,
      "begged": 4582,
      "ical": 4583,
      "grumbling": 4584,
      "rubbed": 4585,
      "expl": 4586,
      "exact": 4587,
      "flag": 4588,
      "creaking": 4589,
      "armies": 4590,
      "woodland": 4591,
      "sunrise": 4592,
      "waved": 4593,
      "waving": 4594,
      "dreary": 4595,
      "Behold": 4596,
      "contri": 4597,
      "Door": 4598,
      "chapter": 4599,
      "wearing": 4600,
      "trapped": 4601,
      "dragging": 4602,
      "whistled": 4603,
      "jagged": 4604,
      "brings": 4605,
      "cloaked": 4606,
      "bowl": 4607,
      "gripped": 4608,
      "sorts": 4609,
      "senses": 4610,
      "presents": 4611,
      "dearly": 4612,
      "Arwen": 4613,
      "groping": 4614,
      "smelling": 4615,
      "annon": 4616,
      "chairs": 4617,
      "reckoned": 4618,
      "labours": 4619,
      "price": 4620,
      "Halfling": 4621,
      "refused": 4622,
      "mingled": 4623,
      "Nonetheless": 4624,
      "Fords": 4625,
      "threatening": 4626,
      "tiny": 4627,
      "hammer": 4628,
      "cowered": 4629,
      "crouched": 4630,
      "reminded": 4631,
      "utterly": 4632,
      "pouring": 4633,
      "simple": 4634,
      "boulders": 4635,
      "boots": 4636,
      "Beside": 4637,
      "Bergil": 4638,
      "origin": 4639,
      "Wilderland": 4640,
      "Dernhelm": 4641,
      "Elessar": 4642,
      "Age": 4643,
      "Bo": 4644,
      "Beneath": 4645,
      "Er": 4646,
      "Fall": 4647,
      "Ferry": 4648,
      "Hu": 4649,
      "Khaz": 4650,
      "New": 4651,
      "Pass": 4652,
      "Sto": 4653,
      "TH": 4654,
      "conce": 4655,
      "during": 4656,
      "eft": 4657,
      "gled": 4658,
      "hin": 4659,
      "harp": 4660,
      "iance": 4661,
      "kis": 4662,
      "liness": 4663,
      "mant": 4664,
      "plod": 4665,
      "swell": 4666,
      "tons": 4667,
      "takes": 4668,
      "vili": 4669,
      "wri": 4670,
      "inhabit": 4671,
      "ongh": 4672,
      "onset": 4673,
      "ature": 4674,
      "lling": 4675,
      "offi": 4676,
      "beli": 4677,
      "beloved": 4678,
      "weep": 4679,
      "sav": 4680,
      "fortress": 4681,
      "notes": 4682,
      "aga": 4683,
      "agast": 4684,
      "rick": 4685,
      "hoping": 4686,
      "net": 4687,
      "oreth": 4688,
      "unts": 4689,
      "unpleasant": 4690,
      "demand": 4691,
      "blades": 4692,
      "forebo": 4693,
      "onder": 4694,
      "Were": 4695,
      "tea": 4696,
      "lowest": 4697,
      "author": 4698,
      "handle": 4699,
      "underground": 4700,
      "ssom": 4701,
      "clinging": 4702,
      "herbs": 4703,
      "herds": 4704,
      "smiling": 4705,
      "doorstep": 4706,
      "founded": 4707,
      "cip": 4708,
      "sunshine": 4709,
      "waits": 4710,
      "wailing": 4711,
      "helms": 4712,
      "desert": 4713,
      "onsense": 4714,
      "steady": 4715,
      "slower": 4716,
      "direct": 4717,
      "fairly": 4718,
      "served": 4719,
      "stole": 4720,
      "challen": 4721,
      "everywhere": 4722,
      "everybody": 4723,
      "starlight": 4724,
      "chieft": 4725,
      "bush": 4726,
      "bubbling": 4727,
      "topmost": 4728,
      "battlement": 4729,
      "leads": 4730,
      "surd": 4731,
      "doubtless": 4732,
      "halfling": 4733,
      "looming": 4734,
      "asks": 4735,
      "presently": 4736,
      "hastened": 4737,
      "hastily": 4738,
      "record": 4739,
      "regard": 4740,
      "visions": 4741,
      "bowing": 4742,
      "lately": 4743,
      "summit": 4744,
      "trusted": 4745,
      "hoods": 4746,
      "starting": 4747,
      "truly": 4748,
      "pavili": 4749,
      "obli": 4750,
      "fitting": 4751,
      "Quest": 4752,
      "laboured": 4753,
      "trotted": 4754,
      "thirteen": 4755,
      "thirsty": 4756,
      "glowed": 4757,
      "glowing": 4758,
      "questioned": 4759,
      "fifteen": 4760,
      "blossom": 4761,
      "gifts": 4762,
      "colours": 4763,
      "Much": 4764,
      "clothed": 4765,
      "banners": 4766,
      "squee": 4767,
      "gravely": 4768,
      "stabbed": 4769,
      "astonished": 4770,
      "excitement": 4771,
      "confusion": 4772,
      "arrived": 4773,
      "shafts": 4774,
      "invited": 4775,
      "soldi": 4776,
      "galloping": 4777,
      "faithful": 4778,
      "lurking": 4779,
      "flicker": 4780,
      "caverns": 4781,
      "homes": 4782,
      "Dimrill": 4783,
      "Gorgoroth": 4784,
      "groaned": 4785,
      "grabbed": 4786,
      "Speech": 4787,
      "dazz": 4788,
      "accident": 4789,
      "kitchen": 4790,
      "polished": 4791,
      "Drogo": 4792,
      "Radagast": 4793,
      "challenge": 4794,
      "chieftain": 4795,
      "',": 4796,
      "10": 4797,
      "Bring": 4798,
      "Cr": 4799,
      "Crick": 4800,
      "Des": 4801,
      "Es": 4802,
      "Ev": 4803,
      "Four": 4804,
      "Nar": 4805,
      "Oaken": 4806,
      "Ru": 4807,
      "Speak": 4808,
      "Surely": 4809,
      "Was": 4810,
      "Wor": 4811,
      "Wall": 4812,
      "Winter": 4813,
      "await": 4814,
      "athered": 4815,
      "barrow": 4816,
      "croo": 4817,
      "cakes": 4818,
      "daring": 4819,
      "danced": 4820,
      "drunk": 4821,
      "fanci": 4822,
      "gur": 4823,
      "gust": 4824,
      "gaffer": 4825,
      "hous": 4826,
      "ives": 4827,
      "iel": 4828,
      "iety": 4829,
      "ky": 4830,
      "mess": 4831,
      "mons": 4832,
      "nu": 4833,
      "nen": 4834,
      "os": 4835,
      "rat": 4836,
      "tu": 4837,
      "tat": 4838,
      "tum": 4839,
      "viously": 4840,
      "virt": 4841,
      "ware": 4842,
      "hen": 4843,
      "thud": 4844,
      "assty": 4845,
      "lled": 4846,
      "enched": 4847,
      "ities": 4848,
      "owl": 4849,
      "stur": 4850,
      "web": 4851,
      "veil": 4852,
      "roast": 4853,
      "roared": 4854,
      "liken": 4855,
      "alen": 4856,
      "forgive": 4857,
      "forms": 4858,
      "fords": 4859,
      "metal": 4860,
      "urgent": 4861,
      "chase": 4862,
      "peopl": 4863,
      "absurd": 4864,
      "load": 4865,
      "shor": 4866,
      "ties": 4867,
      "endured": 4868,
      "ument": 4869,
      "umping": 4870,
      "umber": 4871,
      "moss": 4872,
      "onds": 4873,
      "comer": 4874,
      "overhead": 4875,
      "deny": 4876,
      "fiery": 4877,
      "Therefore": 4878,
      "rags": 4879,
      "gully": 4880,
      "Thengel": 4881,
      "understanding": 4882,
      "ssing": 4883,
      "perish": 4884,
      "perfect": 4885,
      "worked": 4886,
      "hinder": 4887,
      "bleak": 4888,
      "rue": 4889,
      "mantle": 4890,
      "flats": 4891,
      "stret": 4892,
      "streets": 4893,
      "settle": 4894,
      "hopeful": 4895,
      "breathe": 4896,
      "Rosie": 4897,
      "precip": 4898,
      "Beren": 4899,
      "slew": 4900,
      "disappear": 4901,
      "dismounted": 4902,
      "const": 4903,
      "conver": 4904,
      "strongh": 4905,
      "Stand": 4906,
      "holds": 4907,
      "Nori": 4908,
      "everyone": 4909,
      "carri": 4910,
      "hurled": 4911,
      "hurts": 4912,
      "flows": 4913,
      "kindness": 4914,
      "horseman": 4915,
      "sloping": 4916,
      "current": 4917,
      "barad": 4918,
      "nonetheless": 4919,
      "towering": 4920,
      "sweeping": 4921,
      "dealings": 4922,
      "Lobeli": 4923,
      "murder": 4924,
      "changing": 4925,
      "possess": 4926,
      "crawl": 4927,
      "dwellings": 4928,
      "pression": 4929,
      "groped": 4930,
      "Hills": 4931,
      "descend": 4932,
      "delved": 4933,
      "patches": 4934,
      "killing": 4935,
      "devices": 4936,
      "shriek": 4937,
      "heeded": 4938,
      "priv": 4939,
      "spirit": 4940,
      "enchanted": 4941,
      "delayed": 4942,
      "blazed": 4943,
      "cheerful": 4944,
      "uneasily": 4945,
      "wheeled": 4946,
      "grandfather": 4947,
      "thicket": 4948,
      "courtes": 4949,
      "Goblins": 4950,
      "threads": 4951,
      "rabbit": 4952,
      "swayed": 4953,
      "terrified": 4954,
      "greeted": 4955,
      "wavered": 4956,
      "Snowmane": 4957,
      "defeat": 4958,
      "study": 4959,
      "cautiously": 4960,
      "Halbarad": 4961,
      "basin": 4962,
      "families": 4963,
      "staggered": 4964,
      "hauled": 4965,
      "protection": 4966,
      "Better": 4967,
      "cousin": 4968,
      "permitted": 4969,
      "tangled": 4970,
      "Crickhollow": 4971,
      "Oakenshield": 4972,
      "stronghold": 4973,
      "Lobelia": 4974,
      "Bre": 4975,
      "Del": 4976,
      "Hand": 4977,
      "Ioreth": 4978,
      "Like": 4979,
      "Off": 4980,
      "Pony": 4981,
      "Run": 4982,
      "Sand": 4983,
      "Ted": 4984,
      "Twi": 4985,
      "Tol": 4986,
      "Unt": 4987,
      "Years": 4988,
      "ailed": 4989,
      "cared": 4990,
      "du": 4991,
      "dart": 4992,
      "dig": 4993,
      "dling": 4994,
      "dance": 4995,
      "drows": 4996,
      "dinner": 4997,
      "faster": 4998,
      "hue": 4999
    },
    "merges": [
      [
        "h",
        "e"
      ],
      [
        "t",
        "he"
      ],
      [
        "i",
        "n"
      ],
      [
        "a",
        "n"
      ],
      [
        "r",
        "e"
      ],
      [
        "an",
        "d"
      ],
      [
        "o",
        "u"
      ],
      [
        "t",
        "h"
      ],
      [
        "a",
        "s"
      ],
      [
        "e",
        "r"
      ],
      [
        "o",
        "n"
      ],
      [
        "a",
        "t"
      ],
      [
        "e",
        "d"
      ],
      [
        "o",
        "r"
      ],
      [
        "in",
        "g"
      ],
      [
        "l",
        "l"
      ],
      [
        "t",
        "o"
      ],
      [
        "e",
        "n"
      ],
      [
        "o",
        "f"
      ],
      [
        "a",
        "r"
      ],
      [
        "i",
        "s"
      ],
      [
        "e",
        "s"
      ],
      [
        "i",
        "t"
      ],
      [
        "o",
        "w"
      ],
      [
        "s",
        "t"
      ],
      [
        "h",
        "a"
      ],
      [
        "i",
        "d"
      ],
      [
        "o",
        "m"
      ],
      [
        "b",
        "e"
      ],
      [
        "l",
        "e"
      ],
      [
        "s",
        "e"
      ],
      [
        "w",
        "e"
      ],
      [
        "g",
        "h"
      ],
      [
        "l",
        "d"
      ],
      [
        "n",
        "o"
      ],
      [
        "w",
        "as"
      ],
      [
        "h",
        "i"
      ],
      [
        "s",
        "a"
      ],
      [
        "w",
        "i"
      ],
      [
        "th",
        "at"
      ],
      [
        "u",
        "t"
      ],
      [
        "y",
        "ou"
      ],
      [
        "v",
        "e"
      ],
      [
        "a",
        "m"
      ],
      [
        "T",
        "he"
      ],
      [
        "r",
        "o"
      ],
      [
        "i",
        "r"
      ],
      [
        "a",
        "y"
      ],
      [
        "a",
        "ll"
      ],
      [
        "h",
        "is"
      ],
      [
        "l",
        "i"
      ],
      [
        "a",
        "d"
      ],
      [
        "l",
        "y"
      ],
      [
        "a",
        "l"
      ],
      [
        "gh",
        "t"
      ],
      [
        "n",
        "d"
      ],
      [
        "the",
        "y"
      ],
      [
        "f",
        "or"
      ],
      [
        "a",
        "c"
      ],
      [
        "no",
        "t"
      ],
      [
        "sa",
        "id"
      ],
      [
        "v",
        "er"
      ],
      [
        "ha",
        "d"
      ],
      [
        "a",
        "g"
      ],
      [
        "o",
        "o"
      ],
      [
        "d",
        "o"
      ],
      [
        "k",
        "e"
      ],
      [
        "r",
        "i"
      ],
      [
        "wi",
        "th"
      ],
      [
        "#",
        "#"
      ],
      [
        "m",
        "e"
      ],
      [
        "a",
        "in"
      ],
      [
        "i",
        "l"
      ],
      [
        "ou",
        "t"
      ],
      [
        "h",
        "o"
      ],
      [
        "ou",
        "ld"
      ],
      [
        "n",
        "e"
      ],
      [
        "u",
        "r"
      ],
      [
        "om",
        "e"
      ],
      [
        "ar",
        "d"
      ],
      [
        "en",
        "t"
      ],
      [
        "as",
        "t"
      ],
      [
        "c",
        "h"
      ],
      [
        "we",
        "re"
      ],
      [
        "a",
        "re"
      ],
      [
        "g",
        "o"
      ],
      [
        "n",
        "ow"
      ],
      [
        "o",
        "re"
      ],
      [
        "u",
        "p"
      ],
      [
        "hi",
        "m"
      ],
      [
        "u",
        "n"
      ],
      [
        "the",
        "r"
      ],
      [
        "c",
        "e"
      ],
      [
        "on",
        "g"
      ],
      [
        "d",
        "e"
      ],
      [
        "on",
        "e"
      ],
      [
        "f",
        "e"
      ],
      [
        "b",
        "ut"
      ],
      [
        "e",
        "t"
      ],
      [
        ".",
        "'"
      ],
      [
        "ha",
        "ve"
      ],
      [
        ",",
        "'"
      ],
      [
        "the",
        "m"
      ],
      [
        "p",
        "e"
      ],
      [
        "f",
        "r"
      ],
      [
        "H",
        "e"
      ],
      [
        "in",
        "d"
      ],
      [
        "w",
        "ay"
      ],
      [
        "t",
        "er"
      ],
      [
        "an",
        "y"
      ],
      [
        "B",
        "ut"
      ],
      [
        "ow",
        "n"
      ],
      [
        "fr",
        "om"
      ],
      [
        "ou",
        "r"
      ],
      [
        "the",
        "re"
      ],
      [
        "a",
        "b"
      ],
      [
        "g",
        "re"
      ],
      [
        "i",
        "f"
      ],
      [
        "h",
        "at"
      ],
      [
        "ac",
        "k"
      ],
      [
        "the",
        "ir"
      ],
      [
        "es",
        "s"
      ],
      [
        "u",
        "s"
      ],
      [
        "i",
        "ll"
      ],
      [
        "l",
        "o"
      ],
      [
        "se",
        "e"
      ],
      [
        "r",
        "ou"
      ],
      [
        "re",
        "d"
      ],
      [
        "s",
        "o"
      ],
      [
        "am",
        "e"
      ],
      [
        "c",
        "k"
      ],
      [
        "s",
        "h"
      ],
      [
        "F",
        "ro"
      ],
      [
        "w",
        "he"
      ],
      [
        "Fro",
        "do"
      ],
      [
        "wi",
        "ll"
      ],
      [
        "id",
        "e"
      ],
      [
        "i",
        "ght"
      ],
      [
        "or",
        "d"
      ],
      [
        "g",
        "e"
      ],
      [
        "e",
        "p"
      ],
      [
        "m",
        "y"
      ],
      [
        "b",
        "l"
      ],
      [
        "b",
        "o"
      ],
      [
        "t",
        "i"
      ],
      [
        "en",
        "d"
      ],
      [
        "r",
        "y"
      ],
      [
        "th",
        "ing"
      ],
      [
        "v",
        "en"
      ],
      [
        "A",
        "nd"
      ],
      [
        "u",
        "m"
      ],
      [
        "oo",
        "k"
      ],
      [
        "p",
        "p"
      ],
      [
        "oo",
        "d"
      ],
      [
        "or",
        "n"
      ],
      [
        "b",
        "y"
      ],
      [
        "c",
        "ame"
      ],
      [
        "to",
        "o"
      ],
      [
        "I",
        "t"
      ],
      [
        "l",
        "ong"
      ],
      [
        "u",
        "st"
      ],
      [
        "!",
        "'"
      ],
      [
        "s",
        "ome"
      ],
      [
        "r",
        "a"
      ],
      [
        "ar",
        "k"
      ],
      [
        "v",
        "es"
      ],
      [
        "c",
        "ould"
      ],
      [
        "s",
        "p"
      ],
      [
        "f",
        "ore"
      ],
      [
        "n",
        "t"
      ],
      [
        "er",
        "s"
      ],
      [
        "m",
        "o"
      ],
      [
        "ag",
        "ain"
      ],
      [
        "d",
        "own"
      ],
      [
        "on",
        "d"
      ],
      [
        "li",
        "ke"
      ],
      [
        "w",
        "hi"
      ],
      [
        "a",
        "k"
      ],
      [
        "he",
        "d"
      ],
      [
        "it",
        "s"
      ],
      [
        "th",
        "is"
      ],
      [
        "w",
        "ould"
      ],
      [
        "l",
        "ook"
      ],
      [
        "you",
        "r"
      ],
      [
        "in",
        "to"
      ],
      [
        "al",
        "f"
      ],
      [
        "th",
        "ou"
      ],
      [
        "c",
        "ome"
      ],
      [
        "w",
        "ard"
      ],
      [
        "gre",
        "at"
      ],
      [
        "##",
        "-"
      ],
      [
        "##",
        "##-"
      ],
      [
        "S",
        "am"
      ],
      [
        "m",
        "ore"
      ],
      [
        "s",
        "u"
      ],
      [
        "ur",
        "n"
      ],
      [
        "G",
        "and"
      ],
      [
        "Gand",
        "alf"
      ],
      [
        "o",
        "ther"
      ],
      [
        "o",
        "ld"
      ],
      [
        "e",
        "l"
      ],
      [
        "c",
        "an"
      ],
      [
        "The",
        "y"
      ],
      [
        "t",
        "ed"
      ],
      [
        "b",
        "ack"
      ],
      [
        "c",
        "om"
      ],
      [
        "W",
        "e"
      ],
      [
        "es",
        "t"
      ],
      [
        "q",
        "u"
      ],
      [
        "w",
        "hat"
      ],
      [
        "li",
        "ght"
      ],
      [
        "o",
        "ver"
      ],
      [
        "as",
        "s"
      ],
      [
        "d",
        "en"
      ],
      [
        "s",
        "ha"
      ],
      [
        "t",
        "e"
      ],
      [
        "be",
        "en"
      ],
      [
        "ou",
        "nt"
      ],
      [
        "l",
        "ow"
      ],
      [
        "l",
        "f"
      ],
      [
        "e",
        "y"
      ],
      [
        "f",
        "i"
      ],
      [
        "u",
        "nd"
      ],
      [
        "b",
        "b"
      ],
      [
        "r",
        "an"
      ],
      [
        "ou",
        "nd"
      ],
      [
        "be",
        "fore"
      ],
      [
        "d",
        "ark"
      ],
      [
        "d",
        "ay"
      ],
      [
        "i",
        "m"
      ],
      [
        "k",
        "now"
      ],
      [
        "p",
        "l"
      ],
      [
        "th",
        "an"
      ],
      [
        "t",
        "re"
      ],
      [
        "a",
        "ke"
      ],
      [
        "t",
        "le"
      ],
      [
        "t",
        "urn"
      ],
      [
        "the",
        "n"
      ],
      [
        "see",
        "m"
      ],
      [
        "e",
        "ver"
      ],
      [
        "a",
        "way"
      ],
      [
        "f",
        "t"
      ],
      [
        "ar",
        "t"
      ],
      [
        "The",
        "re"
      ],
      [
        "in",
        "k"
      ],
      [
        "f",
        "ar"
      ],
      [
        "whe",
        "n"
      ],
      [
        "ab",
        "out"
      ],
      [
        "?",
        "'"
      ],
      [
        "r",
        "ag"
      ],
      [
        "w",
        "ar"
      ],
      [
        "a",
        "p"
      ],
      [
        "st",
        "ill"
      ],
      [
        "d",
        "id"
      ],
      [
        "g",
        "u"
      ],
      [
        "ac",
        "e"
      ],
      [
        "a",
        "th"
      ],
      [
        "l",
        "ast"
      ],
      [
        "l",
        "it"
      ],
      [
        "ou",
        "s"
      ],
      [
        "p",
        "o"
      ],
      [
        "a",
        "u"
      ],
      [
        "o",
        "ll"
      ],
      [
        "r",
        "ow"
      ],
      [
        "l",
        "ed"
      ],
      [
        "he",
        "re"
      ],
      [
        "The",
        "n"
      ],
      [
        "h",
        "and"
      ],
      [
        "w",
        "ent"
      ],
      [
        "ti",
        "me"
      ],
      [
        "B",
        "il"
      ],
      [
        "Bil",
        "bo"
      ],
      [
        "a",
        "f"
      ],
      [
        "m",
        "any"
      ],
      [
        "at",
        "e"
      ],
      [
        "m",
        "ay"
      ],
      [
        "a",
        "ir"
      ],
      [
        "w",
        "at"
      ],
      [
        "e",
        "ven"
      ],
      [
        "l",
        "ess"
      ],
      [
        "t",
        "r"
      ],
      [
        "an",
        "t"
      ],
      [
        "up",
        "on"
      ],
      [
        "ho",
        "bb"
      ],
      [
        "f",
        "u"
      ],
      [
        "l",
        "and"
      ],
      [
        "und",
        "er"
      ],
      [
        "p",
        "ass"
      ],
      [
        "o",
        "p"
      ],
      [
        "on",
        "ly"
      ],
      [
        "T",
        "h"
      ],
      [
        "s",
        "ide"
      ],
      [
        "re",
        "ad"
      ],
      [
        "w",
        "ord"
      ],
      [
        "s",
        "s"
      ],
      [
        "is",
        "t"
      ],
      [
        "it",
        "e"
      ],
      [
        "Y",
        "ou"
      ],
      [
        "e",
        "ar"
      ],
      [
        "h",
        "as"
      ],
      [
        "k",
        "ing"
      ],
      [
        "m",
        "ust"
      ],
      [
        "o",
        "l"
      ],
      [
        "ver",
        "y"
      ],
      [
        "re",
        "e"
      ],
      [
        "we",
        "ll"
      ],
      [
        "whe",
        "re"
      ],
      [
        "w",
        "ho"
      ],
      [
        "seem",
        "ed"
      ],
      [
        "l",
        "t"
      ],
      [
        "N",
        "o"
      ],
      [
        "p",
        "er"
      ],
      [
        "se",
        "lf"
      ],
      [
        "sha",
        "ll"
      ],
      [
        "ad",
        "e"
      ],
      [
        "sa",
        "y"
      ],
      [
        "c",
        "l"
      ],
      [
        "an",
        "g"
      ],
      [
        "ount",
        "ain"
      ],
      [
        "thou",
        "ght"
      ],
      [
        "m",
        "en"
      ],
      [
        "g",
        "et"
      ],
      [
        "lit",
        "tle"
      ],
      [
        "rou",
        "nd"
      ],
      [
        "n",
        "ight"
      ],
      [
        "i",
        "on"
      ],
      [
        "i",
        "ce"
      ],
      [
        "rou",
        "gh"
      ],
      [
        "A",
        "rag"
      ],
      [
        "ri",
        "ght"
      ],
      [
        "Arag",
        "orn"
      ],
      [
        "w",
        "or"
      ],
      [
        "he",
        "ad"
      ],
      [
        "r",
        "ing"
      ],
      [
        "look",
        "ed"
      ],
      [
        "i",
        "pp"
      ],
      [
        "m",
        "b"
      ],
      [
        "of",
        "f"
      ],
      [
        "s",
        "pe"
      ],
      [
        "whi",
        "ch"
      ],
      [
        "ey",
        "es"
      ],
      [
        "er",
        "ry"
      ],
      [
        "ne",
        "w"
      ],
      [
        "had",
        "ow"
      ],
      [
        "ri",
        "ed"
      ],
      [
        "whi",
        "le"
      ],
      [
        "a",
        "ve"
      ],
      [
        "P",
        "ipp"
      ],
      [
        "Pipp",
        "in"
      ],
      [
        "ro",
        "ad"
      ],
      [
        "sh",
        "ould"
      ],
      [
        "E",
        "l"
      ],
      [
        "is",
        "h"
      ],
      [
        "an",
        "s"
      ],
      [
        "be",
        "g"
      ],
      [
        "th",
        "ink"
      ],
      [
        "v",
        "ed"
      ],
      [
        "i",
        "ck"
      ],
      [
        "go",
        "t"
      ],
      [
        "ward",
        "s"
      ],
      [
        "th",
        "rough"
      ],
      [
        "re",
        "s"
      ],
      [
        "t",
        "ing"
      ],
      [
        "h",
        "ind"
      ],
      [
        "he",
        "r"
      ],
      [
        "af",
        "ter"
      ],
      [
        "s",
        "too"
      ],
      [
        "k",
        "ed"
      ],
      [
        "w",
        "h"
      ],
      [
        "y",
        "et"
      ],
      [
        "m",
        "u"
      ],
      [
        "n",
        "or"
      ],
      [
        "s",
        "he"
      ],
      [
        "g",
        "ood"
      ],
      [
        "i",
        "c"
      ],
      [
        "w",
        "o"
      ],
      [
        "p",
        "t"
      ],
      [
        "d",
        "den"
      ],
      [
        "sa",
        "w"
      ],
      [
        "w",
        "ind"
      ],
      [
        "c",
        "lo"
      ],
      [
        "g",
        "r"
      ],
      [
        "s",
        "il"
      ],
      [
        "b",
        "le"
      ],
      [
        "mo",
        "st"
      ],
      [
        "le",
        "ft"
      ],
      [
        "he",
        "ard"
      ],
      [
        "F",
        "or"
      ],
      [
        "g",
        "l"
      ],
      [
        "hi",
        "ll"
      ],
      [
        "ast",
        "er"
      ],
      [
        "m",
        "ade"
      ],
      [
        "turn",
        "ed"
      ],
      [
        "be",
        "hind"
      ],
      [
        "fe",
        "ll"
      ],
      [
        "r",
        "u"
      ],
      [
        "v",
        "o"
      ],
      [
        "e",
        "x"
      ],
      [
        "m",
        "an"
      ],
      [
        "in",
        "e"
      ],
      [
        "be",
        "t"
      ],
      [
        "c",
        "all"
      ],
      [
        "r",
        "id"
      ],
      [
        "stoo",
        "d"
      ],
      [
        "f",
        "l"
      ],
      [
        "f",
        "all"
      ],
      [
        "n",
        "ess"
      ],
      [
        "mu",
        "ch"
      ],
      [
        "M",
        "erry"
      ],
      [
        "f",
        "ir"
      ],
      [
        "s",
        "hadow"
      ],
      [
        "!",
        "\""
      ],
      [
        "W",
        "hat"
      ],
      [
        "st",
        "re"
      ],
      [
        "thou",
        "gh"
      ],
      [
        "i",
        "g"
      ],
      [
        "ou",
        "th"
      ],
      [
        "se",
        "t"
      ],
      [
        "o",
        "ve"
      ],
      [
        "in",
        "s"
      ],
      [
        "s",
        "m"
      ],
      [
        "c",
        "re"
      ],
      [
        "I",
        "n"
      ],
      [
        "a",
        "le"
      ],
      [
        "l",
        "ay"
      ],
      [
        "do",
        "or"
      ],
      [
        "f",
        "ound"
      ],
      [
        "is",
        "e"
      ],
      [
        "go",
        "ing"
      ],
      [
        "thing",
        "s"
      ],
      [
        "tre",
        "es"
      ],
      [
        "wat",
        "er"
      ],
      [
        "pass",
        "ed"
      ],
      [
        "u",
        "e"
      ],
      [
        "dden",
        "ly"
      ],
      [
        "him",
        "self"
      ],
      [
        "A",
        "t"
      ],
      [
        "c",
        "le"
      ],
      [
        "l",
        "ing"
      ],
      [
        "de",
        "ep"
      ],
      [
        "t",
        "s"
      ],
      [
        "en",
        "ed"
      ],
      [
        "hobb",
        "its"
      ],
      [
        "fir",
        "st"
      ],
      [
        "O",
        "r"
      ],
      [
        "en",
        "e"
      ],
      [
        "G",
        "oll"
      ],
      [
        "h",
        "or"
      ],
      [
        "ar",
        "m"
      ],
      [
        "Goll",
        "um"
      ],
      [
        "w",
        "ood"
      ],
      [
        "v",
        "ing"
      ],
      [
        "w",
        "all"
      ],
      [
        "j",
        "o"
      ],
      [
        "are",
        "d"
      ],
      [
        "so",
        "on"
      ],
      [
        "f",
        "ind"
      ],
      [
        "se",
        "en"
      ],
      [
        "ne",
        "ar"
      ],
      [
        "m",
        "ight"
      ],
      [
        "i",
        "th"
      ],
      [
        "un",
        "t"
      ],
      [
        "S",
        "o"
      ],
      [
        "d",
        "on"
      ],
      [
        "l",
        "as"
      ],
      [
        "g",
        "i"
      ],
      [
        "ou",
        "gh"
      ],
      [
        "p",
        "s"
      ],
      [
        "bl",
        "ack"
      ],
      [
        "c",
        "i"
      ],
      [
        "read",
        "y"
      ],
      [
        "s",
        "un"
      ],
      [
        "w",
        "a"
      ],
      [
        "d",
        "re"
      ],
      [
        "h",
        "ow"
      ],
      [
        "t",
        "wo"
      ],
      [
        "ho",
        "pe"
      ],
      [
        "n",
        "ing"
      ],
      [
        "on",
        "ce"
      ],
      [
        "b",
        "re"
      ],
      [
        "R",
        "o"
      ],
      [
        "c",
        "hed"
      ],
      [
        "t",
        "al"
      ],
      [
        "st",
        "and"
      ],
      [
        "ri",
        "end"
      ],
      [
        "c",
        "he"
      ],
      [
        "ne",
        "ver"
      ],
      [
        "he",
        "l"
      ],
      [
        "f",
        "riend"
      ],
      [
        "i",
        "es"
      ],
      [
        "T",
        "hat"
      ],
      [
        "fu",
        "l"
      ],
      [
        "fi",
        "re"
      ],
      [
        ",",
        "\""
      ],
      [
        "sp",
        "o"
      ],
      [
        "p",
        "re"
      ],
      [
        "p",
        "ed"
      ],
      [
        "t",
        "en"
      ],
      [
        "c",
        "r"
      ],
      [
        "c",
        "ried"
      ],
      [
        "he",
        "art"
      ],
      [
        "le",
        "t"
      ],
      [
        "pp",
        "ed"
      ],
      [
        "ab",
        "le"
      ],
      [
        "a",
        "id"
      ],
      [
        "d",
        "es"
      ],
      [
        "d",
        "war"
      ],
      [
        "u",
        "re"
      ],
      [
        "L",
        "e"
      ],
      [
        "s",
        "k"
      ],
      [
        "on",
        "s"
      ],
      [
        "R",
        "ing"
      ],
      [
        "I",
        "f"
      ],
      [
        "a",
        "w"
      ],
      [
        "c",
        "li"
      ],
      [
        "m",
        "ountain"
      ],
      [
        "ar",
        "s"
      ],
      [
        "st",
        "one"
      ],
      [
        "er",
        "ing"
      ],
      [
        "day",
        "s"
      ],
      [
        "an",
        "ce"
      ],
      [
        "fe",
        "et"
      ],
      [
        "ab",
        "ove"
      ],
      [
        "B",
        "e"
      ],
      [
        "t",
        "ake"
      ],
      [
        "ne",
        "ed"
      ],
      [
        "M",
        "r"
      ],
      [
        "re",
        "st"
      ],
      [
        "st",
        "e"
      ],
      [
        "the",
        "se"
      ],
      [
        "y",
        "ond"
      ],
      [
        "c",
        "our"
      ],
      [
        "f",
        "a"
      ],
      [
        "s",
        "le"
      ],
      [
        "ou",
        "d"
      ],
      [
        "unt",
        "il"
      ],
      [
        "p",
        "art"
      ],
      [
        "G",
        "im"
      ],
      [
        "th",
        "o"
      ],
      [
        "word",
        "s"
      ],
      [
        "Gim",
        "li"
      ],
      [
        "d",
        "is"
      ],
      [
        "j",
        "ust"
      ],
      [
        "hi",
        "gh"
      ],
      [
        "de",
        "ed"
      ],
      [
        "te",
        "ll"
      ],
      [
        "N",
        "ow"
      ],
      [
        "p",
        "r"
      ],
      [
        "w",
        "al"
      ],
      [
        "to",
        "wards"
      ],
      [
        "all",
        "y"
      ],
      [
        "k",
        "en"
      ],
      [
        "ro",
        "ss"
      ],
      [
        ".",
        "\""
      ],
      [
        "s",
        "at"
      ],
      [
        "in",
        "ce"
      ],
      [
        "e",
        "f"
      ],
      [
        "it",
        "y"
      ],
      [
        "be",
        "yond"
      ],
      [
        "b",
        "ur"
      ],
      [
        "ol",
        "k"
      ],
      [
        "e",
        "ld"
      ],
      [
        "or",
        "t"
      ],
      [
        "m",
        "ind"
      ],
      [
        "ow",
        "ed"
      ],
      [
        "beg",
        "an"
      ],
      [
        "fe",
        "ar"
      ],
      [
        "su",
        "ch"
      ],
      [
        "hobb",
        "it"
      ],
      [
        "c",
        "on"
      ],
      [
        "F",
        "ar"
      ],
      [
        "ac",
        "h"
      ],
      [
        "su",
        "ddenly"
      ],
      [
        "vo",
        "ice"
      ],
      [
        "ra",
        "w"
      ],
      [
        "ak",
        "ing"
      ],
      [
        "wh",
        "ite"
      ],
      [
        "I",
        "s"
      ],
      [
        "l",
        "es"
      ],
      [
        "en",
        "g"
      ],
      [
        "S",
        "hi"
      ],
      [
        "e",
        "v"
      ],
      [
        "n",
        "g"
      ],
      [
        "ing",
        "s"
      ],
      [
        "id",
        "er"
      ],
      [
        "tho",
        "se"
      ],
      [
        "r",
        "un"
      ],
      [
        "f",
        "oll"
      ],
      [
        "p",
        "ut"
      ],
      [
        "s",
        "low"
      ],
      [
        "gre",
        "y"
      ],
      [
        "too",
        "k"
      ],
      [
        "ow",
        "er"
      ],
      [
        "c",
        "au"
      ],
      [
        "f",
        "olk"
      ],
      [
        "p",
        "ath"
      ],
      [
        "s",
        "ing"
      ],
      [
        "g",
        "one"
      ],
      [
        "he",
        "ar"
      ],
      [
        "We",
        "ll"
      ],
      [
        "fu",
        "ll"
      ],
      [
        "A",
        "s"
      ],
      [
        "b",
        "ro"
      ],
      [
        "c",
        "s"
      ],
      [
        "f",
        "ace"
      ],
      [
        "ag",
        "e"
      ],
      [
        "g",
        "a"
      ],
      [
        "Le",
        "go"
      ],
      [
        "Lego",
        "las"
      ],
      [
        "f",
        "oo"
      ],
      [
        "com",
        "ing"
      ],
      [
        "se",
        "l"
      ],
      [
        "fe",
        "lt"
      ],
      [
        "other",
        "s"
      ],
      [
        "op",
        "en"
      ],
      [
        "un",
        "g"
      ],
      [
        "m",
        "om"
      ],
      [
        "m",
        "ake"
      ],
      [
        "t",
        "ain"
      ],
      [
        "com",
        "p"
      ],
      [
        "mom",
        "ent"
      ],
      [
        "m",
        "ent"
      ],
      [
        "s",
        "ed"
      ],
      [
        "s",
        "ound"
      ],
      [
        "R",
        "i"
      ],
      [
        "y",
        "ear"
      ],
      [
        "Shi",
        "re"
      ],
      [
        "s",
        "hi"
      ],
      [
        "p",
        "ro"
      ],
      [
        "M",
        "en"
      ],
      [
        "h",
        "ard"
      ],
      [
        "d",
        "i"
      ],
      [
        "i",
        "ther"
      ],
      [
        "s",
        "c"
      ],
      [
        "gre",
        "en"
      ],
      [
        "ge",
        "ther"
      ],
      [
        "or",
        "y"
      ],
      [
        "with",
        "out"
      ],
      [
        "sm",
        "all"
      ],
      [
        "an",
        "other"
      ],
      [
        "were",
        "d"
      ],
      [
        "c",
        "ount"
      ],
      [
        "m",
        "ar"
      ],
      [
        "ou",
        "se"
      ],
      [
        "is",
        "hed"
      ],
      [
        "st",
        "r"
      ],
      [
        "M",
        "ountain"
      ],
      [
        "dwar",
        "ves"
      ],
      [
        "B",
        "ag"
      ],
      [
        "f",
        "air"
      ],
      [
        "w",
        "ond"
      ],
      [
        "an",
        "k"
      ],
      [
        "st",
        "ran"
      ],
      [
        "al",
        "ong"
      ],
      [
        "ke",
        "ep"
      ],
      [
        "l",
        "au"
      ],
      [
        "rou",
        "ght"
      ],
      [
        "ans",
        "wered"
      ],
      [
        "s",
        "ince"
      ],
      [
        "to",
        "gether"
      ],
      [
        "we",
        "en"
      ],
      [
        "i",
        "ly"
      ],
      [
        "go",
        "ld"
      ],
      [
        "gu",
        "ess"
      ],
      [
        "in",
        "deed"
      ],
      [
        "no",
        "thing"
      ],
      [
        "g",
        "round"
      ],
      [
        "w",
        "er"
      ],
      [
        "pl",
        "ace"
      ],
      [
        "bet",
        "ween"
      ],
      [
        "fe",
        "el"
      ],
      [
        "ar",
        "row"
      ],
      [
        "e",
        "red"
      ],
      [
        "u",
        "ck"
      ],
      [
        "en",
        "ough"
      ],
      [
        "am",
        "ir"
      ],
      [
        "Far",
        "amir"
      ],
      [
        "S",
        "ar"
      ],
      [
        "W",
        "he"
      ],
      [
        "b",
        "it"
      ],
      [
        "am",
        "ong"
      ],
      [
        "S",
        "t"
      ],
      [
        "G",
        "re"
      ],
      [
        "m",
        "es"
      ],
      [
        "can",
        "not"
      ],
      [
        "spo",
        "ke"
      ],
      [
        "again",
        "st"
      ],
      [
        "cle",
        "ar"
      ],
      [
        "sle",
        "ep"
      ],
      [
        "ac",
        "es"
      ],
      [
        "k",
        "new"
      ],
      [
        "ro",
        "ck"
      ],
      [
        "f",
        "f"
      ],
      [
        "m",
        "orn"
      ],
      [
        "s",
        "wi"
      ],
      [
        "as",
        "ked"
      ],
      [
        "w",
        "ish"
      ],
      [
        "fe",
        "w"
      ],
      [
        "um",
        "an"
      ],
      [
        "A",
        "ll"
      ],
      [
        "c",
        "old"
      ],
      [
        "Sar",
        "uman"
      ],
      [
        "B",
        "or"
      ],
      [
        "s",
        "er"
      ],
      [
        "al",
        "ready"
      ],
      [
        "s",
        "to"
      ],
      [
        "st",
        "ep"
      ],
      [
        "e",
        "ast"
      ],
      [
        "om",
        "ir"
      ],
      [
        "hand",
        "s"
      ],
      [
        "Or",
        "cs"
      ],
      [
        "Bor",
        "omir"
      ],
      [
        "en",
        "ce"
      ],
      [
        "de",
        "ad"
      ],
      [
        "mountain",
        "s"
      ],
      [
        "T",
        "his"
      ],
      [
        "us",
        "ed"
      ],
      [
        "call",
        "ed"
      ],
      [
        "op",
        "le"
      ],
      [
        "m",
        "aster"
      ],
      [
        "w",
        "ide"
      ],
      [
        "ho",
        "ld"
      ],
      [
        "some",
        "thing"
      ],
      [
        "Whe",
        "n"
      ],
      [
        "morn",
        "ing"
      ],
      [
        "m",
        "ain"
      ],
      [
        "ro",
        "de"
      ],
      [
        "way",
        "s"
      ],
      [
        "ond",
        "or"
      ],
      [
        "a",
        "ves"
      ],
      [
        "b",
        "r"
      ],
      [
        "G",
        "ondor"
      ],
      [
        "s",
        "word"
      ],
      [
        "S",
        "m"
      ],
      [
        "l",
        "s"
      ],
      [
        "n",
        "ed"
      ],
      [
        "look",
        "ing"
      ],
      [
        "qu",
        "ick"
      ],
      [
        "cli",
        "mb"
      ],
      [
        "D",
        "o"
      ],
      [
        "L",
        "ord"
      ],
      [
        "c",
        "ha"
      ],
      [
        "li",
        "e"
      ],
      [
        "wor",
        "ld"
      ],
      [
        "s",
        "l"
      ],
      [
        "on",
        "es"
      ],
      [
        "N",
        "or"
      ],
      [
        "al",
        "so"
      ],
      [
        "wa",
        "it"
      ],
      [
        "we",
        "ar"
      ],
      [
        "ever",
        "y"
      ],
      [
        "No",
        "t"
      ],
      [
        "f",
        "ur"
      ],
      [
        "El",
        "ves"
      ],
      [
        "b",
        "at"
      ],
      [
        "h",
        "ouse"
      ],
      [
        "l",
        "ord"
      ],
      [
        "hel",
        "p"
      ],
      [
        "cour",
        "se"
      ],
      [
        "b",
        "es"
      ],
      [
        "d",
        "y"
      ],
      [
        "g",
        "row"
      ],
      [
        "u",
        "se"
      ],
      [
        "or",
        "in"
      ],
      [
        "c",
        "ho"
      ],
      [
        "t",
        "ra"
      ],
      [
        "Th",
        "orin"
      ],
      [
        "b",
        "rought"
      ],
      [
        "che",
        "s"
      ],
      [
        "W",
        "h"
      ],
      [
        "w",
        "on"
      ],
      [
        "il",
        "ed"
      ],
      [
        "spe",
        "ak"
      ],
      [
        "ev",
        "il"
      ],
      [
        "wond",
        "er"
      ],
      [
        "ne",
        "y"
      ],
      [
        "he",
        "a"
      ],
      [
        "n",
        "ame"
      ],
      [
        "for",
        "t"
      ],
      [
        "bet",
        "ter"
      ],
      [
        "H",
        "is"
      ],
      [
        "hill",
        "s"
      ],
      [
        "O",
        "n"
      ],
      [
        "d",
        "ou"
      ],
      [
        "le",
        "ave"
      ],
      [
        "pe",
        "ople"
      ],
      [
        "mb",
        "er"
      ],
      [
        "-",
        "-"
      ],
      [
        "g",
        "ed"
      ],
      [
        "c",
        "ar"
      ],
      [
        "s",
        "outh"
      ],
      [
        "t",
        "all"
      ],
      [
        "qu",
        "i"
      ],
      [
        "s",
        "it"
      ],
      [
        "w",
        "est"
      ],
      [
        "gre",
        "w"
      ],
      [
        "bl",
        "ed"
      ],
      [
        "h",
        "ur"
      ],
      [
        "c",
        "t"
      ],
      [
        "in",
        "t"
      ],
      [
        "ha",
        "pp"
      ],
      [
        "ang",
        "er"
      ],
      [
        "slow",
        "ly"
      ],
      [
        "f",
        "low"
      ],
      [
        "g",
        "ave"
      ],
      [
        "all",
        "ey"
      ],
      [
        "dark",
        "ness"
      ],
      [
        "S",
        "tr"
      ],
      [
        "our",
        "ney"
      ],
      [
        "ill",
        "ed"
      ],
      [
        "pl",
        "ain"
      ],
      [
        "h",
        "our"
      ],
      [
        "gu",
        "ard"
      ],
      [
        "r",
        "and"
      ],
      [
        "s",
        "ig"
      ],
      [
        "tre",
        "e"
      ],
      [
        "stre",
        "am"
      ],
      [
        "p",
        "le"
      ],
      [
        "of",
        "t"
      ],
      [
        "ch",
        "ing"
      ],
      [
        "H",
        "o"
      ],
      [
        "Y",
        "es"
      ],
      [
        "te",
        "red"
      ],
      [
        "nor",
        "th"
      ],
      [
        "sk",
        "y"
      ],
      [
        "J",
        "om"
      ],
      [
        "l",
        "ar"
      ],
      [
        "ro",
        "ll"
      ],
      [
        "dre",
        "w"
      ],
      [
        "st",
        "ar"
      ],
      [
        "gr",
        "ass"
      ],
      [
        "E",
        "nt"
      ],
      [
        "d",
        "le"
      ],
      [
        "g",
        "s"
      ],
      [
        "ti",
        "on"
      ],
      [
        "gi",
        "ve"
      ],
      [
        "stran",
        "ge"
      ],
      [
        "Str",
        "ider"
      ],
      [
        "c",
        "hi"
      ],
      [
        "j",
        "ourney"
      ],
      [
        "w",
        "ant"
      ],
      [
        "sil",
        "ent"
      ],
      [
        "b",
        "us"
      ],
      [
        "k",
        "ind"
      ],
      [
        "ag",
        "o"
      ],
      [
        "C",
        "ome"
      ],
      [
        "m",
        "er"
      ],
      [
        "i",
        "ld"
      ],
      [
        "land",
        "s"
      ],
      [
        "b",
        "u"
      ],
      [
        "s",
        "ho"
      ],
      [
        "id",
        "ers"
      ],
      [
        "le",
        "ast"
      ],
      [
        "g",
        "ate"
      ],
      [
        "s",
        "up"
      ],
      [
        "th",
        "ree"
      ],
      [
        "Th",
        "jo"
      ],
      [
        "M",
        "ord"
      ],
      [
        "b",
        "ed"
      ],
      [
        "d",
        "one"
      ],
      [
        "d",
        "ist"
      ],
      [
        "v",
        "alley"
      ],
      [
        "be",
        "ard"
      ],
      [
        "Mord",
        "or"
      ],
      [
        "s",
        "es"
      ],
      [
        "swi",
        "ft"
      ],
      [
        "ha",
        "ll"
      ],
      [
        "dou",
        "b"
      ],
      [
        "Jom",
        "er"
      ],
      [
        "s",
        "ong"
      ],
      [
        "for",
        "ward"
      ],
      [
        "Thjo",
        "den"
      ],
      [
        "d",
        "r"
      ],
      [
        "ri",
        "ver"
      ],
      [
        "friend",
        "s"
      ],
      [
        "year",
        "s"
      ],
      [
        "m",
        "at"
      ],
      [
        "ri",
        "m"
      ],
      [
        "h",
        "an"
      ],
      [
        "me",
        "an"
      ],
      [
        "m",
        "id"
      ],
      [
        "lo",
        "st"
      ],
      [
        "hor",
        "se"
      ],
      [
        "al",
        "most"
      ],
      [
        "ry",
        "ing"
      ],
      [
        "W",
        "est"
      ],
      [
        "t",
        "y"
      ],
      [
        "to",
        "p"
      ],
      [
        "ha",
        "ps"
      ],
      [
        "al",
        "one"
      ],
      [
        "r",
        "ond"
      ],
      [
        "g",
        "ins"
      ],
      [
        "ti",
        "mes"
      ],
      [
        "str",
        "ong"
      ],
      [
        "L",
        "et"
      ],
      [
        "Y",
        "et"
      ],
      [
        "d",
        "raw"
      ],
      [
        "p",
        "on"
      ],
      [
        "ion",
        "s"
      ],
      [
        "long",
        "er"
      ],
      [
        "c",
        "ap"
      ],
      [
        "re",
        "me"
      ],
      [
        "foo",
        "t"
      ],
      [
        "sel",
        "ves"
      ],
      [
        "bes",
        "ide"
      ],
      [
        "T",
        "o"
      ],
      [
        "e",
        "re"
      ],
      [
        "do",
        "es"
      ],
      [
        "Bag",
        "gins"
      ],
      [
        "p",
        "i"
      ],
      [
        "s",
        "on"
      ],
      [
        "to",
        "ld"
      ],
      [
        "bat",
        "tle"
      ],
      [
        "El",
        "rond"
      ],
      [
        "Ro",
        "han"
      ],
      [
        "h",
        "id"
      ],
      [
        "l",
        "ad"
      ],
      [
        "ou",
        "n"
      ],
      [
        "le",
        "ad"
      ],
      [
        "sil",
        "ver"
      ],
      [
        "t",
        "rou"
      ],
      [
        "wall",
        "s"
      ],
      [
        "Ri",
        "ver"
      ],
      [
        "s",
        "lo"
      ],
      [
        "z",
        "ard"
      ],
      [
        "ac",
        "ross"
      ],
      [
        "c",
        "ur"
      ],
      [
        "s",
        "ur"
      ],
      [
        "he",
        "ld"
      ],
      [
        "in",
        "ess"
      ],
      [
        "re",
        "main"
      ],
      [
        "ran",
        "g"
      ],
      [
        "f",
        "ast"
      ],
      [
        "l",
        "ist"
      ],
      [
        "ro",
        "se"
      ],
      [
        "d",
        "rag"
      ],
      [
        "p",
        "ale"
      ],
      [
        "en",
        "ing"
      ],
      [
        "cl",
        "oud"
      ],
      [
        "shadow",
        "s"
      ],
      [
        "hea",
        "v"
      ],
      [
        "doub",
        "t"
      ],
      [
        "C",
        "om"
      ],
      [
        "a",
        "z"
      ],
      [
        "e",
        "m"
      ],
      [
        "m",
        "ist"
      ],
      [
        "ha",
        "lf"
      ],
      [
        "M",
        "or"
      ],
      [
        "go",
        "bl"
      ],
      [
        "i",
        "ous"
      ],
      [
        "qu",
        "ite"
      ],
      [
        "c",
        "a"
      ],
      [
        "lo",
        "om"
      ],
      [
        "ap",
        "pe"
      ],
      [
        "?",
        "\""
      ],
      [
        "c",
        "er"
      ],
      [
        "as",
        "k"
      ],
      [
        "ow",
        "s"
      ],
      [
        "e",
        "ll"
      ],
      [
        "as",
        "sa"
      ],
      [
        "ir",
        "d"
      ],
      [
        "S",
        "ome"
      ],
      [
        "c",
        "u"
      ],
      [
        "a",
        "pp"
      ],
      [
        "ic",
        "es"
      ],
      [
        "c",
        "are"
      ],
      [
        "r",
        "is"
      ],
      [
        "s",
        "mo"
      ],
      [
        "fur",
        "ther"
      ],
      [
        "Nor",
        "th"
      ],
      [
        "M",
        "in"
      ],
      [
        "u",
        "d"
      ],
      [
        "y",
        "es"
      ],
      [
        "re",
        "turn"
      ],
      [
        "wi",
        "ld"
      ],
      [
        "bo",
        "th"
      ],
      [
        "M",
        "aster"
      ],
      [
        "e",
        "ither"
      ],
      [
        "Gre",
        "at"
      ],
      [
        "p",
        "es"
      ],
      [
        "clo",
        "se"
      ],
      [
        "h",
        "ome"
      ],
      [
        "s",
        "oft"
      ],
      [
        "m",
        "is"
      ],
      [
        "t",
        "ong"
      ],
      [
        "sa",
        "me"
      ],
      [
        "ci",
        "ous"
      ],
      [
        "f",
        "lo"
      ],
      [
        "p",
        "ower"
      ],
      [
        "s",
        "i"
      ],
      [
        "w",
        "his"
      ],
      [
        "are",
        "r"
      ],
      [
        "qui",
        "et"
      ],
      [
        "p",
        "ing"
      ],
      [
        "li",
        "ve"
      ],
      [
        "ad",
        "v"
      ],
      [
        "ent",
        "ly"
      ],
      [
        "ak",
        "en"
      ],
      [
        "R",
        "iders"
      ],
      [
        "po",
        "se"
      ],
      [
        "b",
        "ar"
      ],
      [
        "is",
        "ed"
      ],
      [
        "D",
        "e"
      ],
      [
        "K",
        "ing"
      ],
      [
        "T",
        "ree"
      ],
      [
        "b",
        "ank"
      ],
      [
        "d",
        "anger"
      ],
      [
        "be",
        "ing"
      ],
      [
        "b",
        "right"
      ],
      [
        "h",
        "ung"
      ],
      [
        "at",
        "ed"
      ],
      [
        "ed",
        "ge"
      ],
      [
        "ear",
        "th"
      ],
      [
        "wor",
        "k"
      ],
      [
        "new",
        "s"
      ],
      [
        "cau",
        "ght"
      ],
      [
        "j",
        "ag"
      ],
      [
        "l",
        "aid"
      ],
      [
        "de",
        "red"
      ],
      [
        "T",
        "om"
      ],
      [
        "c",
        "o"
      ],
      [
        "fi",
        "eld"
      ],
      [
        "cau",
        "se"
      ],
      [
        "r",
        "or"
      ],
      [
        "any",
        "thing"
      ],
      [
        "stre",
        "ng"
      ],
      [
        "arm",
        "s"
      ],
      [
        "sig",
        "n"
      ],
      [
        "b",
        "urn"
      ],
      [
        "f",
        "ood"
      ],
      [
        "t",
        "ill"
      ],
      [
        "th",
        "r"
      ],
      [
        "be",
        "ar"
      ],
      [
        "ans",
        "wer"
      ],
      [
        "p",
        "ur"
      ],
      [
        "r",
        "ide"
      ],
      [
        "in",
        "ed"
      ],
      [
        "ou",
        "ght"
      ],
      [
        "le",
        "ar"
      ],
      [
        "wi",
        "zard"
      ],
      [
        "He",
        "re"
      ],
      [
        "mo",
        "on"
      ],
      [
        "full",
        "y"
      ],
      [
        "Ho",
        "bb"
      ],
      [
        "f",
        "o"
      ],
      [
        "p",
        "res"
      ],
      [
        "as",
        "e"
      ],
      [
        "or",
        "m"
      ],
      [
        "me",
        "et"
      ],
      [
        "fore",
        "st"
      ],
      [
        "com",
        "es"
      ],
      [
        "i",
        "li"
      ],
      [
        "th",
        "or"
      ],
      [
        "to",
        "m"
      ],
      [
        "be",
        "low"
      ],
      [
        "ly",
        "ing"
      ],
      [
        "per",
        "haps"
      ],
      [
        "C",
        "ity"
      ],
      [
        "a",
        "il"
      ],
      [
        "f",
        "ter"
      ],
      [
        "s",
        "n"
      ],
      [
        "al",
        "ways"
      ],
      [
        "foll",
        "owed"
      ],
      [
        "O",
        "ne"
      ],
      [
        "g",
        "le"
      ],
      [
        "n",
        "one"
      ],
      [
        "at",
        "s"
      ],
      [
        "ne",
        "x"
      ],
      [
        "d",
        "ri"
      ],
      [
        "g",
        "hed"
      ],
      [
        "h",
        "ast"
      ],
      [
        "l",
        "ted"
      ],
      [
        "s",
        "ent"
      ],
      [
        "le",
        "ap"
      ],
      [
        "bro",
        "ken"
      ],
      [
        "S",
        "u"
      ],
      [
        "f",
        "illed"
      ],
      [
        "sh",
        "out"
      ],
      [
        "S",
        "e"
      ],
      [
        "p",
        "ter"
      ],
      [
        "Com",
        "p"
      ],
      [
        "end",
        "ed"
      ],
      [
        "per",
        "il"
      ],
      [
        "gl",
        "ad"
      ],
      [
        "streng",
        "th"
      ],
      [
        "b",
        "ring"
      ],
      [
        "w",
        "r"
      ],
      [
        "er",
        "y"
      ],
      [
        "lau",
        "ghed"
      ],
      [
        "D",
        "ark"
      ],
      [
        "e",
        "at"
      ],
      [
        "p",
        "ar"
      ],
      [
        "s",
        "ight"
      ],
      [
        "ad",
        "y"
      ],
      [
        "de",
        "ll"
      ],
      [
        "know",
        "n"
      ],
      [
        "clo",
        "ak"
      ],
      [
        "foll",
        "ow"
      ],
      [
        "E",
        "ast"
      ],
      [
        "G",
        "ate"
      ],
      [
        "S",
        "outh"
      ],
      [
        "g",
        "es"
      ],
      [
        "h",
        "orn"
      ],
      [
        "w",
        "ise"
      ],
      [
        "le",
        "aves"
      ],
      [
        "ck",
        "ed"
      ],
      [
        "get",
        "ting"
      ],
      [
        "Is",
        "eng"
      ],
      [
        "lar",
        "ge"
      ],
      [
        "jag",
        "ol"
      ],
      [
        "W",
        "here"
      ],
      [
        "c",
        "ted"
      ],
      [
        "an",
        "c"
      ],
      [
        "st",
        "ones"
      ],
      [
        "sa",
        "ve"
      ],
      [
        "them",
        "selves"
      ],
      [
        "su",
        "re"
      ],
      [
        "wal",
        "ked"
      ],
      [
        "Sm",
        "jagol"
      ],
      [
        "heav",
        "y"
      ],
      [
        "H",
        "ow"
      ],
      [
        "c",
        "ut"
      ],
      [
        "s",
        "li"
      ],
      [
        "to",
        "w"
      ],
      [
        "st",
        "ars"
      ],
      [
        "fall",
        "en"
      ],
      [
        "beg",
        "in"
      ],
      [
        "vo",
        "ices"
      ],
      [
        "ser",
        "v"
      ],
      [
        "Comp",
        "any"
      ],
      [
        "Iseng",
        "ard"
      ],
      [
        "c",
        "ross"
      ],
      [
        "ac",
        "hed"
      ],
      [
        "sh",
        "ort"
      ],
      [
        "dre",
        "am"
      ],
      [
        "a",
        "ur"
      ],
      [
        "i",
        "re"
      ],
      [
        "or",
        "c"
      ],
      [
        "st",
        "ay"
      ],
      [
        "se",
        "cre"
      ],
      [
        "z",
        "ed"
      ],
      [
        "for",
        "got"
      ],
      [
        "ra",
        "ther"
      ],
      [
        "may",
        "be"
      ],
      [
        "wh",
        "y"
      ],
      [
        "stand",
        "ing"
      ],
      [
        "C",
        "ha"
      ],
      [
        "G",
        "o"
      ],
      [
        "l",
        "u"
      ],
      [
        "rid",
        "ge"
      ],
      [
        "Min",
        "as"
      ],
      [
        "A",
        "fter"
      ],
      [
        "d",
        "im"
      ],
      [
        "e",
        "ach"
      ],
      [
        "be",
        "came"
      ],
      [
        "il",
        "es"
      ],
      [
        "sp",
        "rang"
      ],
      [
        "el",
        "se"
      ],
      [
        "gobl",
        "ins"
      ],
      [
        "Tree",
        "beard"
      ],
      [
        "E",
        "ne"
      ],
      [
        "S",
        "hadow"
      ],
      [
        "of",
        "ten"
      ],
      [
        "there",
        "d"
      ],
      [
        "us",
        "h"
      ],
      [
        "ex",
        "pe"
      ],
      [
        "a",
        "head"
      ],
      [
        "d",
        "if"
      ],
      [
        "s",
        "we"
      ],
      [
        "t",
        "or"
      ],
      [
        "t",
        "aken"
      ],
      [
        "you",
        "ng"
      ],
      [
        "tong",
        "ue"
      ],
      [
        "Ene",
        "my"
      ],
      [
        "b",
        "ad"
      ],
      [
        "f",
        "ing"
      ],
      [
        "re",
        "c"
      ],
      [
        "W",
        "ith"
      ],
      [
        "b",
        "est"
      ],
      [
        "ac",
        "t"
      ],
      [
        "door",
        "s"
      ],
      [
        "c",
        "oun"
      ],
      [
        "f",
        "our"
      ],
      [
        "l",
        "ack"
      ],
      [
        "ir",
        "ith"
      ],
      [
        "mo",
        "ve"
      ],
      [
        "und",
        "red"
      ],
      [
        "Cha",
        "pter"
      ],
      [
        "f",
        "in"
      ],
      [
        "ro",
        "om"
      ],
      [
        "n",
        "i"
      ],
      [
        "t",
        "un"
      ],
      [
        "v",
        "an"
      ],
      [
        "re",
        "g"
      ],
      [
        "le",
        "gs"
      ],
      [
        "ve",
        "ll"
      ],
      [
        "li",
        "m"
      ],
      [
        "even",
        "ing"
      ],
      [
        "D",
        "ene"
      ],
      [
        "a",
        "ther"
      ],
      [
        "w",
        "and"
      ],
      [
        "sil",
        "ence"
      ],
      [
        "Dene",
        "thor"
      ],
      [
        "S",
        "aur"
      ],
      [
        "h",
        "undred"
      ],
      [
        "v",
        "is"
      ],
      [
        "z",
        "e"
      ],
      [
        "wat",
        "ch"
      ],
      [
        "ene",
        "ath"
      ],
      [
        "comp",
        "an"
      ],
      [
        "Wh",
        "y"
      ],
      [
        "mat",
        "ter"
      ],
      [
        "reme",
        "mber"
      ],
      [
        "Saur",
        "on"
      ],
      [
        "c",
        "ry"
      ],
      [
        "d",
        "read"
      ],
      [
        "al",
        "ad"
      ],
      [
        "tal",
        "k"
      ],
      [
        "E",
        "ven"
      ],
      [
        "b",
        "ow"
      ],
      [
        "sa",
        "fe"
      ],
      [
        "de",
        "al"
      ],
      [
        "seem",
        "s"
      ],
      [
        "wood",
        "s"
      ],
      [
        "fa",
        "ther"
      ],
      [
        "gle",
        "am"
      ],
      [
        "A",
        "n"
      ],
      [
        "a",
        "ut"
      ],
      [
        "in",
        "n"
      ],
      [
        "li",
        "es"
      ],
      [
        "l",
        "an"
      ],
      [
        "r",
        "ain"
      ],
      [
        "hor",
        "ses"
      ],
      [
        "run",
        "ning"
      ],
      [
        "at",
        "es"
      ],
      [
        "oo",
        "l"
      ],
      [
        "ho",
        "st"
      ],
      [
        "chi",
        "ef"
      ],
      [
        "Su",
        "ddenly"
      ],
      [
        "d",
        "ed"
      ],
      [
        "i",
        "ve"
      ],
      [
        "re",
        "n"
      ],
      [
        "as",
        "h"
      ],
      [
        "ha",
        "lted"
      ],
      [
        "ke",
        "pt"
      ],
      [
        "ex",
        "ce"
      ],
      [
        "be",
        "cause"
      ],
      [
        "ke",
        "t"
      ],
      [
        "L",
        "ady"
      ],
      [
        "in",
        "ing"
      ],
      [
        "re",
        "ally"
      ],
      [
        "ch",
        "ance"
      ],
      [
        "bl",
        "ing"
      ],
      [
        "count",
        "ry"
      ],
      [
        "l",
        "ine"
      ],
      [
        "m",
        "iles"
      ],
      [
        "w",
        "ra"
      ],
      [
        "de",
        "ath"
      ],
      [
        "comp",
        "any"
      ],
      [
        "climb",
        "ed"
      ],
      [
        "forgot",
        "ten"
      ],
      [
        "b",
        "ran"
      ],
      [
        "ter",
        "n"
      ],
      [
        "qu",
        "e"
      ],
      [
        "ey",
        "e"
      ],
      [
        "tun",
        "ne"
      ],
      [
        "B",
        "lack"
      ],
      [
        "D",
        "on"
      ],
      [
        "f",
        "ted"
      ],
      [
        "m",
        "ed"
      ],
      [
        "p",
        "assa"
      ],
      [
        "t",
        "ale"
      ],
      [
        "u",
        "ll"
      ],
      [
        "in",
        "side"
      ],
      [
        "sp",
        "ring"
      ],
      [
        "com",
        "m"
      ],
      [
        "appe",
        "ared"
      ],
      [
        "B",
        "ree"
      ],
      [
        "g",
        "ri"
      ],
      [
        "l",
        "ate"
      ],
      [
        "l",
        "oud"
      ],
      [
        "t",
        "ri"
      ],
      [
        "re",
        "turned"
      ],
      [
        "ri",
        "en"
      ],
      [
        "ri",
        "ble"
      ],
      [
        "under",
        "stand"
      ],
      [
        "Ro",
        "ad"
      ],
      [
        "secre",
        "t"
      ],
      [
        "b",
        "ird"
      ],
      [
        "e",
        "as"
      ],
      [
        "y",
        "n"
      ],
      [
        "nex",
        "t"
      ],
      [
        "M",
        "ay"
      ],
      [
        "d",
        "ro"
      ],
      [
        "l",
        "at"
      ],
      [
        "bo",
        "dy"
      ],
      [
        "af",
        "f"
      ],
      [
        "Ent",
        "s"
      ],
      [
        "D",
        "war"
      ],
      [
        "b",
        "eneath"
      ],
      [
        "g",
        "lim"
      ],
      [
        "i",
        "ble"
      ],
      [
        "m",
        "ark"
      ],
      [
        "re",
        "ached"
      ],
      [
        "ther",
        "n"
      ],
      [
        "bre",
        "ak"
      ],
      [
        "cli",
        "ff"
      ],
      [
        "be",
        "lie"
      ],
      [
        "am",
        "es"
      ],
      [
        "wal",
        "k"
      ],
      [
        "wear",
        "y"
      ],
      [
        "flo",
        "or"
      ],
      [
        "L",
        "o"
      ],
      [
        "c",
        "ast"
      ],
      [
        "s",
        "or"
      ],
      [
        "w",
        "is"
      ],
      [
        "um",
        "p"
      ],
      [
        "mo",
        "ved"
      ],
      [
        "com",
        "fort"
      ],
      [
        "pl",
        "aces"
      ],
      [
        "ove",
        "red"
      ],
      [
        "near",
        "ly"
      ],
      [
        "pre",
        "cious"
      ],
      [
        "quick",
        "ly"
      ],
      [
        "hid",
        "den"
      ],
      [
        "me",
        "m"
      ],
      [
        "are",
        "well"
      ],
      [
        "Ri",
        "ven"
      ],
      [
        "dr",
        "ink"
      ],
      [
        "a",
        "fr"
      ],
      [
        "c",
        "ir"
      ],
      [
        "Riven",
        "dell"
      ],
      [
        "afr",
        "aid"
      ],
      [
        "A",
        "l"
      ],
      [
        "u",
        "l"
      ],
      [
        "an",
        "ci"
      ],
      [
        "ar",
        "ch"
      ],
      [
        "qu",
        "es"
      ],
      [
        "m",
        "outh"
      ],
      [
        "s",
        "en"
      ],
      [
        "s",
        "um"
      ],
      [
        "li",
        "ving"
      ],
      [
        "op",
        "ened"
      ],
      [
        "trou",
        "ble"
      ],
      [
        "pres",
        "ent"
      ],
      [
        "T",
        "ower"
      ],
      [
        "m",
        "ur"
      ],
      [
        "st",
        "ru"
      ],
      [
        "bre",
        "ath"
      ],
      [
        "ple",
        "as"
      ],
      [
        "b",
        "ent"
      ],
      [
        "g",
        "loom"
      ],
      [
        "s",
        "w"
      ],
      [
        "u",
        "ne"
      ],
      [
        "st",
        "ra"
      ],
      [
        "turn",
        "ing"
      ],
      [
        "tr",
        "ue"
      ],
      [
        "M",
        "y"
      ],
      [
        "t",
        "on"
      ],
      [
        "u",
        "es"
      ],
      [
        "ter",
        "ing"
      ],
      [
        "ord",
        "ers"
      ],
      [
        "cr",
        "ack"
      ],
      [
        "T",
        "irith"
      ],
      [
        "b",
        "ig"
      ],
      [
        "Mountain",
        "s"
      ],
      [
        "g",
        "ing"
      ],
      [
        "m",
        "s"
      ],
      [
        "m",
        "on"
      ],
      [
        "y",
        "ell"
      ],
      [
        "st",
        "air"
      ],
      [
        "end",
        "ing"
      ],
      [
        "ant",
        "s"
      ],
      [
        "drag",
        "on"
      ],
      [
        "ca",
        "pe"
      ],
      [
        "n",
        "arrow"
      ],
      [
        "u",
        "res"
      ],
      [
        "an",
        "ted"
      ],
      [
        "re",
        "al"
      ],
      [
        "ain",
        "t"
      ],
      [
        "fall",
        "ing"
      ],
      [
        "cre",
        "at"
      ],
      [
        "shi",
        "p"
      ],
      [
        "sup",
        "pose"
      ],
      [
        "smo",
        "ke"
      ],
      [
        "G",
        "ood"
      ],
      [
        "c",
        "overed"
      ],
      [
        "in",
        "ter"
      ],
      [
        "er",
        "n"
      ],
      [
        "li",
        "fted"
      ],
      [
        "ch",
        "ang"
      ],
      [
        "su",
        "dden"
      ],
      [
        "gi",
        "ven"
      ],
      [
        "aw",
        "n"
      ],
      [
        "sto",
        "pped"
      ],
      [
        "f",
        "ree"
      ],
      [
        "k",
        "ne"
      ],
      [
        "on",
        "t"
      ],
      [
        "es",
        "cape"
      ],
      [
        "out",
        "side"
      ],
      [
        "pe",
        "ace"
      ],
      [
        "hard",
        "ly"
      ],
      [
        "sit",
        "ting"
      ],
      [
        "stra",
        "ight"
      ],
      [
        "d",
        "om"
      ],
      [
        "h",
        "u"
      ],
      [
        "w",
        "ound"
      ],
      [
        "ha",
        "ir"
      ],
      [
        "we",
        "l"
      ],
      [
        "ro",
        "o"
      ],
      [
        "for",
        "th"
      ],
      [
        "im",
        "p"
      ],
      [
        "po",
        "ss"
      ],
      [
        "f",
        "ight"
      ],
      [
        "k",
        "s"
      ],
      [
        "remain",
        "ed"
      ],
      [
        "ris",
        "ing"
      ],
      [
        "E",
        "lf"
      ],
      [
        "f",
        "ad"
      ],
      [
        "as",
        "ide"
      ],
      [
        "am",
        "p"
      ],
      [
        "il",
        "ing"
      ],
      [
        "gold",
        "en"
      ],
      [
        "J",
        "ow"
      ],
      [
        "l",
        "eng"
      ],
      [
        "p",
        "ack"
      ],
      [
        "v",
        "i"
      ],
      [
        "re",
        "p"
      ],
      [
        "no",
        "ise"
      ],
      [
        "hi",
        "r"
      ],
      [
        "ri",
        "es"
      ],
      [
        "ste",
        "ep"
      ],
      [
        "sing",
        "ing"
      ],
      [
        "swift",
        "ly"
      ],
      [
        "Jow",
        "yn"
      ],
      [
        "B",
        "al"
      ],
      [
        "G",
        "alad"
      ],
      [
        "po",
        "int"
      ],
      [
        "step",
        "s"
      ],
      [
        "O",
        "f"
      ],
      [
        "O",
        "ld"
      ],
      [
        "W",
        "ho"
      ],
      [
        "m",
        "ut"
      ],
      [
        "t",
        "ent"
      ],
      [
        "t",
        "ry"
      ],
      [
        "sha",
        "pe"
      ],
      [
        "tr",
        "ust"
      ],
      [
        "tal",
        "es"
      ],
      [
        "comm",
        "and"
      ],
      [
        "anci",
        "ent"
      ],
      [
        "E",
        "nd"
      ],
      [
        "S",
        "un"
      ],
      [
        "b",
        "ore"
      ],
      [
        "e",
        "w"
      ],
      [
        "ar",
        "p"
      ],
      [
        "is",
        "on"
      ],
      [
        "be",
        "come"
      ],
      [
        "with",
        "in"
      ],
      [
        "guess",
        "ed"
      ],
      [
        "grow",
        "ing"
      ],
      [
        "B",
        "om"
      ],
      [
        "B",
        "rand"
      ],
      [
        "M",
        "o"
      ],
      [
        "he",
        "s"
      ],
      [
        "id",
        "es"
      ],
      [
        "le",
        "ep"
      ],
      [
        "ho",
        "le"
      ],
      [
        "ard",
        "en"
      ],
      [
        "sh",
        "ut"
      ],
      [
        "bo",
        "t"
      ],
      [
        "rid",
        "ing"
      ],
      [
        "ene",
        "my"
      ],
      [
        "sur",
        "pr"
      ],
      [
        "em",
        "pt"
      ],
      [
        "cer",
        "tain"
      ],
      [
        "exce",
        "pt"
      ],
      [
        "F",
        "ore"
      ],
      [
        "S",
        "he"
      ],
      [
        "W",
        "ill"
      ],
      [
        "c",
        "raw"
      ],
      [
        "i",
        "a"
      ],
      [
        "i",
        "er"
      ],
      [
        "on",
        "y"
      ],
      [
        "sa",
        "d"
      ],
      [
        "un",
        "less"
      ],
      [
        "lo",
        "ve"
      ],
      [
        "sh",
        "ining"
      ],
      [
        "happ",
        "ened"
      ],
      [
        "t",
        "ou"
      ],
      [
        "The",
        "ir"
      ],
      [
        "li",
        "fe"
      ],
      [
        "oo",
        "se"
      ],
      [
        "um",
        "bled"
      ],
      [
        "ear",
        "s"
      ],
      [
        "feel",
        "ing"
      ],
      [
        "Mor",
        "ia"
      ],
      [
        "e",
        "ag"
      ],
      [
        "f",
        "aces"
      ],
      [
        "f",
        "aint"
      ],
      [
        "fr",
        "ont"
      ],
      [
        "po",
        "or"
      ],
      [
        "a",
        "li"
      ],
      [
        "h",
        "ood"
      ],
      [
        "th",
        "ick"
      ],
      [
        "know",
        "s"
      ],
      [
        "spe",
        "ed"
      ],
      [
        "might",
        "y"
      ],
      [
        "Wh",
        "ite"
      ],
      [
        "begin",
        "ning"
      ],
      [
        "coun",
        "sel"
      ],
      [
        "mem",
        "ory"
      ],
      [
        "L",
        "u"
      ],
      [
        "d",
        "est"
      ],
      [
        "g",
        "er"
      ],
      [
        "i",
        "le"
      ],
      [
        "y",
        "ed"
      ],
      [
        "th",
        "re"
      ],
      [
        "st",
        "art"
      ],
      [
        "be",
        "ast"
      ],
      [
        "us",
        "hed"
      ],
      [
        "lo",
        "t"
      ],
      [
        "dwar",
        "f"
      ],
      [
        "St",
        "ill"
      ],
      [
        "pon",
        "ies"
      ],
      [
        "van",
        "ished"
      ],
      [
        "leng",
        "th"
      ],
      [
        "M",
        "ir"
      ],
      [
        "V",
        "ery"
      ],
      [
        "e",
        "ed"
      ],
      [
        "es",
        "tern"
      ],
      [
        "be",
        "aut"
      ],
      [
        "ne",
        "arer"
      ],
      [
        "field",
        "s"
      ],
      [
        "Fore",
        "st"
      ],
      [
        "a",
        "im"
      ],
      [
        "f",
        "led"
      ],
      [
        "re",
        "ck"
      ],
      [
        "re",
        "nt"
      ],
      [
        "ti",
        "red"
      ],
      [
        "tr",
        "u"
      ],
      [
        "heart",
        "s"
      ],
      [
        "open",
        "ing"
      ],
      [
        "st",
        "ir"
      ],
      [
        "ch",
        "an"
      ],
      [
        "ab",
        "ly"
      ],
      [
        "el",
        "ves"
      ],
      [
        "tre",
        "as"
      ],
      [
        "tunne",
        "l"
      ],
      [
        "empt",
        "y"
      ],
      [
        "g",
        "ates"
      ],
      [
        "m",
        "aking"
      ],
      [
        "n",
        "ice"
      ],
      [
        "p",
        "a"
      ],
      [
        "u",
        "in"
      ],
      [
        "at",
        "ion"
      ],
      [
        "id",
        "ed"
      ],
      [
        "ho",
        "ll"
      ],
      [
        "ne",
        "ither"
      ],
      [
        "fi",
        "gu"
      ],
      [
        "ru",
        "in"
      ],
      [
        "bus",
        "iness"
      ],
      [
        "d",
        "well"
      ],
      [
        "t",
        "ried"
      ],
      [
        "st",
        "ri"
      ],
      [
        "de",
        "c"
      ],
      [
        "whe",
        "ther"
      ],
      [
        "who",
        "le"
      ],
      [
        "So",
        "on"
      ],
      [
        "belie",
        "ve"
      ],
      [
        "b",
        "owed"
      ],
      [
        "c",
        "at"
      ],
      [
        "c",
        "ed"
      ],
      [
        "v",
        "al"
      ],
      [
        "to",
        "wer"
      ],
      [
        "do",
        "om"
      ],
      [
        "de",
        "ar"
      ],
      [
        "my",
        "self"
      ],
      [
        "bl",
        "ow"
      ],
      [
        "head",
        "s"
      ],
      [
        "Be",
        "fore"
      ],
      [
        "ga",
        "thered"
      ],
      [
        "east",
        "ward"
      ],
      [
        "dist",
        "ance"
      ],
      [
        "Hobb",
        "its"
      ],
      [
        "passa",
        "ge"
      ],
      [
        "b",
        "er"
      ],
      [
        "l",
        "uck"
      ],
      [
        "s",
        "now"
      ],
      [
        "u",
        "ally"
      ],
      [
        "ar",
        "y"
      ],
      [
        "le",
        "ag"
      ],
      [
        "ous",
        "es"
      ],
      [
        "pass",
        "ing"
      ],
      [
        "ga",
        "ther"
      ],
      [
        "cloud",
        "s"
      ],
      [
        "shout",
        "ed"
      ],
      [
        "F",
        "r"
      ],
      [
        "b",
        "ri"
      ],
      [
        "s",
        "me"
      ],
      [
        "do",
        "ing"
      ],
      [
        "pre",
        "ss"
      ],
      [
        "adv",
        "ent"
      ],
      [
        "hu",
        "ge"
      ],
      [
        "Bal",
        "in"
      ],
      [
        "B",
        "y"
      ],
      [
        "b",
        "road"
      ],
      [
        "c",
        "orn"
      ],
      [
        "e",
        "cho"
      ],
      [
        "h",
        "ide"
      ],
      [
        "o",
        "c"
      ],
      [
        "t",
        "ory"
      ],
      [
        "st",
        "ory"
      ],
      [
        "no",
        "on"
      ],
      [
        "nd",
        "eed"
      ],
      [
        "me",
        "t"
      ],
      [
        "lau",
        "gh"
      ],
      [
        "Se",
        "a"
      ],
      [
        "dest",
        "ro"
      ],
      [
        "A",
        "r"
      ],
      [
        "d",
        "ing"
      ],
      [
        "g",
        "rim"
      ],
      [
        "h",
        "un"
      ],
      [
        "he",
        "al"
      ],
      [
        "ro",
        "of"
      ],
      [
        "sh",
        "arp"
      ],
      [
        "bo",
        "at"
      ],
      [
        "mo",
        "ving"
      ],
      [
        "cr",
        "own"
      ],
      [
        "aw",
        "are"
      ],
      [
        "I",
        "ndeed"
      ],
      [
        "M",
        "ark"
      ],
      [
        "T",
        "ook"
      ],
      [
        "c",
        "over"
      ],
      [
        "p",
        "ain"
      ],
      [
        "po",
        "in"
      ],
      [
        "au",
        "g"
      ],
      [
        "Sm",
        "aug"
      ],
      [
        "soft",
        "ly"
      ],
      [
        "compan",
        "ions"
      ],
      [
        "bird",
        "s"
      ],
      [
        "b",
        "ag"
      ],
      [
        "h",
        "on"
      ],
      [
        "h",
        "ar"
      ],
      [
        "t",
        "wi"
      ],
      [
        "as",
        "leep"
      ],
      [
        "ri",
        "el"
      ],
      [
        "ep",
        "ing"
      ],
      [
        "ak",
        "es"
      ],
      [
        "au",
        "ght"
      ],
      [
        "pr",
        "om"
      ],
      [
        "bro",
        "ke"
      ],
      [
        "won",
        "dered"
      ],
      [
        "Brand",
        "y"
      ],
      [
        "H",
        "a"
      ],
      [
        "a",
        "x"
      ],
      [
        "b",
        "id"
      ],
      [
        "e",
        "ch"
      ],
      [
        "we",
        "ap"
      ],
      [
        "wind",
        "ow"
      ],
      [
        "clo",
        "sed"
      ],
      [
        "ci",
        "ally"
      ],
      [
        "des",
        "ire"
      ],
      [
        "ste",
        "ad"
      ],
      [
        "di",
        "ed"
      ],
      [
        "slo",
        "pes"
      ],
      [
        "c",
        "ond"
      ],
      [
        "e",
        "aster"
      ],
      [
        "f",
        "le"
      ],
      [
        "g",
        "ro"
      ],
      [
        "m",
        "in"
      ],
      [
        "m",
        "ies"
      ],
      [
        "o",
        "b"
      ],
      [
        "p",
        "ast"
      ],
      [
        "t",
        "id"
      ],
      [
        "t",
        "able"
      ],
      [
        "bl",
        "ue"
      ],
      [
        "light",
        "s"
      ],
      [
        "wor",
        "se"
      ],
      [
        "cre",
        "pt"
      ],
      [
        "mid",
        "dle"
      ],
      [
        "chang",
        "ed"
      ],
      [
        "f",
        "act"
      ],
      [
        "r",
        "ate"
      ],
      [
        "u",
        "ff"
      ],
      [
        "v",
        "ent"
      ],
      [
        "go",
        "es"
      ],
      [
        "sh",
        "one"
      ],
      [
        "row",
        "s"
      ],
      [
        "shi",
        "eld"
      ],
      [
        "tra",
        "vell"
      ],
      [
        "hour",
        "s"
      ],
      [
        "Galad",
        "riel"
      ],
      [
        "f",
        "it"
      ],
      [
        "g",
        "g"
      ],
      [
        "p",
        "ick"
      ],
      [
        "be",
        "at"
      ],
      [
        "li",
        "ved"
      ],
      [
        "rou",
        "d"
      ],
      [
        "end",
        "s"
      ],
      [
        "ear",
        "ly"
      ],
      [
        "tal",
        "king"
      ],
      [
        "On",
        "ly"
      ],
      [
        "danger",
        "ous"
      ],
      [
        "lear",
        "ned"
      ],
      [
        "M",
        "any"
      ],
      [
        "f",
        "am"
      ],
      [
        "m",
        "erry"
      ],
      [
        "t",
        "ched"
      ],
      [
        "le",
        "g"
      ],
      [
        "ve",
        "l"
      ],
      [
        "ag",
        "es"
      ],
      [
        "wal",
        "king"
      ],
      [
        "draw",
        "n"
      ],
      [
        "bran",
        "ches"
      ],
      [
        "sme",
        "ll"
      ],
      [
        "Q",
        "u"
      ],
      [
        "a",
        "the"
      ],
      [
        "c",
        "es"
      ],
      [
        "n",
        "ames"
      ],
      [
        "t",
        "aking"
      ],
      [
        "t",
        "rying"
      ],
      [
        "re",
        "ach"
      ],
      [
        "th",
        "in"
      ],
      [
        "er",
        "rand"
      ],
      [
        "be",
        "ll"
      ],
      [
        "for",
        "get"
      ],
      [
        "ne",
        "ck"
      ],
      [
        "if",
        "ul"
      ],
      [
        "war",
        "m"
      ],
      [
        "cl",
        "ad"
      ],
      [
        "fl",
        "at"
      ],
      [
        "jo",
        "y"
      ],
      [
        "wait",
        "ing"
      ],
      [
        "song",
        "s"
      ],
      [
        "chan",
        "ge"
      ],
      [
        "tid",
        "ings"
      ],
      [
        "m",
        "ag"
      ],
      [
        "v",
        "ish"
      ],
      [
        "es",
        "cap"
      ],
      [
        "se",
        "ver"
      ],
      [
        "The",
        "se"
      ],
      [
        "de",
        "f"
      ],
      [
        "ter",
        "s"
      ],
      [
        "think",
        "ing"
      ],
      [
        "bit",
        "ter"
      ],
      [
        "slo",
        "pe"
      ],
      [
        "thr",
        "ust"
      ],
      [
        "sli",
        "pped"
      ],
      [
        "tow",
        "n"
      ],
      [
        "L",
        "ook"
      ],
      [
        "d",
        "are"
      ],
      [
        "g",
        "arden"
      ],
      [
        "r",
        "um"
      ],
      [
        "be",
        "red"
      ],
      [
        "our",
        "s"
      ],
      [
        "ti",
        "ons"
      ],
      [
        "ol",
        "ves"
      ],
      [
        "hur",
        "t"
      ],
      [
        "roll",
        "ed"
      ],
      [
        "sever",
        "al"
      ],
      [
        "W",
        "orm"
      ],
      [
        "d",
        "awn"
      ],
      [
        "e",
        "le"
      ],
      [
        "f",
        "old"
      ],
      [
        "p",
        "air"
      ],
      [
        "an",
        "n"
      ],
      [
        "ar",
        "ing"
      ],
      [
        "am",
        "ed"
      ],
      [
        "than",
        "c"
      ],
      [
        "gu",
        "est"
      ],
      [
        "wh",
        "om"
      ],
      [
        "ene",
        "mies"
      ],
      [
        "pr",
        "ison"
      ],
      [
        "Hobb",
        "it"
      ],
      [
        "Fr",
        "om"
      ],
      [
        "easter",
        "n"
      ],
      [
        "D",
        "own"
      ],
      [
        "H",
        "ill"
      ],
      [
        "b",
        "orders"
      ],
      [
        "i",
        "gh"
      ],
      [
        "k",
        "ni"
      ],
      [
        "v",
        "ast"
      ],
      [
        "w",
        "ished"
      ],
      [
        "th",
        "ro"
      ],
      [
        "as",
        "hed"
      ],
      [
        "like",
        "ly"
      ],
      [
        "wat",
        "ched"
      ],
      [
        "Th",
        "ough"
      ],
      [
        "Or",
        "thanc"
      ],
      [
        "list",
        "ening"
      ],
      [
        "pur",
        "su"
      ],
      [
        "leap",
        "ed"
      ],
      [
        "O",
        "ut"
      ],
      [
        "b",
        "are"
      ],
      [
        "w",
        "ine"
      ],
      [
        "se",
        "ld"
      ],
      [
        "cl",
        "aim"
      ],
      [
        "bur",
        "den"
      ],
      [
        "foo",
        "l"
      ],
      [
        "step",
        "ped"
      ],
      [
        "cha",
        "ir"
      ],
      [
        "hast",
        "e"
      ],
      [
        "dif",
        "fi"
      ],
      [
        "lat",
        "er"
      ],
      [
        "beaut",
        "iful"
      ],
      [
        "seld",
        "om"
      ],
      [
        "b",
        "s"
      ],
      [
        "b",
        "orn"
      ],
      [
        "m",
        "or"
      ],
      [
        "s",
        "cr"
      ],
      [
        "s",
        "words"
      ],
      [
        "s",
        "ort"
      ],
      [
        "ar",
        "ad"
      ],
      [
        "ke",
        "ts"
      ],
      [
        "great",
        "er"
      ],
      [
        "Is",
        "ild"
      ],
      [
        "dread",
        "ful"
      ],
      [
        "cir",
        "cle"
      ],
      [
        "Lu",
        "rien"
      ],
      [
        "reck",
        "on"
      ],
      [
        "diffi",
        "cu"
      ],
      [
        "Isild",
        "ur"
      ],
      [
        "Y",
        "our"
      ],
      [
        "a",
        "live"
      ],
      [
        "t",
        "w"
      ],
      [
        "v",
        "ill"
      ],
      [
        "at",
        "t"
      ],
      [
        "your",
        "self"
      ],
      [
        "po",
        "c"
      ],
      [
        "spo",
        "ken"
      ],
      [
        "chi",
        "ld"
      ],
      [
        "draw",
        "ing"
      ],
      [
        "De",
        "ad"
      ],
      [
        "burn",
        "ing"
      ],
      [
        "lear",
        "n"
      ],
      [
        "holl",
        "ow"
      ],
      [
        "C",
        "ap"
      ],
      [
        "f",
        "fi"
      ],
      [
        "j",
        "e"
      ],
      [
        "l",
        "ab"
      ],
      [
        "s",
        "ir"
      ],
      [
        "t",
        "ro"
      ],
      [
        "bl",
        "ind"
      ],
      [
        "bo",
        "ats"
      ],
      [
        "des",
        "c"
      ],
      [
        "Be",
        "reg"
      ],
      [
        "dist",
        "ant"
      ],
      [
        "app",
        "ro"
      ],
      [
        "creat",
        "ure"
      ],
      [
        "fad",
        "ed"
      ],
      [
        "corn",
        "er"
      ],
      [
        "Bereg",
        "ond"
      ],
      [
        ")",
        ","
      ],
      [
        "d",
        "er"
      ],
      [
        "n",
        "um"
      ],
      [
        "re",
        "l"
      ],
      [
        "st",
        "ro"
      ],
      [
        "ay",
        "s"
      ],
      [
        "il",
        "t"
      ],
      [
        "ter",
        "bur"
      ],
      [
        "ra",
        "ised"
      ],
      [
        "el",
        "f"
      ],
      [
        "say",
        "ing"
      ],
      [
        "wo",
        "ke"
      ],
      [
        "star",
        "ted"
      ],
      [
        "sho",
        "t"
      ],
      [
        "bot",
        "tom"
      ],
      [
        "tru",
        "th"
      ],
      [
        "Cap",
        "tain"
      ],
      [
        "M",
        "id"
      ],
      [
        "b",
        "or"
      ],
      [
        "b",
        "ridge"
      ],
      [
        "c",
        "ity"
      ],
      [
        "w",
        "olves"
      ],
      [
        "y",
        "e"
      ],
      [
        "he",
        "ight"
      ],
      [
        "in",
        "es"
      ],
      [
        "ou",
        "red"
      ],
      [
        "st",
        "ony"
      ],
      [
        "le",
        "an"
      ],
      [
        "se",
        "a"
      ],
      [
        "se",
        "cond"
      ],
      [
        "ay",
        "ed"
      ],
      [
        "But",
        "terbur"
      ],
      [
        "And",
        "uin"
      ],
      [
        "spe",
        "aking"
      ],
      [
        "road",
        "s"
      ],
      [
        "Be",
        "orn"
      ],
      [
        "fa",
        "x"
      ],
      [
        "sle",
        "pt"
      ],
      [
        "west",
        "ward"
      ],
      [
        "flow",
        "ed"
      ],
      [
        "pon",
        "y"
      ],
      [
        "mut",
        "tered"
      ],
      [
        "W",
        "ood"
      ],
      [
        "f",
        "re"
      ],
      [
        "k",
        "wood"
      ],
      [
        "s",
        "and"
      ],
      [
        "th",
        "y"
      ],
      [
        "it",
        "self"
      ],
      [
        "ho",
        "t"
      ],
      [
        "de",
        "l"
      ],
      [
        "sh",
        "ow"
      ],
      [
        "say",
        "s"
      ],
      [
        "sho",
        "re"
      ],
      [
        "lead",
        "ing"
      ],
      [
        "hung",
        "ry"
      ],
      [
        "Shadow",
        "fax"
      ],
      [
        "fing",
        "ers"
      ],
      [
        "Mir",
        "kwood"
      ],
      [
        "treas",
        "ure"
      ],
      [
        "b",
        "ound"
      ],
      [
        "g",
        "ain"
      ],
      [
        "m",
        "ount"
      ],
      [
        "p",
        "at"
      ],
      [
        "p",
        "roud"
      ],
      [
        "s",
        "end"
      ],
      [
        "w",
        "estern"
      ],
      [
        "es",
        "pe"
      ],
      [
        "ch",
        "ar"
      ],
      [
        "pe",
        "red"
      ],
      [
        "ra",
        "ve"
      ],
      [
        "fi",
        "ve"
      ],
      [
        "pl",
        "an"
      ],
      [
        "night",
        "s"
      ],
      [
        "hel",
        "m"
      ],
      [
        "path",
        "s"
      ],
      [
        "di",
        "rec"
      ],
      [
        "mar",
        "ch"
      ],
      [
        "rock",
        "s"
      ],
      [
        "dead",
        "ly"
      ],
      [
        "guard",
        "s"
      ],
      [
        "bus",
        "y"
      ],
      [
        "ious",
        "ly"
      ],
      [
        "difficu",
        "lt"
      ],
      [
        "F",
        "ang"
      ],
      [
        "c",
        "us"
      ],
      [
        "s",
        "ides"
      ],
      [
        "t",
        "roll"
      ],
      [
        "th",
        "ir"
      ],
      [
        "or",
        "cs"
      ],
      [
        "st",
        "aff"
      ],
      [
        "ter",
        "ror"
      ],
      [
        "ter",
        "rible"
      ],
      [
        "will",
        "ing"
      ],
      [
        "wat",
        "ers"
      ],
      [
        "fell",
        "ow"
      ],
      [
        "cap",
        "tain"
      ],
      [
        "pi",
        "er"
      ],
      [
        "expe",
        "cted"
      ],
      [
        "dif",
        "fe"
      ],
      [
        "eas",
        "y"
      ],
      [
        "ton",
        "ight"
      ],
      [
        "poss",
        "ible"
      ],
      [
        "c",
        "il"
      ],
      [
        "c",
        "hill"
      ],
      [
        "f",
        "ou"
      ],
      [
        "g",
        "low"
      ],
      [
        "k",
        "ill"
      ],
      [
        "m",
        "ail"
      ],
      [
        "ess",
        "eng"
      ],
      [
        "wind",
        "ows"
      ],
      [
        "fl",
        "ame"
      ],
      [
        "climb",
        "ing"
      ],
      [
        "quiet",
        "ly"
      ],
      [
        "break",
        "fast"
      ],
      [
        "ques",
        "tion"
      ],
      [
        "Mo",
        "on"
      ],
      [
        "leag",
        "ues"
      ],
      [
        "espe",
        "cially"
      ],
      [
        "L",
        "ong"
      ],
      [
        "m",
        "ine"
      ],
      [
        "ac",
        "count"
      ],
      [
        "ho",
        "les"
      ],
      [
        "pe",
        "ak"
      ],
      [
        "bl",
        "ade"
      ],
      [
        "what",
        "ever"
      ],
      [
        "te",
        "en"
      ],
      [
        "king",
        "s"
      ],
      [
        "rest",
        "ed"
      ],
      [
        "con",
        "cer"
      ],
      [
        "br",
        "own"
      ],
      [
        "every",
        "thing"
      ],
      [
        "burn",
        "ed"
      ],
      [
        "serv",
        "ice"
      ],
      [
        "May",
        "be"
      ],
      [
        "escap",
        "ed"
      ],
      [
        "W",
        "hi"
      ],
      [
        "W",
        "ild"
      ],
      [
        "a",
        "ving"
      ],
      [
        "f",
        "li"
      ],
      [
        "p",
        "ill"
      ],
      [
        "w",
        "anted"
      ],
      [
        "he",
        "w"
      ],
      [
        "st",
        "orm"
      ],
      [
        "oo",
        "t"
      ],
      [
        "ke",
        "y"
      ],
      [
        "de",
        "v"
      ],
      [
        "any",
        "way"
      ],
      [
        "if",
        "f"
      ],
      [
        "El",
        "ven"
      ],
      [
        "fall",
        "s"
      ],
      [
        "ga",
        "zed"
      ],
      [
        "mes",
        "sa"
      ],
      [
        "cha",
        "mber"
      ],
      [
        "bu",
        "ilt"
      ],
      [
        "que",
        "er"
      ],
      [
        "yell",
        "ow"
      ],
      [
        "gather",
        "ing"
      ],
      [
        "travell",
        "ers"
      ],
      [
        "J",
        "ust"
      ],
      [
        "h",
        "ang"
      ],
      [
        "ir",
        "th"
      ],
      [
        "de",
        "light"
      ],
      [
        "sh",
        "ri"
      ],
      [
        "ak",
        "ed"
      ],
      [
        "did",
        "n"
      ],
      [
        "arrow",
        "s"
      ],
      [
        "pi",
        "e"
      ],
      [
        "wr",
        "it"
      ],
      [
        "expe",
        "ct"
      ],
      [
        "Fang",
        "orn"
      ],
      [
        "f",
        "if"
      ],
      [
        "h",
        "ouses"
      ],
      [
        "w",
        "ings"
      ],
      [
        "an",
        "x"
      ],
      [
        "ha",
        "ven"
      ],
      [
        "ent",
        "s"
      ],
      [
        "el",
        "ven"
      ],
      [
        "low",
        "er"
      ],
      [
        "wind",
        "ing"
      ],
      [
        "gr",
        "in"
      ],
      [
        "need",
        "ed"
      ],
      [
        "whis",
        "per"
      ],
      [
        "pur",
        "pose"
      ],
      [
        "Dwar",
        "ves"
      ],
      [
        "kne",
        "es"
      ],
      [
        "destro",
        "yed"
      ],
      [
        "hon",
        "our"
      ],
      [
        "Worm",
        "tongue"
      ],
      [
        "c",
        "amp"
      ],
      [
        "f",
        "ro"
      ],
      [
        "f",
        "lying"
      ],
      [
        "f",
        "arewell"
      ],
      [
        "l",
        "ake"
      ],
      [
        "m",
        "ad"
      ],
      [
        "s",
        "ang"
      ],
      [
        "he",
        "ed"
      ],
      [
        "as",
        "ed"
      ],
      [
        "en",
        "s"
      ],
      [
        "nd",
        "er"
      ],
      [
        "ag",
        "ed"
      ],
      [
        "me",
        "ant"
      ],
      [
        "ord",
        "er"
      ],
      [
        "pp",
        "ing"
      ],
      [
        "car",
        "ried"
      ],
      [
        "mid",
        "st"
      ],
      [
        "comfort",
        "able"
      ],
      [
        "fou",
        "l"
      ],
      [
        "B",
        "ard"
      ],
      [
        "F",
        "arewell"
      ],
      [
        "G",
        "old"
      ],
      [
        "I",
        "m"
      ],
      [
        "c",
        "ool"
      ],
      [
        "f",
        "ine"
      ],
      [
        "g",
        "lit"
      ],
      [
        "m",
        "us"
      ],
      [
        "he",
        "ir"
      ],
      [
        "or",
        "s"
      ],
      [
        "or",
        "row"
      ],
      [
        "ro",
        "pe"
      ],
      [
        "He",
        "l"
      ],
      [
        "ink",
        "ing"
      ],
      [
        "ate",
        "ly"
      ],
      [
        "should",
        "er"
      ],
      [
        "hor",
        "rible"
      ],
      [
        "Gre",
        "y"
      ],
      [
        "cross",
        "ed"
      ],
      [
        "swe",
        "et"
      ],
      [
        "Dwar",
        "f"
      ],
      [
        "Bom",
        "bur"
      ],
      [
        "guest",
        "s"
      ],
      [
        "Mid",
        "dle"
      ],
      [
        "P",
        "er"
      ],
      [
        "b",
        "lo"
      ],
      [
        "b",
        "ably"
      ],
      [
        "c",
        "ase"
      ],
      [
        "p",
        "ri"
      ],
      [
        "p",
        "ers"
      ],
      [
        "re",
        "as"
      ],
      [
        "me",
        "al"
      ],
      [
        "fe",
        "ast"
      ],
      [
        "some",
        "times"
      ],
      [
        "sp",
        "read"
      ],
      [
        "ran",
        "k"
      ],
      [
        "tr",
        "ack"
      ],
      [
        "should",
        "ers"
      ],
      [
        "gr",
        "own"
      ],
      [
        "part",
        "s"
      ],
      [
        "sl",
        "ain"
      ],
      [
        "flow",
        "ers"
      ],
      [
        "sig",
        "hed"
      ],
      [
        "trou",
        "bled"
      ],
      [
        "Mor",
        "gu"
      ],
      [
        "wr",
        "ong"
      ],
      [
        ")",
        "."
      ],
      [
        "B",
        "uck"
      ],
      [
        "c",
        "ries"
      ],
      [
        "d",
        "we"
      ],
      [
        "f",
        "right"
      ],
      [
        "g",
        "ent"
      ],
      [
        "at",
        "ing"
      ],
      [
        "is",
        "n"
      ],
      [
        "be",
        "lt"
      ],
      [
        "et",
        "s"
      ],
      [
        "ck",
        "s"
      ],
      [
        "sp",
        "l"
      ],
      [
        "tre",
        "m"
      ],
      [
        "ble",
        "w"
      ],
      [
        "des",
        "pair"
      ],
      [
        "deed",
        "s"
      ],
      [
        "sto",
        "p"
      ],
      [
        "whis",
        "pered"
      ],
      [
        "diffe",
        "rent"
      ],
      [
        "dwe",
        "lt"
      ],
      [
        "C",
        "ele"
      ],
      [
        "G",
        "or"
      ],
      [
        "G",
        "am"
      ],
      [
        "U",
        "n"
      ],
      [
        "g",
        "if"
      ],
      [
        "k",
        "es"
      ],
      [
        "k",
        "no"
      ],
      [
        "n",
        "s"
      ],
      [
        "u",
        "red"
      ],
      [
        "st",
        "ick"
      ],
      [
        "le",
        "af"
      ],
      [
        "ke",
        "en"
      ],
      [
        "end",
        "il"
      ],
      [
        "No",
        "thing"
      ],
      [
        "ang",
        "ry"
      ],
      [
        "ring",
        "s"
      ],
      [
        "spe",
        "ech"
      ],
      [
        "El",
        "endil"
      ],
      [
        "ic",
        "ed"
      ],
      [
        "how",
        "ever"
      ],
      [
        "di",
        "e"
      ],
      [
        "list",
        "en"
      ],
      [
        "tor",
        "ches"
      ],
      [
        "roo",
        "ts"
      ],
      [
        "surpr",
        "ise"
      ],
      [
        "D",
        "ale"
      ],
      [
        "c",
        "ord"
      ],
      [
        "e",
        "k"
      ],
      [
        "g",
        "ar"
      ],
      [
        "g",
        "ently"
      ],
      [
        "m",
        "bered"
      ],
      [
        "we",
        "ather"
      ],
      [
        "ac",
        "ed"
      ],
      [
        "ard",
        "s"
      ],
      [
        "see",
        "k"
      ],
      [
        "bl",
        "ood"
      ],
      [
        "led",
        "ge"
      ],
      [
[...]
