{
  "version": "1.0",
  "truncation": null,
  "padding": null,
  "added_tokens": [
    {
      "id": 0,
      "content": "[UNK]",
      "single_word": false,
      "lstrip": false,
      "rstrip": false,
      "normalized": false,
      "special": true
    },
    {
      "id": 1,
      "content": "[CLS]",
      "single_word": false,
      "lstrip": false,
      "rstrip": false,
      "normalized": false,
      "special": true
    },
    {
      "id": 2,
      "content": "[SEP]",
      "single_word": false,
      "lstrip": false,
      "rstrip": false,
      "normalized": false,
      "special": true
    },
    {
      "id": 3,
      "content": "[PAD]",
      "single_word": false,
      "lstrip": false,
      "rstrip": false,
      "normalized": false,
      "special": true
    },
    {
      "id": 4,
      "content": "[MASK]",
      "single_word": false,
      "lstrip": false,
      "rstrip": false,
      "normalized": false,
      "special": true
    }
  ],
  "normalizer": null,
  "pre_tokenizer": {
    "type": "Whitespace"
  },
  "post_processor": null,
  "decoder": null,
  "model": {
    "type": "BPE",
    "dropout": null,
    "unk_token": "[UNK]",
    "continuing_subword_prefix": null,
    "end_of_word_suffix": null,
    "fuse_unk": false,
    "byte_fallback": false,
    "ignore_merges": false,
    "vocab": {
      "[UNK]": 0,
      "[CLS]": 1,
      "[SEP]": 2,
      "[PAD]": 3,
      "[MASK]": 4,
      "!": 5,
      "\"": 6,
      "(": 7,
      ")": 8,
      "*": 9,
      ",": 10,
      "-": 11,
      ".": 12,
      "0": 13,
      "1": 14,
      "2": 15,
      "3": 16,
      "4": 17,
      "5": 18,
      "6": 19,
      "7": 20,
      "8": 21,
      "9": 22,
      ":": 23,
      ";": 24,
      "?": 25,
      "A": 26,
      "B": 27,
      "C": 28,
      "D": 29,
      "E": 30,
      "F": 31,
      "G": 32,
      "H": 33,
      "I": 34,
      "J": 35,
      "K": 36,
      "L": 37,
      "M": 38,
      "N": 39,
      "O": 40,
      "P": 41,
      "Q": 42,
      "R": 43,
      "S": 44,
      "T": 45,
      "U": 46,
      "V": 47,
      "W": 48,
      "X": 49,
      "Y": 50,
      "Z": 51,
      "[": 52,
      "]": 53,
      "_": 54,
      "a": 55,
      "b": 56,
      "c": 57,
      "d": 58,
      "e": 59,
      "f": 60,
      "g": 61,
      "h": 62,
      "i": 63,
      "j": 64,
      "k": 65,
      "l": 66,
      "m": 67,
      "n": 68,
      "o": 69,
      "p": 70,
      "q": 71,
      "r": 72,
      "s": 73,
      "t": 74,
      "u": 75,
      "v": 76,
      "w": 77,
      "x": 78,
      "y": 79,
      "z": 80,
      "Æ": 81,
      "à": 82,
      "æ": 83,
      "é": 84,
      "ê": 85,
      "ë": 86,
      "ó": 87,
      "ā": 88,
      "ă": 89,
      "ē": 90,
      "ĕ": 91,
      "ī": 92,
      "ĭ": 93,
      "ō": 94,
      "ŏ": 95,
      "Œ": 96,
      "œ": 97,
      "ў": 98,
      "’": 99,
      "he": 100,
      "the": 101,
      "an": 102,
      "in": 103,
      "and": 104,
      "re": 105,
      "th": 106,
      "of": 107,
      "to": 108,
      "hi": 109,
      "ou": 110,
      "on": 111,
      "ed": 112,
      "en": 113,
      "er": 114,
      "es": 115,
      "as": 116,
      "ar": 117,
      "ll": 118,
      "at": 119,
      "or": 120,
      "ing": 121,
      "us": 122,
      "se": 123,
      "ha": 124,
      "ro": 125,
      "is": 126,
      "me": 127,
      "le": 128,
      "ld": 129,
      "wi": 130,
      "his": 131,
      "be": 132,
      "ho": 133,
      "st": 134,
      "gh": 135,
      "it": 136,
      "ac": 137,
      "ri": 138,
      "we": 139,
      "no": 140,
      "ai": 141,
      "ve": 142,
      "ay": 143,
      "ly": 144,
      "ad": 145,
      "ch": 146,
      "for": 147,
      "with": 148,
      "ght": 149,
      "was": 150,
      "that": 151,
      "nd": 152,
      "li": 153,
      "lo": 154,
      "The": 155,
      "you": 156,
      "ut": 157,
      "ther": 158,
      "him": 159,
      "ir": 160,
      "de": 161,
      "al": 162,
      "all": 163,
      "had": 164,
      "ent": 165,
      "ver": 166,
      "up": 167,
      "whi": 168,
      "her": 169,
      "ain": 170,
      "ow": 171,
      "un": 172,
      "so": 173,
      "red": 174,
      "ong": 175,
      "ce": 176,
      "am": 177,
      "ag": 178,
      "they": 179,
      "fe": 180,
      "rom": 181,
      "ess": 182,
      "ast": 183,
      "ne": 184,
      "ould": 185,
      "ard": 186,
      "ca": 187,
      "aid": 188,
      "go": 189,
      "et": 190,
      "one": 191,
      "co": 192,
      "whe": 193,
      "ur": 194,
      "from": 195,
      "who": 196,
      "mo": 197,
      "He": 198,
      "not": 199,
      "And": 200,
      "est": 201,
      "which": 202,
      "my": 203,
      "upon": 204,
      "man": 205,
      "te": 206,
      "il": 207,
      "them": 208,
      "fo": 209,
      "ke": 210,
      "ers": 211,
      "their": 212,
      "ds": 213,
      "ys": 214,
      "sp": 215,
      "ft": 216,
      "by": 217,
      "gre": 218,
      "hall": 219,
      "were": 220,
      "men": 221,
      "out": 222,
      "she": 223,
      "nt": 224,
      "have": 225,
      "Then": 226,
      "pl": 227,
      "now": 228,
      "Od": 229,
      "said": 230,
      "ysse": 231,
      "Odysse": 232,
      "bo": 233,
      "king": 234,
      "rou": 235,
      "our": 236,
      "fa": 237,
      "mi": 238,
      "Odysseus": 239,
      "ti": 240,
      "tor": 241,
      "this": 242,
      "od": 243,
      "ace": 244,
      "ven": 245,
      "wor": 246,
      "great": 247,
      ".\"": 248,
      "ul": 249,
      "sa": 250,
      "but": 251,
      "ount": 252,
      "do": 253,
      "ear": 254,
      "ind": 255,
      "are": 256,
      "sh": 257,
      "when": 258,
      "pe": 259,
      "thou": 260,
      "),": 261,
      "art": 262,
      "ple": 263,
      "day": 264,
      "into": 265,
      "end": 266,
      "father": 267,
      "But": 268,
      "ck": 269,
      "long": 270,
      "ang": 271,
      "row": 272,
      "way": 273,
      "there": 274,
      "fi": 275,
      "old": 276,
      "own": 277,
      ",\"": 278,
      "land": 279,
      "led": 280,
      "si": 281,
      "will": 282,
      "wo": 283,
      "sel": 284,
      "came": 285,
      "would": 286,
      "str": 287,
      "son": 288,
      "ves": 289,
      "ta": 290,
      "sea": 291,
      "ans": 292,
      "--": 293,
      "ra": 294,
      "qu": 295,
      "shall": 296,
      "chi": 297,
      "ure": 298,
      "id": 299,
      "sto": 300,
      "gi": 301,
      "ound": 302,
      "la": 303,
      "ok": 304,
      "ever": 305,
      "po": 306,
      "see": 307,
      "less": 308,
      "hed": 309,
      "then": 310,
      "how": 311,
      "ene": 312,
      "ist": 313,
      "ble": 314,
      "fai": 315,
      "hero": 316,
      "where": 317,
      "fore": 318,
      "ward": 319,
      "your": 320,
      "ry": 321,
      "mp": 322,
      "ful": 323,
      "su": 324,
      "les": 325,
      "hip": 326,
      "ath": 327,
      "ep": 328,
      "ant": 329,
      "urn": 330,
      "other": 331,
      "car": 332,
      "ught": 333,
      "mb": 334,
      "ter": 335,
      "well": 336,
      "hat": 337,
      "pr": 338,
      "ous": 339,
      "come": 340,
      "again": 341,
      "hand": 342,
      "been": 343,
      "ga": 344,
      "ng": 345,
      "ship": 346,
      "might": 347,
      "ru": 348,
      "ade": 349,
      "ot": 350,
      "da": 351,
      "know": 352,
      "ion": 353,
      "ose": 354,
      "ass": 355,
      "ia": 356,
      "ine": 357,
      "read": 358,
      "res": 359,
      "age": 360,
      "ried": 361,
      "ge": 362,
      "its": 363,
      "ab": 364,
      "ap": 365,
      "turn": 366,
      "ust": 367,
      "far": 368,
      "mor": 369,
      "ountain": 370,
      "med": 371,
      "many": 372,
      "Her": 373,
      "gr": 374,
      "some": 375,
      "should": 376,
      "ele": 377,
      "ic": 378,
      "ked": 379,
      "than": 380,
      "ach": 381,
      "unt": 382,
      "more": 383,
      "mountain": 384,
      "len": 385,
      "thing": 386,
      "time": 387,
      "went": 388,
      "fair": 389,
      "tle": 390,
      "ved": 391,
      "low": 392,
      "among": 393,
      "Tro": 394,
      "sho": 395,
      "ak": 396,
      "Hell": 397,
      "ill": 398,
      "pp": 399,
      "war": 400,
      "down": 401,
      "aut": 402,
      "ey": 403,
      "what": 404,
      "any": 405,
      "before": 406,
      "\"’": 407,
      "Ar": 408,
      "fri": 409,
      "tal": 410,
      "ened": 411,
      ",--": 412,
      "ity": 413,
      "ack": 414,
      "even": 415,
      ".’": 416,
      "like": 417,
      "mes": 418,
      "ond": 419,
      "ark": 420,
      "self": 421,
      "about": 422,
      "could": 423,
      "lad": 424,
      "mon": 425,
      "pri": 426,
      "wa": 427,
      "heart": 428,
      "acles": 429,
      "bro": 430,
      "ree": 431,
      "young": 432,
      "over": 433,
      "beaut": 434,
      "ness": 435,
      "rew": 436,
      "und": 437,
      "home": 438,
      "Heracles": 439,
      "Par": 440,
      "sai": 441,
      "sk": 442,
      "light": 443,
      "br": 444,
      "these": 445,
      "while": 446,
      "fter": 447,
      "os": 448,
      "ving": 449,
      "rough": 450,
      "llow": 451,
      "if": 452,
      "ms": 453,
      "thy": 454,
      "wered": 455,
      "rought": 456,
      "gu": 457,
      "ning": 458,
      "hen": 459,
      "earth": 460,
      "every": 461,
      "Apo": 462,
      "eus": 463,
      "ol": 464,
      "llo": 465,
      "ors": 466,
      "Apollo": 467,
      "It": 468,
      "away": 469,
      "lt": 470,
      "lit": 471,
      "through": 472,
      "gold": 473,
      "daught": 474,
      "rest": 475,
      "Ith": 476,
      "wat": 477,
      "tell": 478,
      "answered": 479,
      "Ithac": 480,
      "ef": 481,
      "hast": 482,
      "ment": 483,
      "sun": 484,
      "?\"": 485,
      "back": 486,
      "can": 487,
      "call": 488,
      "made": 489,
      "most": 490,
      "tory": 491,
      ",’": 492,
      "el": 493,
      "mer": 494,
      "ull": 495,
      "told": 496,
      "hold": 497,
      "new": 498,
      "words": 499,
      "cha": 500,
      "heard": 501,
      "There": 502,
      "stood": 503,
      "Zeus": 504,
      "brought": 505,
      "has": 506,
      "ian": 507,
      "ma": 508,
      "per": 509,
      "asked": 510,
      "right": 511,
      "Ithaca": 512,
      "city": 513,
      "di": 514,
      "pleas": 515,
      "When": 516,
      "after": 517,
      "hus": 518,
      "very": 519,
      "com": 520,
      "heroes": 521,
      "pray": 522,
      "cl": 523,
      "tre": 524,
      "ons": 525,
      "stre": 526,
      "aced": 527,
      "ct": 528,
      "eld": 529,
      "phi": 530,
      "say": 531,
      "tus": 532,
      "thee": 533,
      "oft": 534,
      "tem": 535,
      "saw": 536,
      "sat": 537,
      "yet": 538,
      "Troy": 539,
      "Hellas": 540,
      "eyes": 541,
      "bu": 542,
      "did": 543,
      "kind": 544,
      "tr": 545,
      "ert": 546,
      "use": 547,
      "place": 548,
      "bl": 549,
      "nor": 550,
      "oy": 551,
      "once": 552,
      "eds": 553,
      "never": 554,
      "bow": 555,
      "ears": 556,
      "strang": 557,
      "daughter": 558,
      "Py": 559,
      "dist": 560,
      "ned": 561,
      "mother": 562,
      "ready": 563,
      "eleus": 564,
      "HE": 565,
      "des": 566,
      "pass": 567,
      "ze": 568,
      "took": 569,
      "high": 570,
      "life": 571,
      "irst": 572,
      "spe": 573,
      "sail": 574,
      "In": 575,
      "King": 576,
      "swi": 577,
      "thus": 578,
      "ate": 579,
      "himself": 580,
      "whom": 581,
      "little": 582,
      "may": 583,
      "maid": 584,
      "sil": 585,
      "arrow": 586,
      "ces": 587,
      "sha": 588,
      "swe": 589,
      "wis": 590,
      "ings": 591,
      "los": 592,
      "mber": 593,
      "bes": 594,
      "bor": 595,
      "beg": 596,
      "aster": 597,
      "Helen": 598,
      "side": 599,
      "maiden": 600,
      "For": 601,
      "La": 602,
      "Pe": 603,
      "So": 604,
      "count": 605,
      "har": 606,
      "ick": 607,
      "story": 608,
      "ance": 609,
      "tow": 610,
      "only": 611,
      "happ": 612,
      "left": 613,
      "gods": 614,
      "world": 615,
      "thought": 616,
      "child": 617,
      "swift": 618,
      "cho": 619,
      "dd": 620,
      "first": 621,
      "ight": 622,
      "win": 623,
      "rich": 624,
      "mighty": 625,
      "shore": 626,
      "My": 627,
      "ks": 628,
      "pi": 629,
      "head": 630,
      "ars": 631,
      "death": 632,
      "chill": 633,
      "grand": 634,
      "under": 635,
      "Achill": 636,
      "cour": 637,
      "full": 638,
      "iful": 639,
      "na": 640,
      "pt": 641,
      "pal": 642,
      "part": 643,
      "wife": 644,
      "wel": 645,
      "lios": 646,
      "amed": 647,
      "foot": 648,
      "ress": 649,
      "sweet": 650,
      "Achilles": 651,
      "Laced": 652,
      "ious": 653,
      "lay": 654,
      "æmon": 655,
      "hel": 656,
      "still": 657,
      "love": 658,
      "until": 659,
      "beautiful": 660,
      "Lacedæmon": 661,
      "che": 662,
      "ue": 663,
      "mem": 664,
      "let": 665,
      "lion": 666,
      "good": 667,
      "days": 668,
      "turned": 669,
      "friend": 670,
      "clo": 671,
      "ken": 672,
      "sent": 673,
      "toward": 674,
      "lled": 675,
      "set": 676,
      "plain": 677,
      "mius": 678,
      "golden": 679,
      "called": 680,
      ".*": 681,
      "Phe": 682,
      "cus": 683,
      "dwell": 684,
      "ex": 685,
      "fer": 686,
      "ste": 687,
      "hands": 688,
      "Phemius": 689,
      "Eur": 690,
      "abo": 691,
      "hou": 692,
      "ss": 693,
      "two": 694,
      "ends": 695,
      "look": 696,
      "cause": 697,
      "follow": 698,
      "peo": 699,
      "ships": 700,
      "make": 701,
      "palace": 702,
      "Peleus": 703,
      "ide": 704,
      "last": 705,
      "must": 706,
      "op": 707,
      "sand": 708,
      "wall": 709,
      "around": 710,
      "wild": 711,
      "ilt": 712,
      "halls": 713,
      "word": 714,
      "strong": 715,
      "Paris": 716,
      "!\"": 717,
      "Nes": 718,
      "THE": 719,
      "ither": 720,
      "those": 721,
      "rock": 722,
      "stand": 723,
      "hera": 724,
      "take": 725,
      "give": 726,
      "gave": 727,
      "Nestor": 728,
      "con": 729,
      "cried": 730,
      "found": 731,
      "ny": 732,
      "ted": 733,
      "years": 734,
      "white": 735,
      "vessel": 736,
      "prin": 737,
      "people": 738,
      "At": 739,
      "hy": 740,
      "ice": 741,
      "list": 742,
      "put": 743,
      "chas": 744,
      "round": 745,
      "laus": 746,
      "mortal": 747,
      "brother": 748,
      "Mene": 749,
      "Se": 750,
      "flo": 751,
      "hunt": 752,
      "ling": 753,
      "master": 754,
      "ates": 755,
      "ation": 756,
      "lands": 757,
      "built": 758,
      "Iphi": 759,
      "hon": 760,
      "ser": 761,
      "noble": 762,
      "herd": 763,
      "dom": 764,
      "ertes": 765,
      "Laertes": 766,
      "name": 767,
      "Menelaus": 768,
      "Mess": 769,
      "cre": 770,
      "cou": 771,
      "pro": 772,
      "sle": 773,
      "sad": 774,
      "uch": 775,
      "anc": 776,
      "bet": 777,
      "air": 778,
      "They": 779,
      "youth": 780,
      "ager": 781,
      "chief": 782,
      "carried": 783,
      "onder": 784,
      "towards": 785,
      "flow": 786,
      "past": 787,
      "sm": 788,
      "sou": 789,
      "ting": 790,
      "ins": 791,
      "ence": 792,
      "lea": 793,
      "que": 794,
      "against": 795,
      "friends": 796,
      "Au": 797,
      "Athen": 798,
      "Aga": 799,
      "Mount": 800,
      "dri": 801,
      "non": 802,
      "none": 803,
      "ross": 804,
      "soon": 805,
      "though": 806,
      "mph": 807,
      "known": 808,
      "memnon": 809,
      "Eury": 810,
      "above": 811,
      "queen": 812,
      "Agamemnon": 813,
      "band": 814,
      "bir": 815,
      "bard": 816,
      "gri": 817,
      "ith": 818,
      "mat": 819,
      "tru": 820,
      "won": 821,
      "hea": 822,
      "attle": 823,
      "forth": 824,
      "boy": 825,
      "bring": 826,
      "country": 827,
      "EN": 828,
      "each": 829,
      "knew": 830,
      "nass": 831,
      "ten": 832,
      "wonder": 833,
      "here": 834,
      "wise": 835,
      "beast": 836,
      "shep": 837,
      "ures": 838,
      "given": 839,
      "things": 840,
      "wait": 841,
      "Parnass": 842,
      "strange": 843,
      "passed": 844,
      "Parnassus": 845,
      "Ph": 846,
      "bri": 847,
      "cle": 848,
      "face": 849,
      "gl": 850,
      "mar": 851,
      "mind": 852,
      "sit": 853,
      "wr": 854,
      "toly": 855,
      "ished": 856,
      "fort": 857,
      "live": 858,
      "iron": 859,
      "fell": 860,
      "pleasant": 861,
      "Autoly": 862,
      "Autolycus": 863,
      "De": 864,
      "ched": 865,
      "ding": 866,
      "dark": 867,
      "night": 868,
      "om": 869,
      "ods": 870,
      "tent": 871,
      "return": 872,
      "ason": 873,
      "arms": 874,
      "ish": 875,
      "ised": 876,
      "bey": 877,
      "spr": 878,
      "beauty": 879,
      "began": 880,
      "Messene": 881,
      "Athené": 882,
      "Ca": 883,
      "Eu": 884,
      "laid": 885,
      "pre": 886,
      "song": 887,
      "enes": 888,
      "seen": 889,
      "bear": 890,
      "within": 891,
      "deed": 892,
      "deep": 893,
      "alone": 894,
      "feast": 895,
      "fire": 896,
      "quick": 897,
      "idon": 898,
      "Argo": 899,
      "waves": 900,
      "water": 901,
      "house": 902,
      "Mele": 903,
      "Pro": 904,
      "Ty": 905,
      "dis": 906,
      "fall": 907,
      "find": 908,
      "im": 909,
      "ies": 910,
      "jo": 911,
      "oke": 912,
      "tri": 913,
      "theus": 914,
      "ort": 915,
      "feet": 916,
      "cos": 917,
      "ests": 918,
      "times": 919,
      "filled": 920,
      "gift": 921,
      "Troj": 922,
      "pped": 923,
      "husband": 924,
      "trees": 925,
      "happy": 926,
      "nymph": 927,
      "Che": 928,
      "Iol": 929,
      "ere": 930,
      "hard": 931,
      "voy": 932,
      "held": 933,
      "ink": 934,
      "ated": 935,
      "across": 936,
      "lop": 937,
      "loved": 938,
      "fered": 939,
      "near": 940,
      "warri": 941,
      "hastened": 942,
      "grandfather": 943,
      "Iolcos": 944,
      "25": 945,
      "No": 946,
      "Pose": 947,
      "RE": 948,
      "Yet": 949,
      "ba": 950,
      "bra": 951,
      "drew": 952,
      "ged": 953,
      "jour": 954,
      "mus": 955,
      "ris": 956,
      "sor": 957,
      "zed": 958,
      "iness": 959,
      "ren": 960,
      "lead": 961,
      "beach": 962,
      "because": 963,
      "care": 964,
      "god": 965,
      "ended": 966,
      "longer": 967,
      "such": 968,
      "prize": 969,
      "Meleager": 970,
      "Cheiron": 971,
      "Poseidon": 972,
      "!’": 973,
      "As": 974,
      "Or": 975,
      "bade": 976,
      "cast": 977,
      "ev": 978,
      "gent": 979,
      "hur": 980,
      "joy": 981,
      "prom": 982,
      "race": 983,
      "sac": 984,
      "another": 985,
      "ord": 986,
      "fear": 987,
      "ney": 988,
      "spoke": 989,
      "wood": 990,
      "suf": 991,
      "chamber": 992,
      "silver": 993,
      "herald": 994,
      "journey": 995,
      "Pall": 996,
      "bre": 997,
      "ded": 998,
      "fru": 999,
      "mis": 1000,
      "rag": 1001,
      "sang": 1002,
      "vis": 1003,
      "west": 1004,
      "wind": 1005,
      "indeed": 1006,
      "err": 1007,
      "arose": 1008,
      "island": 1009,
      "lear": 1010,
      "aight": 1011,
      "ades": 1012,
      "char": 1013,
      "without": 1014,
      "Here": 1015,
      "Hellenes": 1016,
      "Pylos": 1017,
      "Pelion": 1018,
      "town": 1019,
      "looked": 1020,
      "quickly": 1021,
      "Tynd": 1022,
      "sorrow": 1023,
      "Al": 1024,
      "II": 1025,
      "don": 1026,
      "ered": 1027,
      "fle": 1028,
      "hu": 1029,
      "ive": 1030,
      "much": 1031,
      "wed": 1032,
      "toge": 1033,
      "chus": 1034,
      "safe": 1035,
      "areus": 1036,
      "peace": 1037,
      "others": 1038,
      "carry": 1039,
      "morning": 1040,
      "mountains": 1041,
      "waters": 1042,
      "temple": 1043,
      "speak": 1044,
      "dden": 1045,
      "close": 1046,
      "walls": 1047,
      "Tyndareus": 1048,
      "together": 1049,
      "14": 1050,
      "Pri": 1051,
      "aur": 1052,
      "cent": 1053,
      "get": 1054,
      "ming": 1055,
      "oth": 1056,
      "ph": 1057,
      "sing": 1058,
      "smo": 1059,
      "tu": 1060,
      "tar": 1061,
      "wand": 1062,
      "wine": 1063,
      "three": 1064,
      "road": 1065,
      "nothing": 1066,
      "lope": 1067,
      "lochus": 1068,
      "herds": 1069,
      "ames": 1070,
      "Helios": 1071,
      "same": 1072,
      "ways": 1073,
      "field": 1074,
      "straight": 1075,
      "taken": 1076,
      "ngth": 1077,
      "Artem": 1078,
      "help": 1079,
      "listen": 1080,
      "Iphitus": 1081,
      "shepherd": 1082,
      "bride": 1083,
      "babe": 1084,
      "Priam": 1085,
      "Artemis": 1086,
      "15": 1087,
      "blo": 1088,
      "bright": 1089,
      "cli": 1090,
      "dy": 1091,
      "glad": 1092,
      "ig": 1093,
      "ily": 1094,
      "ja": 1095,
      "ner": 1096,
      "omed": 1097,
      "show": 1098,
      "wra": 1099,
      "hear": 1100,
      "too": 1101,
      "ask": 1102,
      "aces": 1103,
      "rip": 1104,
      "dear": 1105,
      "ards": 1106,
      "comp": 1107,
      "spok": 1108,
      "mid": 1109,
      "prayed": 1110,
      "ches": 1111,
      "prince": 1112,
      "See": 1113,
      "flock": 1114,
      "Caly": 1115,
      "warriors": 1116,
      "spoken": 1117,
      "16": 1118,
      "AD": 1119,
      "Be": 1120,
      "One": 1121,
      "Po": 1122,
      "Pal": 1123,
      "With": 1124,
      "bene": 1125,
      "done": 1126,
      "gates": 1127,
      "itor": 1128,
      "ps": 1129,
      "phe": 1130,
      "pur": 1131,
      "sed": 1132,
      "ssa": 1133,
      "vo": 1134,
      "xt": 1135,
      "offered": 1136,
      "oud": 1137,
      "hal": 1138,
      "ries": 1139,
      "ween": 1140,
      "dead": 1141,
      "also": 1142,
      "grew": 1143,
      "sons": 1144,
      "seemed": 1145,
      "broad": 1146,
      "sailed": 1147,
      "sky": 1148,
      "skill": 1149,
      "comr": 1150,
      "strength": 1151,
      "distant": 1152,
      "amedes": 1153,
      "slew": 1154,
      "ENT": 1155,
      "music": 1156,
      "Calydon": 1157,
      "Cor": 1158,
      "Cent": 1159,
      "Pene": 1160,
      "TE": 1161,
      "You": 1162,
      "ared": 1163,
      "bed": 1164,
      "bus": 1165,
      "bid": 1166,
      "cad": 1167,
      "dwe": 1168,
      "hor": 1169,
      "hind": 1170,
      "hors": 1171,
      "ile": 1172,
      "ient": 1173,
      "slop": 1174,
      "hill": 1175,
      "ushed": 1176,
      "ster": 1177,
      "ite": 1178,
      "rible": 1179,
      "chang": 1180,
      "next": 1181,
      "iled": 1182,
      "tion": 1183,
      "anger": 1184,
      "selves": 1185,
      "quest": 1186,
      "Arcad": 1187,
      "price": 1188,
      "Some": 1189,
      "steeds": 1190,
      "mortals": 1191,
      "honor": 1192,
      "Eurytus": 1193,
      "wonderful": 1194,
      "beyond": 1195,
      "join": 1196,
      "Poly": 1197,
      "Palamedes": 1198,
      "Penelope": 1199,
      "dwelt": 1200,
      "horses": 1201,
      "10": 1202,
      "13": 1203,
      "18": 1204,
      "Aja": 1205,
      "Cre": 1206,
      "Del": 1207,
      "Ilios": 1208,
      "Now": 1209,
      "OF": 1210,
      "af": 1211,
      "best": 1212,
      "cher": 1213,
      "fl": 1214,
      "ns": 1215,
      "nest": 1216,
      "ped": 1217,
      "soft": 1218,
      "sword": 1219,
      "tall": 1220,
      "uces": 1221,
      "thon": 1222,
      "off": 1223,
      "meet": 1224,
      "host": 1225,
      "ached": 1226,
      "lia": 1227,
      "deeds": 1228,
      "deuces": 1229,
      "aged": 1230,
      "need": 1231,
      "neither": 1232,
      "got": 1233,
      "whose": 1234,
      "moment": 1235,
      "keep": 1236,
      "shrew": 1237,
      "taught": 1238,
      "maidens": 1239,
      "glor": 1240,
      "gifts": 1241,
      "ADV": 1242,
      "beneath": 1243,
      "Centaur": 1244,
      "Polydeuces": 1245,
      "Ajax": 1246,
      "shrewd": 1247,
      "Io": 1248,
      "Ida": 1249,
      "On": 1250,
      "To": 1251,
      "US": 1252,
      "URE": 1253,
      "What": 1254,
      "ger": 1255,
      "gro": 1256,
      "ground": 1257,
      "ius": 1258,
      "mess": 1259,
      "rul": 1260,
      "sl": 1261,
      "sist": 1262,
      "vin": 1263,
      "wal": 1264,
      "thia": 1265,
      "offer": 1266,
      "ering": 1267,
      "ats": 1268,
      "sei": 1269,
      "met": 1270,
      "board": 1271,
      "kingdom": 1272,
      "save": 1273,
      "thousand": 1274,
      "stru": 1275,
      "suitor": 1276,
      "shores": 1277,
      "guests": 1278,
      "cannot": 1279,
      "often": 1280,
      "arrows": 1281,
      "followed": 1282,
      "rocks": 1283,
      "fortun": 1284,
      "voyage": 1285,
      "ENTURE": 1286,
      "Delphi": 1287,
      "ADVENTURE": 1288,
      "23": 1289,
      "Atal": 1290,
      "Cas": 1291,
      "Let": 1292,
      "Phi": 1293,
      "Sc": 1294,
      "This": 1295,
      "hund": 1296,
      "ls": 1297,
      "sla": 1298,
      "ty": 1299,
      "wer": 1300,
      "wound": 1301,
      "hes": 1302,
      "anta": 1303,
      "inth": 1304,
      "ought": 1305,
      "metheus": 1306,
      "form": 1307,
      "lived": 1308,
      "cave": 1309,
      "etes": 1310,
      "whole": 1311,
      "play": 1312,
      "woods": 1313,
      "answer": 1314,
      "urely": 1315,
      "handsome": 1316,
      "between": 1317,
      "driven": 1318,
      "grief": 1319,
      "Prometheus": 1320,
      "evil": 1321,
      "Pallas": 1322,
      "fruit": 1323,
      "Atalanta": 1324,
      "Castor": 1325,
      "19": 1326,
      "ES": 1327,
      "Hy": 1328,
      "IN": 1329,
      "If": 1330,
      "NO": 1331,
      "She": 1332,
      "We": 1333,
      "bit": 1334,
      "bound": 1335,
      "bless": 1336,
      "dre": 1337,
      "dest": 1338,
      "fin": 1339,
      "gen": 1340,
      "hour": 1341,
      "nes": 1342,
      "pow": 1343,
      "path": 1344,
      "ran": 1345,
      "sc": 1346,
      "tis": 1347,
      "twin": 1348,
      "wn": 1349,
      "hidden": 1350,
      "orch": 1351,
      "used": 1352,
      "behind": 1353,
      "river": 1354,
      "rifi": 1355,
      "forward": 1356,
      "forgot": 1357,
      "lift": 1358,
      "living": 1359,
      "loct": 1360,
      "Thessa": 1361,
      "ago": 1362,
      "food": 1363,
      "green": 1364,
      "plan": 1365,
      "boar": 1366,
      "fare": 1367,
      "door": 1368,
      "qui": 1369,
      "sum": 1370,
      "ants": 1371,
      "ions": 1372,
      "pleased": 1373,
      "kindly": 1374,
      "wisdom": 1375,
      "children": 1376,
      "footed": 1377,
      "flowers": 1378,
      "waiting": 1379,
      "promised": 1380,
      "fields": 1381,
      "Corinth": 1382,
      "slopes": 1383,
      "Philoct": 1384,
      ".--": 1385,
      "17": 1386,
      "Jason": 1387,
      "bœ": 1388,
      "ban": 1389,
      "den": 1390,
      "ied": 1391,
      "pain": 1392,
      "pres": 1393,
      "phus": 1394,
      "tend": 1395,
      "why": 1396,
      "reached": 1397,
      "stri": 1398,
      "lives": 1399,
      "Thetis": 1400,
      "delight": 1401,
      "ained": 1402,
      "spear": 1403,
      "silochus": 1404,
      "woman": 1405,
      "stone": 1406,
      "terrible": 1407,
      "Hermes": 1408,
      "leng": 1409,
      "blue": 1410,
      "course": 1411,
      "fully": 1412,
      "welcome": 1413,
      "better": 1414,
      "birds": 1415,
      "wrong": 1416,
      "Trojans": 1417,
      "brave": 1418,
      "Orsilochus": 1419,
      "suffer": 1420,
      "errand": 1421,
      "wrath": 1422,
      "half": 1423,
      "Thessaly": 1424,
      "Philoctetes": 1425,
      "Ant": 1426,
      "Hes": 1427,
      "Oly": 1428,
      "Whi": 1429,
      "burn": 1430,
      "cond": 1431,
      "cattle": 1432,
      "dou": 1433,
      "fur": 1434,
      "fled": 1435,
      "igh": 1436,
      "lis": 1437,
      "min": 1438,
      "vic": 1439,
      "thed": 1440,
      "anx": 1441,
      "ough": 1442,
      "ase": 1443,
      "armor": 1444,
      "leap": 1445,
      "hope": 1446,
      "homes": 1447,
      "wear": 1448,
      "ira": 1449,
      "ows": 1450,
      "few": 1451,
      "cared": 1452,
      "moon": 1453,
      "greet": 1454,
      "sheep": 1455,
      "both": 1456,
      "work": 1457,
      "mpus": 1458,
      "hearts": 1459,
      "shalt": 1460,
      "harbor": 1461,
      "heaven": 1462,
      "beasts": 1463,
      "wooded": 1464,
      "tutor": 1465,
      "Arcadia": 1466,
      "vines": 1467,
      "seized": 1468,
      "hundred": 1469,
      "NOTE": 1470,
      "bœa": 1471,
      "Olympus": 1472,
      "20": 1473,
      ":--": 1474,
      "How": 1475,
      "Ly": 1476,
      "_P": 1477,
      "bb": 1478,
      "cur": 1479,
      "cry": 1480,
      "dro": 1481,
      "dra": 1482,
      "eira": 1483,
      "ff": 1484,
      "gar": 1485,
      "hun": 1486,
      "just": 1487,
      "mark": 1488,
      "narrow": 1489,
      "oars": 1490,
      "rr": 1491,
      "run": 1492,
      "send": 1493,
      "sound": 1494,
      "ts": 1495,
      "ume": 1496,
      "vall": 1497,
      "vol": 1498,
      "æan": 1499,
      "heal": 1500,
      "ths": 1501,
      "top": 1502,
      "asus": 1503,
      "archer": 1504,
      "aten": 1505,
      "hair": 1506,
      "having": 1507,
      "member": 1508,
      "being": 1509,
      "behold": 1510,
      "wept": 1511,
      "ail": 1512,
      "forget": 1513,
      "loo": 1514,
      "sooth": 1515,
      "whether": 1516,
      "spot": 1517,
      "fty": 1518,
      "bore": 1519,
      "seek": 1520,
      "age_": 1521,
      "morrow": 1522,
      "ianeira": 1523,
      "afterward": 1524,
      "coming": 1525,
      "exce": 1526,
      "ancient": 1527,
      "chiefs": 1528,
      "leave": 1529,
      "match": 1530,
      "heav": 1531,
      "Deianeira": 1532,
      "immortals": 1533,
      "flocks": 1534,
      "messen": 1535,
      "suitors": 1536,
      "length": 1537,
      "While": 1538,
      "anxious": 1539,
      "volume": 1540,
      "soothsay": 1541,
      "?’": 1542,
      "Cal": 1543,
      "Gree": 1544,
      "Ho": 1545,
      "His": 1546,
      "Not": 1547,
      "OR": 1548,
      "Oine": 1549,
      "Phera": 1550,
      "Te": 1551,
      "Tit": 1552,
      "Tele": 1553,
      "cra": 1554,
      "cru": 1555,
      "das": 1556,
      "free": 1557,
      "gg": 1558,
      "gs": 1559,
      "gone": 1560,
      "grow": 1561,
      "games": 1562,
      "ired": 1563,
      "iot": 1564,
      "mad": 1565,
      "pers": 1566,
      "pure": 1567,
      "pity": 1568,
      "ray": 1569,
      "shad": 1570,
      "stor": 1571,
      "trou": 1572,
      "twel": 1573,
      "ud": 1574,
      "vor": 1575,
      "ye": 1576,
      "year": 1577,
      "rent": 1578,
      "ones": 1579,
      "ern": 1580,
      "ating": 1581,
      "ature": 1582,
      "rod": 1583,
      "mean": 1584,
      "hood": 1585,
      "vered": 1586,
      "along": 1587,
      "cean": 1588,
      "coast": 1589,
      "comed": 1590,
      "tered": 1591,
      "themselves": 1592,
      "ult": 1593,
      "peer": 1594,
      "women": 1595,
      "stopped": 1596,
      "fairest": 1597,
      "apple": 1598,
      "treas": 1599,
      "Pyrr": 1600,
      "desc": 1601,
      "wish": 1602,
      "winds": 1603,
      "open": 1604,
      "ations": 1605,
      "coun": 1606,
      "couch": 1607,
      "south": 1608,
      "sought": 1609,
      "darkness": 1610,
      "Note": 1611,
      "sacrifi": 1612,
      "learned": 1613,
      "chariot": 1614,
      "fleet": 1615,
      "climb": 1616,
      "company": 1617,
      "changed": 1618,
      "dream": 1619,
      "_Page_": 1620,
      "Homer": 1621,
      "Oineus": 1622,
      "Pherae": 1623,
      "AN": 1624,
      "All": 1625,
      "By": 1626,
      "Lac": 1627,
      "Neleus": 1628,
      "able": 1629,
      "bar": 1630,
      "battle": 1631,
      "cen": 1632,
      "crow": 1633,
      "crew": 1634,
      "crag": 1635,
      "ethon": 1636,
      "fre": 1637,
      "iest": 1638,
      "ians": 1639,
      "lone": 1640,
      "ored": 1641,
      "pit": 1642,
      "rushed": 1643,
      "thered": 1644,
      "regi": 1645,
      "reach": 1646,
      "remember": 1647,
      "thr": 1648,
      "threw": 1649,
      "aside": 1650,
      "wit": 1651,
      "step": 1652,
      "ching": 1653,
      "loving": 1654,
      "dered": 1655,
      "depart": 1656,
      "already": 1657,
      "fellow": 1658,
      "kept": 1659,
      "spread": 1660,
      "outside": 1661,
      "pless": 1662,
      "greater": 1663,
      "fight": 1664,
      "ustr": 1665,
      "farther": 1666,
      "daughters": 1667,
      "die": 1668,
      "died": 1669,
      "stream": 1670,
      "trust": 1671,
      "stranger": 1672,
      "distress": 1673,
      "born": 1674,
      "princes": 1675,
      "Iphigen": 1676,
      "matter": 1677,
      "true": 1678,
      "sitting": 1679,
      "spring": 1680,
      "centre": 1681,
      "purple": 1682,
      "comrades": 1683,
      "glorious": 1684,
      "fortune": 1685,
      "lifted": 1686,
      "quiet": 1687,
      "doub": 1688,
      "matchless": 1689,
      "soothsayer": 1690,
      "Calchas": 1691,
      "After": 1692,
      "Aph": 1693,
      "Do": 1694,
      "Ill": 1695,
      "Pha": 1696,
      "Thou": 1697,
      "bay": 1698,
      "bors": 1699,
      "cor": 1700,
      "em": 1701,
      "eag": 1702,
      "fat": 1703,
      "fit": 1704,
      "gn": 1705,
      "gard": 1706,
      "ie": 1707,
      "ild": 1708,
      "lk": 1709,
      "lest": 1710,
      "ome": 1711,
      "pha": 1712,
      "pent": 1713,
      "sen": 1714,
      "try": 1715,
      "va": 1716,
      "val": 1717,
      "wing": 1718,
      "Œcha": 1719,
      "thea": 1720,
      "anion": 1721,
      "returned": 1722,
      "throw": 1723,
      "thick": 1724,
      "ery": 1725,
      "arp": 1726,
      "mead": 1727,
      "became": 1728,
      "nobl": 1729,
      "aim": 1730,
      "lyre": 1731,
      "alth": 1732,
      "although": 1733,
      "sore": 1734,
      "asted": 1735,
      "cap": 1736,
      "tears": 1737,
      "folk": 1738,
      "Odyssey": 1739,
      "favor": 1740,
      "willing": 1741,
      "woo": 1742,
      "tering": 1743,
      "evening": 1744,
      "monster": 1745,
      "news": 1746,
      "clou": 1747,
      "build": 1748,
      "north": 1749,
      "silent": 1750,
      "harp": 1751,
      "Mycen": 1752,
      "helpless": 1753,
      "lovely": 1754,
      "dwelling": 1755,
      "chase": 1756,
      "Sea": 1757,
      "anced": 1758,
      "pastures": 1759,
      "Phthia": 1760,
      "sprang": 1761,
      "Eubœa": 1762,
      "songs": 1763,
      "Trojan": 1764,
      "gentle": 1765,
      "sacred": 1766,
      "visit": 1767,
      "blood": 1768,
      "pheus": 1769,
      "Crete": 1770,
      "Iole": 1771,
      "sister": 1772,
      "bitter": 1773,
      "orchards": 1774,
      "messenger": 1775,
      "persu": 1776,
      "Iphigenia": 1777,
      "Aphrod": 1778,
      "Illustr": 1779,
      "Phaethon": 1780,
      "Œchalia": 1781,
      "Mycenæ": 1782,
      ".]": 1783,
      "Aul": 1784,
      "Cly": 1785,
      "Col": 1786,
      "Li": 1787,
      "Ocean": 1788,
      "Who": 1789,
      "bree": 1790,
      "chis": 1791,
      "emb": 1792,
      "either": 1793,
      "fam": 1794,
      "four": 1795,
      "gir": 1796,
      "lam": 1797,
      "loft": 1798,
      "pun": 1799,
      "prou": 1800,
      "sin": 1801,
      "snow": 1802,
      "tree": 1803,
      "vice": 1804,
      "whis": 1805,
      "heark": 1806,
      "onia": 1807,
      "second": 1808,
      "haired": 1809,
      "roy": 1810,
      "robb": 1811,
      "meal": 1812,
      "stay": 1813,
      "ailed": 1814,
      "lips": 1815,
      "deal": 1816,
      "always": 1817,
      "caver": 1818,
      "capt": 1819,
      "covered": 1820,
      "iling": 1821,
      "places": 1822,
      "worthy": 1823,
      "arer": 1824,
      "sharp": 1825,
      "peak": 1826,
      "cked": 1827,
      "taking": 1828,
      "table": 1829,
      "labor": 1830,
      "eping": 1831,
      "carn": 1832,
      "grass": 1833,
      "shoulders": 1834,
      "warm": 1835,
      "haste": 1836,
      "making": 1837,
      "elders": 1838,
      "towers": 1839,
      "pius": 1840,
      "listened": 1841,
      "huntress": 1842,
      "serve": 1843,
      "drive": 1844,
      "bringing": 1845,
      "clepius": 1846,
      "Asclepius": 1847,
      "order": 1848,
      "learn": 1849,
      "showed": 1850,
      "hills": 1851,
      "questions": 1852,
      "Scy": 1853,
      "powers": 1854,
      "leaped": 1855,
      "drove": 1856,
      "looking": 1857,
      "cruel": 1858,
      "troub": 1859,
      "twelve": 1860,
      "Aphrodite": 1861,
      "Illustration": 1862,
      "Aulis": 1863,
      "lofty": 1864,
      "proud": 1865,
      "captain": 1866,
      "Are": 1867,
      "Acast": 1868,
      "Di": 1869,
      "ER": 1870,
      "Enone": 1871,
      "Fates": 1872,
      "Idas": 1873,
      "Long": 1874,
      "Nor": 1875,
      "ON": 1876,
      "OEnone": 1877,
      "SE": 1878,
      "Surely": 1879,
      "Tir": 1880,
      "aven": 1881,
      "brow": 1882,
      "bla": 1883,
      "blow": 1884,
      "cys": 1885,
      "east": 1886,
      "gain": 1887,
      "gra": 1888,
      "glen": 1889,
      "hing": 1890,
      "ire": 1891,
      "ier": 1892,
      "ise": 1893,
      "nur": 1894,
      "nine": 1895,
      "oak": 1896,
      "pa": 1897,
      "pli": 1898,
      "port": 1899,
      "ron": 1900,
      "scar": 1901,
      "slow": 1902,
      "ters": 1903,
      "ured": 1904,
      "vent": 1905,
      "vest": 1906,
      "yns": 1907,
      "zing": 1908,
      "Æto": 1909,
      "remem": 1910,
      "thre": 1911,
      "outh": 1912,
      "eding": 1913,
      "asks": 1914,
      "orac": 1915,
      "orcys": 1916,
      "seam": 1917,
      "secre": 1918,
      "bered": 1919,
      "stir": 1920,
      "weap": 1921,
      "wealth": 1922,
      "lies": 1923,
      "unknown": 1924,
      "godd": 1925,
      "ets": 1926,
      "cold": 1927,
      "team": 1928,
      "iless": 1929,
      "spark": 1930,
      "bold": 1931,
      "boys": 1932,
      "does": 1933,
      "short": 1934,
      "ledge": 1935,
      "sight": 1936,
      "stolen": 1937,
      "poin": 1938,
      "seeing": 1939,
      "gathered": 1940,
      "turning": 1941,
      "sometimes": 1942,
      "achus": 1943,
      "shoot": 1944,
      "lady": 1945,
      "guard": 1946,
      "prayer": 1947,
      "ertain": 1948,
      "bowed": 1949,
      "sailing": 1950,
      "beside": 1951,
      "begin": 1952,
      "choose": 1953,
      "choice": 1954,
      "Myr": 1955,
      "understand": 1956,
      "court": 1957,
      "ressed": 1958,
      "plains": 1959,
      "stands": 1960,
      "vessels": 1961,
      "brothers": 1962,
      "birth": 1963,
      "Phorcys": 1964,
      "Deu": 1965,
      "bearing": 1966,
      "trial": 1967,
      "nymphs": 1968,
      "breath": 1969,
      "western": 1970,
      "Behold": 1971,
      "horse": 1972,
      "slain": 1973,
      "finished": 1974,
      "forgotten": 1975,
      "summer": 1976,
      "present": 1977,
      "minstre": 1978,
      "Tell": 1979,
      "Titan": 1980,
      "counsel": 1981,
      "sacrifice": 1982,
      "Laconia": 1983,
      "garden": 1984,
      "clouds": 1985,
      "Colchis": 1986,
      "Acastus": 1987,
      "Tiryns": 1988,
      "remembered": 1989,
      "oracle": 1990,
      "goddess": 1991,
      "Amp": 1992,
      "Acarn": 1993,
      "Cy": 1994,
      "Even": 1995,
      "Hades": 1996,
      "IS": 1997,
      "Is": 1998,
      "Icar": 1999,
      "Iasus": 2000,
      "LD": 2001,
      "Lap": 2002,
      "Tel": 2003,
      "Why": 2004,
      "XI": 2005,
      "bs": 2006,
      "bur": 2007,
      "cal": 2008,
      "cons": 2009,
      "cious": 2010,
      "dr": 2011,
      "fing": 2012,
      "fla": 2013,
      "je": 2014,
      "jud": 2015,
      "liness": 2016,
      "nu": 2017,
      "ox": 2018,
      "obey": 2019,
      "pup": 2020,
      "prow": 2021,
      "raid": 2022,
      "sur": 2023,
      "vain": 2024,
      "vine": 2025,
      "zes": 2026,
      "reason": 2027,
      "think": 2028,
      "hither": 2029,
      "oned": 2030,
      "arm": 2031,
      "seat": 2032,
      "rose": 2033,
      "acher": 2034,
      "lying": 2035,
      "force": 2036,
      "lie": 2037,
      "lias": 2038,
      "These": 2039,
      "aloud": 2040,
      "cei": 2041,
      "amon": 2042,
      "calion": 2043,
      "comes": 2044,
      "moved": 2045,
      "manner": 2046,
      "sped": 2047,
      "body": 2048,
      "pect": 2049,
      "sides": 2050,
      "ided": 2051,
      "lau": 2052,
      "law": 2053,
      "Arg": 2054,
      "hasten": 2055,
      "ments": 2056,
      "merch": 2057,
      "temnest": 2058,
      "strangers": 2059,
      "sails": 2060,
      "besought": 2061,
      "Pelias": 2062,
      "swiftly": 2063,
      "welcomed": 2064,
      "letter": 2065,
      "sandy": 2066,
      "cont": 2067,
      "serv": 2068,
      "small": 2069,
      "smiled": 2070,
      "leaves": 2071,
      "truth": 2072,
      "vision": 2073,
      "wedding": 2074,
      "wedded": 2075,
      "safely": 2076,
      "smote": 2077,
      "wander": 2078,
      "omede": 2079,
      "midons": 2080,
      "voice": 2081,
      "struck": 2082,
      "Hyper": 2083,
      "blessed": 2084,
      "hours": 2085,
      "hung": 2086,
      "valley": 2087,
      "heavy": 2088,
      "crags": 2089,
      "doubt": 2090,
      "capti": 2091,
      "Clytemnest": 2092,
      "Diomede": 2093,
      "Myrmidons": 2094,
      "Deucalion": 2095,
      "minstrel": 2096,
      "Icarius": 2097,
      "Lapith": 2098,
      "Telamon": 2099,
      "pupil": 2100,
      "Clytemnestra": 2101,
      "27": 2102,
      "Clo": 2103,
      "Cris": 2104,
      "Come": 2105,
      "Fa": 2106,
      "Gold": 2107,
      "Ili": 2108,
      "ME": 2109,
      "RO": 2110,
      "Thus": 2111,
      "Up": 2112,
      "VII": 2113,
      "aking": 2114,
      "blos": 2115,
      "cer": 2116,
      "cous": 2117,
      "clad": 2118,
      "certain": 2119,
      "dut": 2120,
      "dust": 2121,
      "eas": 2122,
      "easter": 2123,
      "fed": 2124,
      "fain": 2125,
      "gate": 2126,
      "kis": 2127,
      "kne": 2128,
      "lu": 2129,
      "lar": 2130,
      "lat": 2131,
      "lus": 2132,
      "late": 2133,
      "mur": 2134,
      "nat": 2135,
      "ore": 2136,
      "ring": 2137,
      "swine": 2138,
      "tasks": 2139,
      "wrought": 2140,
      "Œnone": 2141,
      "rel": 2142,
      "thir": 2143,
      "thine": 2144,
      "thunder": 2145,
      "hide": 2146,
      "enough": 2147,
      "ary": 2148,
      "uses": 2149,
      "robe": 2150,
      "isy": 2151,
      "islands": 2152,
      "melo": 2153,
      "leop": 2154,
      "howe": 2155,
      "stro": 2156,
      "rid": 2157,
      "ads": 2158,
      "aded": 2159,
      "deer": 2160,
      "owed": 2161,
      "felt": 2162,
      "feel": 2163,
      "neigh": 2164,
      "cover": 2165,
      "myself": 2166,
      "shel": 2167,
      "bolt": 2168,
      "saved": 2169,
      "doom": 2170,
      "arest": 2171,
      "pered": 2172,
      "sia": 2173,
      "ides": 2174,
      "seeking": 2175,
      "lessly": 2176,
      "ously": 2177,
      "knowledge": 2178,
      "gray": 2179,
      "grain": 2180,
      "eye": 2181,
      "broken": 2182,
      "brand": 2183,
      "guest": 2184,
      "merry": 2185,
      "dire": 2186,
      "comfort": 2187,
      "silence": 2188,
      "wished": 2189,
      "happened": 2190,
      "courage": 2191,
      "expect": 2192,
      "following": 2193,
      "hunts": 2194,
      "sleep": 2195,
      "pasture": 2196,
      "truly": 2197,
      "shepherds": 2198,
      "waited": 2199,
      "marble": 2200,
      "prev": 2201,
      "Argos": 2202,
      "Argolis": 2203,
      "godlike": 2204,
      "Althea": 2205,
      "Alpheus": 2206,
      "flee": 2207,
      "comrade": 2208,
      "busy": 2209,
      "Centaurs": 2210,
      "walked": 2211,
      "strugg": 2212,
      "played": 2213,
      "ING": 2214,
      "destroy": 2215,
      "pathway": 2216,
      "farewell": 2217,
      "crafty": 2218,
      "freed": 2219,
      "pitiless": 2220,
      "throne": 2221,
      "meadows": 2222,
      "noblest": 2223,
      "Lichas": 2224,
      "famous": 2225,
      "lament": 2226,
      "whispered": 2227,
      "robbers": 2228,
      "cavern": 2229,
      "nurse": 2230,
      "seamen": 2231,
      "Acarnan": 2232,
      "Lapiths": 2233,
      "Crissa": 2234,
      "blosso": 2235,
      "cerning": 2236,
      "eastern": 2237,
      "however": 2238,
      ".[": 2239,
      "24": 2240,
      "26": 2241,
      "Asia": 2242,
      "Ear": 2243,
      "Mil": 2244,
      "Pho": 2245,
      "Sisy": 2246,
      "Tr": 2247,
      "Yes": 2248,
      "ait": 2249,
      "ced": 2250,
      "cut": 2251,
      "dare": 2252,
      "dread": 2253,
      "fal": 2254,
      "fate": 2255,
      "gli": 2256,
      "ione": 2257,
      "kin": 2258,
      "kill": 2259,
      "mn": 2260,
      "mong": 2261,
      "mine": 2262,
      "mak": 2263,
      "mouth": 2264,
      "nce": 2265,
      "named": 2266,
      "oath": 2267,
      "ping": 2268,
      "pay": 2269,
      "sw": 2270,
      "sco": 2271,
      "sure": 2272,
      "surely": 2273,
      "tes": 2274,
      "tun": 2275,
      "uri": 2276,
      "yards": 2277,
      "Æg": 2278,
      "height": 2279,
      "ining": 2280,
      "reig": 2281,
      "thian": 2282,
      "thither": 2283,
      "aring": 2284,
      "armed": 2285,
      "seas": 2286,
      "sear": 2287,
      "roof": 2288,
      "robes": 2289,
      "wide": 2290,
      "beam": 2291,
      "below": 2292,
      "vell": 2293,
      "lian": 2294,
      "limb": 2295,
      "altar": 2296,
      "ally": 2297,
      "som": 2298,
      "needs": 2299,
      "goods": 2300,
      "iles": 2301,
      "ystheus": 2302,
      "spir": 2303,
      "spent": 2304,
      "ulf": 2305,
      "sake": 2306,
      "shout": 2307,
      "ending": 2308,
      "landed": 2309,
      "quet": 2310,
      "laun": 2311,
      "pol": 2312,
      "otherwise": 2313,
      "thanks": 2314,
      "shook": 2315,
      "talk": 2316,
      "laden": 2317,
      "priest": 2318,
      "hence": 2319,
      "merri": 2320,
      "clus": 2321,
      "cloud": 2322,
      "train": 2323,
      "desp": 2324,
      "speed": 2325,
      "speaking": 2326,
      "pile": 2327,
      "chest": 2328,
      "stead": 2329,
      "steep": 2330,
      "Eurystheus": 2331,
      "concerning": 2332,
      "honored": 2333,
      "serpent": 2334,
      "precious": 2335,
      "household": 2336,
      "gently": 2337,
      "hum": 2338,
      "huge": 2339,
      "smooth": 2340,
      "straightway": 2341,
      "vored": 2342,
      "deadly": 2343,
      "bidden": 2344,
      "afraid": 2345,
      "slave": 2346,
      "banquet": 2347,
      "Hesper": 2348,
      "Hesione": 2349,
      "victory": 2350,
      "madness": 2351,
      "shadow": 2352,
      "storm": 2353,
      "yellow": 2354,
      "treasure": 2355,
      "Pyrrha": 2356,
      "crowned": 2357,
      "eagles": 2358,
      "winged": 2359,
      "since": 2360,
      "hearken": 2361,
      "troubled": 2362,
      "plied": 2363,
      "secret": 2364,
      "stirred": 2365,
      "Amphi": 2366,
      "fingers": 2367,
      "ceived": 2368,
      "Father": 2369,
      "Golden": 2370,
      "Iliad": 2371,
      "Milanion": 2372,
      "Sisyphus": 2373,
      "AR": 2374,
      "Cleop": 2375,
      "DY": 2376,
      "Da": 2377,
      "Elis": 2378,
      "From": 2379,
      "Go": 2380,
      "Gulf": 2381,
      "Lo": 2382,
      "Mys": 2383,
      "Many": 2384,
      "ST": 2385,
      "Sy": 2386,
      "Story": 2387,
      "Sie": 2388,
      "Th": 2389,
      "Would": 2390,
      "award": 2391,
      "cam": 2392,
      "cess": 2393,
      "ctor": 2394,
      "cleft": 2395,
      "ction": 2396,
      "dif": 2397,
      "danger": 2398,
      "dressed": 2399,
      "eed": 2400,
      "eks": 2401,
      "eager": 2402,
      "fut": 2403,
      "faces": 2404,
      "gall": 2405,
      "glow": 2406,
      "hound": 2407,
      "ilochus": 2408,
      "ler": 2409,
      "machus": 2410,
      "pes": 2411,
      "smi": 2412,
      "slight": 2413,
      "slay": 2414,
      "ture": 2415,
      "tue": 2416,
      "vage": 2417,
      "xed": 2418,
      "inno": 2419,
      "inner": 2420,
      "toil": 2421,
      "tones": 2422,
      "hid": 2423,
      "oured": 2424,
      "enic": 2425,
      "erce": 2426,
      "ashed": 2427,
      "atra": 2428,
      "atures": 2429,
      "org": 2430,
      "seated": 2431,
      "ros": 2432,
      "leia": 2433,
      "become": 2434,
      "hot": 2435,
      "sts": 2436,
      "start": 2437,
      "ghing": 2438,
      "ited": 2439,
      "act": 2440,
      "rict": 2441,
      "weak": 2442,
      "adion": 2443,
      "added": 2444,
      "lib": 2445,
      "lot": 2446,
      "lost": 2447,
      "loos": 2448,
      "irtue": 2449,
      "dev": 2450,
      "dell": 2451,
      "delay": 2452,
      "als": 2453,
      "enter": 2454,
      "sold": 2455,
      "aming": 2456,
      "agers": 2457,
      "fee": 2458,
      "fet": 2459,
      "caught": 2460,
      "caused": 2461,
      "Hepha": 2462,
      "Hector": 2463,
      "estus": 2464,
      "temp": 2465,
      "teacher": 2466,
      "placed": 2467,
      "favored": 2468,
      "tired": 2469,
      "doing": 2470,
      "dogs": 2471,
      "fierce": 2472,
      "older": 2473,
      "sim": 2474,
      "sion": 2475,
      "strait": 2476,
      "raised": 2477,
      "store": 2478,
      "stories": 2479,
      "giving": 2480,
      "fail": 2481,
      "failed": 2482,
      "forever": 2483,
      "mbers": 2484,
      "gather": 2485,
      "knowing": 2486,
      "gems": 2487,
      "icest": 2488,
      "icleia": 2489,
      "eyed": 2490,
      "fright": 2491,
      "talked": 2492,
      "month": 2493,
      "pride": 2494,
      "skil": 2495,
      "skins": 2496,
      "guide": 2497,
      "guile": 2498,
      "rested": 2499,
      "telling": 2500,
      "prayers": 2501,
      "clu": 2502,
      "stret": 2503,
      "elded": 2504,
      "saying": 2505,
      "blind": 2506,
      "distance": 2507,
      "district": 2508,
      "passing": 2509,
      "shade": 2510,
      "Pelop": 2511,
      "Soon": 2512,
      "chosen": 2513,
      "choicest": 2514,
      "pier": 2515,
      "grandson": 2516,
      "parts": 2517,
      "clothed": 2518,
      "opened": 2519,
      "creature": 2520,
      "prophe": 2521,
      "smiling": 2522,
      "leaving": 2523,
      "Eurytion": 2524,
      "griev": 2525,
      "wondered": 2526,
      "marri": 2527,
      "Eurip": 2528,
      "hardly": 2529,
      "voyagers": 2530,
      "hurried": 2531,
      "fearful": 2532,
      "Palladion": 2533,
      "break": 2534,
      "fruits": 2535,
      "151": 2536,
      "midst": 2537,
      "princely": 2538,
      "skilled": 2539,
      "bidding": 2540,
      "glory": 2541,
      "ruler": 2542,
      "sisters": 2543,
      "slaught": 2544,
      "suffering": 2545,
      "Antilochus": 2546,
      "Anticleia": 2547,
      "burned": 2548,
      "burning": 2549,
      "further": 2550,
      "greeted": 2551,
      "oarsmen": 2552,
      "Telemachus": 2553,
      "peerless": 2554,
      "climbed": 2555,
      "AND": 2556,
      "regions": 2557,
      "fellows": 2558,
      "thrown": 2559,
      "punish": 2560,
      "slowly": 2561,
      "Ætolia": 2562,
      "weapons": 2563,
      "beginning": 2564,
      "vineyards": 2565,
      "captive": 2566,
      "kissed": 2567,
      "third": 2568,
      "struggle": 2569,
      "freedom": 2570,
      "Earth": 2571,
      "killed": 2572,
      "score": 2573,
      "spirit": 2574,
      "polished": 2575,
      "despair": 2576,
      "Cleopatra": 2577,
      "future": 2578,
      "Hephaestus": 2579,
      "Euripus": 2580,
      "12": 2581,
      "AT": 2582,
      "Acha": 2583,
      "Bo": 2584,
      "Cron": 2585,
      "Ep": 2586,
      "Every": 2587,
      "GE": 2588,
      "Give": 2589,
      "Ha": 2590,
      "Ido": 2591,
      "LL": 2592,
      "Lem": 2593,
      "Min": 2594,
      "Muses": 2595,
      "Ner": 2596,
      "Never": 2597,
      "Nire": 2598,
      "Old": 2599,
      "Orest": 2600,
      "Oile": 2601,
      "ODY": 2602,
      "Pat": 2603,
      "SSE": 2604,
      "Two": 2605,
      "WOR": 2606,
      "ake": 2607,
      "bones": 2608,
      "cri": 2609,
      "cir": 2610,
      "cun": 2611,
      "cross": 2612,
      "drag": 2613,
      "ech": 2614,
      "eys": 2615,
      "fast": 2616,
      "fried": 2617,
      "faced": 2618,
      "famed": 2619,
      "ging": 2620,
      "gged": 2621,
      "gfried": 2622,
      "kins": 2623,
      "lin": 2624,
      "lack": 2625,
      "lord": 2626,
      "mæ": 2627,
      "mit": 2628,
      "main": 2629,
      "olive": 2630,
      "pour": 2631,
      "pine": 2632,
      "shi": 2633,
      "sup": 2634,
      "twi": 2635,
      "umber": 2636,
      "uched": 2637,
      "wre": 2638,
      "wak": 2639,
      "yi": 2640,
      "heat": 2641,
      "aning": 2642,
      "intent": 2643,
      "rer": 2644,
      "reve": 2645,
      "rejo": 2646,
      "tho": 2647,
      "token": 2648,
      "touched": 2649,
      "hig": 2650,
      "hiding": 2651,
      "onward": 2652,
      "onnes": 2653,
      "eral": 2654,
      "asp": 2655,
      "lly": 2656,
      "llus": 2657,
      "att": 2658,
      "seven": 2659,
      "semb": 2660,
      "means": 2661,
      "wicked": 2662,
      "bew": 2663,
      "beard": 2664,
      "stal": 2665,
      "staid": 2666,
      "stab": 2667,
      "itus": 2668,
      "itten": 2669,
      "ities": 2670,
      "achis": 2671,
      "weeping": 2672,
      "nos": 2673,
      "aimed": 2674,
      "veil": 2675,
      "chance": 2676,
      "lock": 2677,
      "utter": 2678,
      "utmost": 2679,
      "dec": 2680,
      "deft": 2681,
      "entered": 2682,
      "untime": 2683,
      "unhappy": 2684,
      "sole": 2685,
      "ages": 2686,
      "foes": 2687,
      "meneus": 2688,
      "ples": 2689,
      "plent": 2690,
      "plough": 2691,
      "bosom": 2692,
      "venge": 2693,
      "worth": 2694,
      "savage": 2695,
      "dol": 2696,
      "doomed": 2697,
      "early": 2698,
      "arter": 2699,
      "angry": 2700,
      "rowers": 2701,
      "fig": 2702,
      "fill": 2703,
      "simp": 2704,
      "sign": 2705,
      "woven": 2706,
      "tale": 2707,
      "rather": 2708,
      "posed": 2709,
      "enemy": 2710,
      "blet": 2711,
      "gaze": 2712,
      "gazed": 2713,
      "mightiest": 2714,
      "ruin": 2715,
      "dared": 2716,
      "dawn": 2717,
      "lower": 2718,
      "pping": 2719,
      "\"’\"": 2720,
      "talking": 2721,
      ",--\"": 2722,
      "lads": 2723,
      "priests": 2724,
      "hearted": 2725,
      "skies": 2726,
      "watch": 2727,
      "perchance": 2728,
      "dies": 2729,
      "kindness": 2730,
      "black": 2731,
      "Pythia": 2732,
      "share": 2733,
      "bestow": 2734,
      "thoughts": 2735,
      "pie": 2736,
      "goodly": 2737,
      "rocky": 2738,
      "content": 2739,
      "floor": 2740,
      "prove": 2741,
      "flowing": 2742,
      "friendship": 2743,
      "bird": 2744,
      "wont": 2745,
      "countrymen": 2746,
      "tents": 2747,
      "Eumæ": 2748,
      "triu": 2749,
      "erer": 2750,
      "bravest": 2751,
      "hurled": 2752,
      "promise": 2753,
      "suffered": 2754,
      "heralds": 2755,
      "safety": 2756,
      "carrying": 2757,
      "single": 2758,
      "tarried": 2759,
      "listening": 2760,
      "wrapped": 2761,
      "hearth": 2762,
      "business": 2763,
      "question": 2764,
      "joined": 2765,
      "Cret": 2766,
      "ruled": 2767,
      "slumber": 2768,
      "walk": 2769,
      "offering": 2770,
      "Hyllus": 2771,
      "power": 2772,
      "scene": 2773,
      "planned": 2774,
      "presence": 2775,
      "weary": 2776,
      "Lynce": 2777,
      "market": 2778,
      "Greek": 2779,
      "Pyrrhus": 2780,
      "lonely": 2781,
      "loneliness": 2782,
      "region": 2783,
      "trusted": 2784,
      "sorely": 2785,
      "breeze": 2786,
      "blazing": 2787,
      "sparkling": 2788,
      "boldly": 2789,
      "oxen": 2790,
      "laughing": 2791,
      "merchants": 2792,
      "cousin": 2793,
      "easy": 2794,
      "large": 2795,
      "bolts": 2796,
      "Trachis": 2797,
      "false": 2798,
      "kinship": 2799,
      "makes": 2800,
      "heights": 2801,
      "search": 2802,
      "Mysia": 2803,
      "Siegfried": 2804,
      "camp": 2805,
      "hounds": 2806,
      "gathering": 2807,
      "Peloponnes": 2808,
      "marriage": 2809,
      "Idomeneus": 2810,
      "Lemnos": 2811,
      "Neritus": 2812,
      "Nireus": 2813,
      "Orestes": 2814,
      "Oileus": 2815,
      "ODYSSE": 2816,
      "cunning": 2817,
      "stables": 2818,
      "untimely": 2819,
      "Eumæus": 2820,
      "Lynceus": 2821,
      "Peloponnesus": 2822,
      "ODYSSEUS": 2823,
      "125": 2824,
      "66": 2825,
      "87": 2826,
      "90": 2827,
      "Ad": 2828,
      "Among": 2829,
      "Bœ": 2830,
      "Cep": 2831,
      "DE": 2832,
      "Led": 2833,
      "Me": 2834,
      "MES": 2835,
      "Oh": 2836,
      "Per": 2837,
      "Sin": 2838,
      "Sal": 2839,
      "Sun": 2840,
      "Shall": 2841,
      "Send": 2842,
      "Str": 2843,
      "TO": 2844,
      "_The": 2845,
      "aus": 2846,
      "alike": 2847,
      "ber": 2848,
      "bind": 2849,
      "bits": 2850,
      "cles": 2851,
      "clos": 2852,
      "cries": 2853,
      "casus": 2854,
      "dart": 2855,
      "equ": 2856,
      "ems": 2857,
      "eaten": 2858,
      "fro": 2859,
      "fis": 2860,
      "fra": 2861,
      "fles": 2862,
      "fountain": 2863,
      "gle": 2864,
      "glit": 2865,
      "gained": 2866,
      "iz": 2867,
      "ial": 2868,
      "imp": 2869,
      "kes": 2870,
      "mand": 2871,
      "mast": 2872,
      "mour": 2873,
      "ni": 2874,
      "oti": 2875,
      "pu": 2876,
      "par": 2877,
      "pic": 2878,
      "poured": 2879,
      "rs": 2880,
      "ror": 2881,
      "rain": 2882,
      "rang": 2883,
      "rance": 2884,
      "sy": 2885,
      "sage": 2886,
      "scour": 2887,
      "tw": 2888,
      "test": 2889,
      "tended": 2890,
      "ued": 2891,
      "ucasus": 2892,
      "vap": 2893,
      "wart": 2894,
      "wings": 2895,
      "hest": 2896,
      "ane": 2897,
      "ank": 2898,
      "iny": 2899,
      "inking": 2900,
      "reat": 2901,
      "tong": 2902,
      "tops": 2903,
      "onaut": 2904,
      "ening": 2905,
      "enjoy": 2906,
      "esca": 2907,
      "ash": 2908,
      "assu": 2909,
      "ashing": 2910,
      "ushing": 2911,
      "roclus": 2912,
      "ison": 2913,
      "mere": 2914,
      "memor": 2915,
      "leaning": 2916,
      "wield": 2917,
      "bere": 2918,
      "beat": 2919,
      "belong": 2920,
      "belie": 2921,
      "hos": 2922,
      "account": 2923,
      "ride": 2924,
      "adv": 2925,
      "formed": 2926,
      "withdrew": 2927,
      "lover": 2928,
      "Their": 2929,
      "dep": 2930,
      "allied": 2931,
      "herself": 2932,
      "unto": 2933,
      "amis": 2934,
      "ferent": 2935,
      "nearer": 2936,
      "goal": 2937,
      "moored": 2938,
      "mankind": 2939,
      "teach": 2940,
      "pled": 2941,
      "ourselves": 2942,
      "mies": 2943,
      "tire": 2944,
      "torrent": 2945,
      ".\"[": 2946,
      "ulted": 2947,
      "earnest": 2948,
      "ares": 2949,
      "shone": 2950,
      "shining": 2951,
      "whence": 2952,
      "thous": 2953,
      "angers": 2954,
      "fifty": 2955,
      "sig": 2956,
      "six": 2957,
      "sick": 2958,
      "woe": 2959,
      "taff": 2960,
      "labors": 2961,
      "pose": 2962,
      "poems": 2963,
      "seem": 2964,
      "forests": 2965,
      "yourself": 2966,
      "sub": 2967,
      "suit": 2968,
      "rude": 2969,
      "knows": 2970,
      "apples": 2971,
      "aphos": 2972,
      "grace": 2973,
      "thank": 2974,
      "shot": 2975,
      "monst": 2976,
      "prise": 2977,
      "skin": 2978,
      "bran": 2979,
      "guided": 2980,
      "sunlight": 2981,
      "sunny": 2982,
      "else": 2983,
      "ulled": 2984,
      "perish": 2985,
      "please": 2986,
      "tusks": 2987,
      "kindred": 2988,
      "Pythian": 2989,
      "HER": 2990,
      "desert": 2991,
      "speech": 2992,
      "thusa": 2993,
      "beset": 2994,
      "chose": 2995,
      "deathless": 2996,
      "naught": 2997,
      "lets": 2998,
      "friendly": 2999,
      "abode": 3000,
      "lastly": 3001,
      "standing": 3002,
      "crevice": 3003,
      "couches": 3004,
      "flows": 3005,
      "Eurycle": 3006,
      "clear": 3007,
      "written": 3008,
      "Caucasus": 3009,
      "feasted": 3010,
      "Protes": 3011,
      "distaff": 3012,
      "fallen": 3013,
      "image": 3014,
      "warrior": 3015,
      "252": 3016,
      "erring": 3017,
      "phin": 3018,
      "singing": 3019,
      "wandered": 3020,
      "cliff": 3021,
      "dying": 3022,
      "Arcadian": 3023,
      "flames": 3024,
      "flashed": 3025,
      "groves": 3026,
      "fortunes": 3027,
      "farers": 3028,
      "Corinthian": 3029,
      "tender": 3030,
      "strike": 3031,
      "208": 3032,
      "garments": 3033,
      "running": 3034,
      "valleys": 3035,
      "archery": 3036,
      "excel": 3037,
      "excelled": 3038,
      "Telephus": 3039,
      "treasures": 3040,
      "corn": 3041,
      "fatal": 3042,
      "fitting": 3043,
      "willingly": 3044,
      "silently": 3045,
      "persuas": 3046,
      "breezes": 3047,
      "girl": 3048,
      "dealt": 3049,
      "Scyros": 3050,
      "Arethusa": 3051,
      "pointed": 3052,
      "shooting": 3053,
      "drink": 3054,
      "flame": 3055,
      "judge": 3056,
      "Argonaut": 3057,
      "servants": 3058,
      "Hyperbore": 3059,
      "doubtless": 3060,
      "Upon": 3061,
      "swineherd": 3062,
      "related": 3063,
      "melody": 3064,
      "neighbors": 3065,
      "huntsmen": 3066,
      "prevail": 3067,
      "Phoenic": 3068,
      "Ægæan": 3069,
      "reigned": 3070,
      "launched": 3071,
      "humble": 3072,
      "Hesperides": 3073,
      "different": 3074,
      "loosed": 3075,
      "dells": 3076,
      "simple": 3077,
      "skilful": 3078,
      "grievous": 3079,
      "Patroclus": 3080,
      "vengeance": 3081,
      "Bœoti": 3082,
      "Leda": 3083,
      "Salamis": 3084,
      "closed": 3085,
      "flesh": 3086,
      "glittering": 3087,
      "vapor": 3088,
      "Eurycleia": 3089,
      "Protesil": 3090,
      "Argonauts": 3091,
      "Bœotia": 3092,
      "11": 3093,
      "AP": 3094,
      "An": 3095,
      "Age": 3096,
      "Apha": 3097,
      "Bay": 3098,
      "CE": 3099,
      "CH": 3100,
      "Ce": 3101,
      "Echi": 3102,
      "Each": 3103,
      "Far": 3104,
      "Fair": 3105,
      "Gorg": 3106,
      "Just": 3107,
      "LE": 3108,
      "Lin": 3109,
      "Mother": 3110,
      "Ness": 3111,
      "Our": 3112,
      "Ossa": 3113,
      "OLD": 3114,
      "RI": 3115,
      "Re": 3116,
      "Such": 3117,
      "TH": 3118,
      "WIN": 3119,
      "XV": 3120,
      "awak": 3121,
      "bon": 3122,
      "ben": 3123,
      "bles": 3124,
      "bbed": 3125,
      "cup": 3126,
      "cow": 3127,
      "cord": 3128,
      "dai": 3129,
      "due": 3130,
      "danced": 3131,
      "eves": 3132,
      "emp": 3133,
      "eous": 3134,
      "eating": 3135,
      "fas": 3136,
      "fly": 3137,
      "fir": 3138,
      "fine": 3139,
      "fanc": 3140,
      "fish": 3141,
      "fought": 3142,
      "gushed": 3143,
      "hone": 3144,
      "hous": 3145,
      "iri": 3146,
      "ios": 3147,
      "ience": 3148,
      "line": 3149,
      "lance": 3150,
      "loud": 3151,
      "mir": 3152,
      "names": 3153,
      "ob": 3154,
      "pare": 3155,
      "rine": 3156,
      "snat": 3157,
      "sank": 3158,
      "tro": 3159,
      "tled": 3160,
      "tra": 3161,
      "tried": 3162,
      "vided": 3163,
      "vowed": 3164,
      "wrest": 3165,
      "ying": 3166,
      "ĕl": 3167,
      "heap": 3168,
      "ances": 3169,
      "inv": 3170,
      "ined": 3171,
      "ref": 3172,
      "reed": 3173,
      "reus": 3174,
      "reward": 3175,
      "received": 3176,
      "resemb": 3177,
      "thi": 3178,
      "thri": 3179,
      "thres": 3180,
      "ton": 3181,
      "tomb": 3182,
      "toss": 3183,
      "touch": 3184,
      "hire": 3185,
      "ona": 3186,
      "ased": 3187,
      "asking": 3188,
      "array": 3189,
      "oracles": 3190,
      "orings": 3191,
      "seer": 3192,
      "season": 3193,
      "room": 3194,
      "roasted": 3195,
      "ises": 3196,
      "ising": 3197,
      "isle": 3198,
      "issu": 3199,
      "metus": 3200,
      "least": 3201,
      "lebr": 3202,
      "lded": 3203,
      "wilt": 3204,
      "beings": 3205,
      "bethought": 3206,
      "beheld": 3207,
      "beaten": 3208,
      "hoof": 3209,
      "hoped": 3210,
      "stag": 3211,
      "state": 3212,
      "stars": 3213,
      "weeks": 3214,
      "noon": 3215,
      "aise": 3216,
      "ading": 3217,
      "aders": 3218,
      "admi": 3219,
      "advice": 3220,
      "chor": 3221,
      "lic": 3222,
      "lid": 3223,
      "limp": 3224,
      "loath": 3225,
      "thern": 3226,
      "dee": 3227,
      "alt": 3228,
      "aled": 3229,
      "ales": 3230,
      "ented": 3231,
      "upward": 3232,
      "uncle": 3233,
      "soever": 3234,
      "cely": 3235,
      "celebr": 3236,
      "ague": 3237,
      "feats": 3238,
      "neck": 3239,
      "caves": 3240,
      "going": 3241,
      "goats": 3242,
      "goblet": 3243,
      "comb": 3244,
      "uring": 3245,
      "move": 3246,
      "moorings": 3247,
      "mantle": 3248,
      "tear": 3249,
      "ils": 3250,
      "spind": 3251,
      "spears": 3252,
      "hallen": 3253,
      "pling": 3254,
      "plun": 3255,
      "boast": 3256,
      "ours": 3257,
      "shut": 3258,
      "shrine": 3259,
      "five": 3260,
      "fiery": 3261,
      "sire": 3262,
      "sigh": 3263,
      "wore": 3264,
      "wouldst": 3265,
      "taunt": 3266,
      "tables": 3267,
      "ansl": 3268,
      "quite": 3269,
      "stores": 3270,
      "stones": 3271,
      "giant": 3272,
      "lared": 3273,
      "pos": 3274,
      "seems": 3275,
      "thence": 3276,
      "enemies": 3277,
      "yours": 3278,
      "mphal": 3279,
      "mbling": 3280,
      "terror": 3281,
      "game": 3282,
      "ruction": 3283,
      "rugged": 3284,
      "readiness": 3285,
      "appe": 3286,
      "applied": 3287,
      "faring": 3288,
      "grant": 3289,
      "something": 3290,
      "iced": 3291,
      "ices": 3292,
      "leness": 3293,
      "warning": 3294,
      "downward": 3295,
      "months": 3296,
      "wake": 3297,
      "younger": 3298,
      "overtake": 3299,
      "unders": 3300,
      "lighted": 3301,
      "lightning": 3302,
      "holds": 3303,
      "chambers": 3304,
      "perfi": 3305,
      "perished": 3306,
      "claim": 3307,
      "streets": 3308,
      "cts": 3309,
      "useless": 3310,
      "sailors": 3311,
      "ateful": 3312,
      "shame": 3313,
      "shape": 3314,
      "wisest": 3315,
      "wishes": 3316,
      "loss": 3317,
      "begun": 3318,
      "Peiri": 3319,
      "harm": 3320,
      "harness": 3321,
      "winter": 3322,
      "heads": 3323,
      "laying": 3324,
      "cheer": 3325,
      "cloak": 3326,
      "dwellers": 3327,
      "idered": 3328,
      "lasting": 3329,
      "served": 3330,
      "Messen": 3331,
      "prosp": 3332,
      "sadly": 3333,
      "smiles": 3334,
      "soul": 3335,
      "grim": 3336,
      "matters": 3337,
      "Phœ": 3338,
      "wrink": 3339,
      "springs": 3340,
      "falling": 3341,
      "immortal": 3342,
      "leading": 3343,
      "hurt": 3344,
      "wooden": 3345,
      "brea": 3346,
      "III": 3347,
      "human": 3348,
      "speaks": 3349,
      "ddenly": 3350,
      "mingled": 3351,
      "tarry": 3352,
      "wandering": 3353,
      "listeners": 3354,
      "ription": 3355,
      "companion": 3356,
      "Before": 3357,
      "purpose": 3358,
      "horiz": 3359,
      "change": 3360,
      "185": 3361,
      "shrewdness": 3362,
      "Scæan": 3363,
      "bounded": 3364,
      "rank": 3365,
      "orchard": 3366,
      "summit": 3367,
      "banks": 3368,
      "wrongs": 3369,
      "wronged": 3370,
      "minds": 3371,
      "victi": 3372,
      "Lycomed": 3373,
      "drawn": 3374,
      "garment": 3375,
      "atening": 3376,
      "afterwards": 3377,
      "Greeks": 3378,
      "pitying": 3379,
      "storms": 3380,
      "meaning": 3381,
      "description": 3382,
      "dreams": 3383,
      "crews": 3384,
      "eagle": 3385,
      "vaulted": 3386,
      "value": 3387,
      "favoring": 3388,
      "wooled": 3389,
      "embark": 3390,
      "avenged": 3391,
      "paused": 3392,
      "threatening": 3393,
      "horsemen": 3394,
      "presents": 3395,
      "counsels": 3396,
      "judg": 3397,
      "obeyed": 3398,
      "surprise": 3399,
      "lawless": 3400,
      "Argus": 3401,
      "contin": 3402,
      "Hyperion": 3403,
      "pupils": 3404,
      "Close": 3405,
      "Clotho": 3406,
      "duty": 3407,
      "duties": 3408,
      "later": 3409,
      "native": 3410,
      "feeling": 3411,
      "direct": 3412,
      "Acarnanian": 3413,
      "blossoms": 3414,
      "beams": 3415,
      "limbs": 3416,
      "merriment": 3417,
      "Dawn": 3418,
      "awarded": 3419,
      "smile": 3420,
      "innocent": 3421,
      "frightened": 3422,
      "pierced": 3423,
      "punishment": 3424,
      "Achaia": 3425,
      "Epaphos": 3426,
      "Minor": 3427,
      "kinsmen": 3428,
      "pouring": 3429,
      "shield": 3430,
      "yielded": 3431,
      "bewailed": 3432,
      "locks": 3433,
      "declared": 3434,
      "dolphin": 3435,
      "figure": 3436,
      "simply": 3437,
      "triumph": 3438,
      "Cretan": 3439,
      "Admetus": 3440,
      "scourge": 3441,
      "tongue": 3442,
      "escaped": 3443,
      "memory": 3444,
      "bereft": 3445,
      "depths": 3446,
      "monsters": 3447,
      "branches": 3448,
      "cliffs": 3449,
      "persuasive": 3450,
      "Hyperboreans": 3451,
      "Protesilaus": 3452,
      "Aphareus": 3453,
      "Echion": 3454,
      "Gorgons": 3455,
      "Linus": 3456,
      "Nessus": 3457,
      "awakened": 3458,
      "bonds": 3459,
      "benches": 3460,
      "daily": 3461,
      "fashi": 3462,
      "honey": 3463,
      "houses": 3464,
      "wrestling": 3465,
      "resemblance": 3466,
      "threshold": 3467,
      "celebrated": 3468,
      "Peirithous": 3469,
      "horizon": 3470,
      "Lycomedes": 3471,
      "..": 3472,
      "110": 3473,
      "214": 3474,
      "30": 3475,
      "67": 3476,
      "68": 3477,
      "76": 3478,
      "84": 3479,
      "85": 3480,
      "89": 3481,
      "98": 3482,
      "AS": 3483,
      "Act": 3484,
      "AMES": 3485,
      "Ba": 3486,
      "Can": 3487,
      "Cast": 3488,
      "Cap": 3489,
      "Cattle": 3490,
      "Day": 3491,
      "Dard": 3492,
      "Dod": 3493,
      "Did": 3494,
      "Fare": 3495,
      "First": 3496,
      "Glau": 3497,
      "Great": 3498,
      "GOLD": 3499,
      "Hē": 3500,
      "Hence": 3501,
      "HIS": 3502,
      "Ind": 3503,
      "Ilus": 3504,
      "Jo": 3505,
      "LA": 3506,
      "LI": 3507,
      "LES": 3508,
      "Med": 3509,
      "Men": 3510,
      "Map": 3511,
      "Nai": 3512,
      "Nex": 3513,
      "Need": 3514,
      "PY": 3515,
      "Ple": 3516,
      "PRO": 3517,
      "Qu": 3518,
      "Rhad": 3519,
      "Say": 3520,
      "Sad": 3521,
      "Thi": 3522,
      "Ten": 3523,
      "Ter": 3524,
      "Til": 3525,
      "Tru": 3526,
      "Virtue": 3527,
      "Where": 3528,
      "XVII": 3529,
      "Your": 3530,
      "Zac": 3531,
      "awe": 3532,
      "awo": 3533,
      "aught": 3534,
      "bal": 3535,
      "bent": 3536,
      "bil": 3537,
      "bare": 3538,
      "bab": 3539,
      "bark": 3540,
      "base": 3541,
      "barter": 3542,
      "cy": 3543,
      "cat": 3544,
      "conce": 3545,
      "cence": 3546,
      "cask": 3547,
      "case": 3548,
      "din": 3549,
      "dry": 3550,
      "dened": 3551,
      "dull": 3552,
      "dangers": 3553,
      "flay": 3554,
      "gy": 3555,
      "gest": 3556,
      "gers": 3557,
      "hut": 3558,
      "iant": 3559,
      "imes": 3560,
      "jest": 3561,
      "kni": 3562,
      "lace": 3563,
      "lend": 3564,
      "lair": 3565,
      "mount": 3566,
      "mist": 3567,
      "mained": 3568,
      "nthus": 3569,
      "nature": 3570,
      "py": 3571,
      "pat": 3572,
      "pir": 3573,
      "paid": 3574,
      "pod": 3575,
      "pra": 3576,
      "pressed": 3577,
      "rad": 3578,
      "sme": 3579,
      "swor": 3580,
      "sits": 3581,
      "sink": 3582,
      "tage": 3583,
      "twent": 3584,
      "task": 3585,
      "um": 3586,
      "uth": 3587,
      "vow": 3588,
      "vile": 3589,
      "vows": 3590,
      "vult": 3591,
      "virtue": 3592,
      "ws": 3593,
      "want": 3594,
      "ynthus": 3595,
      "Æson": 3596,
      "æon": 3597,
      "heir": 3598,
      "anthus": 3599,
      "inted": 3600,
      "reas": 3601,
      "renew": 3602,
      "reeds": 3603,
      "reins": 3604,
      "reared": 3605,
      "repent": 3606,
      "remained": 3607,
      "thread": 3608,
      "toned": 3609,
      "toiled": 3610,
      "asha": 3611,
      "assi": 3612,
      "ashes": 3613,
      "aston": 3614,
      "lla": 3615,
      "lling": 3616,
      "atened": 3617,
      "ordered": 3618,
      "ush": 3619,
      "ushes": 3620,
      "sell": 3621,
      "hail": 3622,
      "haunt": 3623,
      "hailed": 3624,
      "roo": 3625,
      "rolled": 3626,
      "ropos": 3627,
      "isoned": 3628,
      "ley": 3629,
      "beloved": 3630,
      "bearer": 3631,
      "hore": 3632,
      "hode": 3633,
      "hollow": 3634,
      "hoping": 3635,
      "star": 3636,
      "stios": 3637,
      "itself": 3638,
      "acha": 3639,
      "rise": 3640,
      "richest": 3641,
      "weight": 3642,
      "weig": 3643,
      "weigh": 3644,
      "aiming": 3645,
      "chanced": 3646,
      "forces": 3647,
      "waste": 3648,
      "liest": 3649,
      "loose": 3650,
      "loom": 3651,
      "loads": 3652,
      "Thestios": 3653,
      "deli": 3654,
      "deaf": 3655,
      "dearest": 3656,
      "deceived": 3657,
      "almost": 3658,
      "allow": 3659,
      "allot": 3660,
      "entrance": 3661,
      "entimes": 3662,
      "vers": 3663,
      "whither": 3664,
      "ains": 3665,
      "unseen": 3666,
      "uncles": 3667,
      "unseem": 3668,
      "solit": 3669,
      "cease": 3670,
      "ceased": 3671,
      "amanthus": 3672,
      "agreed": 3673,
      "feared": 3674,
      "features": 3675,
      "neath": 3676,
      "nearest": 3677,
      "cool": 3678,
      "myster": 3679,
      "manes": 3680,
      "manhood": 3681,
      "tee": 3682,
      "teus": 3683,
      "foe": 3684,
      "foaming": 3685,
      "folly": 3686,
      "keen": 3687,
      "sport": 3688,
      "spared": 3689,
      "boon": 3690,
      "boasted": 3691,
      "midd": 3692,
      "ties": 3693,
      "greatly": 3694,
      "greatest": 3695,
      "greatness": 3696,
      "dost": 3697,
      "arts": 3698,
      "plea": 3699,
      "endure": 3700,
      "fathers": 3701,
      "longed": 3702,
      "therefore": 3703,
      "fied": 3704,
      "fires": 3705,
      "seless": 3706,
      "stout": 3707,
      "stored": 3708,
      "gives": 3709,
      "everlasting": 3710,
      "post": 3711,
      "poisoned": 3712,
      "seeming": 3713,
      "bleak": 3714,
      "faith": 3715,
      "failing": 3716,
      "wherein": 3717,
      "foreig": 3718,
      "ryman": 3719,
      "fulness": 3720,
      "suc": 3721,
      "carved": 3722,
      "prison": 3723,
      "praise": 3724,
      "rule": 3725,
      "rudd": 3726,
      "shoulder": 3727,
      "ician": 3728,
      "whatever": 3729,
      "tales": 3730,
      "waxed": 3731,
      "overthrown": 3732,
      "skir": 3733,
      "lightly": 3734,
      "brass": 3735,
      "everywhere": 3736,
      "hasty": 3737,
      "mention": 3738,
      "sung": 3739,
      "holding": 3740,
      "chains": 3741,
      "chained": 3742,
      "performed": 3743,
      "dious": 3744,
      "pleasure": 3745,
      "complain": 3746,
      "clas": 3747,
      "cling": 3748,
      "claimed": 3749,
      "elder": 3750,
      "tram": 3751,
      "transl": 3752,
      "blade": 3753,
      "northern": 3754,
      "distur": 3755,
      "HERO": 3756,
      "desire": 3757,
      "Into": 3758,
      "Inachus": 3759,
      "silvery": 3760,
      "borne": 3761,
      "Laomed": 3762,
      "countless": 3763,
      "towering": 3764,
      "happily": 3765,
      "headlands": 3766,
      "grandest": 3767,
      "undertake": 3768,
      "undertaking": 3769,
      "underneath": 3770,
      "courty": 3771,
      "ressing": 3772,
      "sweetest": 3773,
      "helmet": 3774,
      "explain": 3775,
      "exile": 3776,
      "walled": 3777,
      "stronger": 3778,
      "contend": 3779,
      "princess": 3780,
      "Atropos": 3781,
      "pute": 3782,
      "rounded": 3783,
      "flood": 3784,
      "floating": 3785,
      "hunted": 3786,
      "honors": 3787,
      "creatures": 3788,
      "provided": 3789,
      "slept": 3790,
      "youths": 3791,
      "pasturing": 3792,
      "Athens": 3793,
      "forthwith": 3794,
      "boyhood": 3795,
      "wondering": 3796,
      "brief": 3797,
      "married": 3798,
      "marvell": 3799,
      "Delos": 3800,
      "bearskins": 3801,
      "watery": 3802,
      "Proteus": 3803,
      "tripod": 3804,
      "nearly": 3805,
      "rises": 3806,
      "rising": 3807,
      "leads": 3808,
      "Orpheus": 3809,
      "journeyed": 3810,
      "mistake": 3811,
      "mischief": 3812,
      "winding": 3813,
      "charm": 3814,
      "sorrows": 3815,
      "Alc": 3816,
      "peaceful": 3817,
      "144": 3818,
      "146": 3819,
      "target": 3820,
      "wanderer": 3821,
      "roads": 3822,
      "herdsman": 3823,
      "150": 3824,
      "bloods": 3825,
      "gladly": 3826,
      "gladness": 3827,
      "162": 3828,
      "Within": 3829,
      "joining": 3830,
      "138": 3831,
      "hosts": 3832,
      "needed": 3833,
      "needle": 3834,
      "Once": 3835,
      "groan": 3836,
      "grove": 3837,
      "message": 3838,
      "rules": 3839,
      "seize": 3840,
      "thousands": 3841,
      "233": 3842,
      "234": 3843,
      "235": 3844,
      "239": 3845,
      "196": 3846,
      "bounds": 3847,
      "blessing": 3848,
      "destruction": 3849,
      "finest": 3850,
      "paths": 3851,
      "scenes": 3852,
      "twins": 3853,
      "lifting": 3854,
      "planning": 3855,
      "171": 3856,
      "173": 3857,
      "phussa": 3858,
      "delighted": 3859,
      "fury": 3860,
      "furrow": 3861,
      "leaping": 3862,
      "greeting": 3863,
      "cursed": 3864,
      "crying": 3865,
      "sounded": 3866,
      "healed": 3867,
      "heavily": 3868,
      "Greece": 3869,
      "ORY": 3870,
      "Titans": 3871,
      "craft": 3872,
      "grown": 3873,
      "shades": 3874,
      "descended": 3875,
      "sacrifices": 3876,
      "climbing": 3877,
      "barren": 3878,
      "barley": 3879,
      "stepped": 3880,
      "departed": 3881,
      "fighting": 3882,
      "fattest": 3883,
      "gnashing": 3884,
      "tryon": 3885,
      "meadow": 3886,
      "nobler": 3887,
      "wooed": 3888,
      "northward": 3889,
      "embar": 3890,
      "girt": 3891,
      "hearkened": 3892,
      "grassy": 3893,
      "Scylla": 3894,
      "troubles": 3895,
      "North": 3896,
      "avenge": 3897,
      "grapes": 3898,
      "glens": 3899,
      "Ætolian": 3900,
      "threatened": 3901,
      "weapon": 3902,
      "gardens": 3903,
      "Evenus": 3904,
      "burden": 3905,
      "consented": 3906,
      "drinking": 3907,
      "jewel": 3908,
      "number": 3909,
      "knelt": 3910,
      "luck": 3911,
      "murmur": 3912,
      "thunderbolts": 3913,
      "melodies": 3914,
      "neighbor": 3915,
      "expecting": 3916,
      "huntsman": 3917,
      "prevailed": 3918,
      "destroyed": 3919,
      "blossoming": 3920,
      "glide": 3921,
      "oaths": 3922,
      "tunic": 3923,
      "urious": 3924,
      "shouts": 3925,
      "Amphithea": 3926,
      "Amphitryon": 3927,
      "STORY": 3928,
      "Syma": 3929,
      "clefts": 3930,
      "glowing": 3931,
      "toilsome": 3932,
      "started": 3933,
      "libations": 3934,
      "delayed": 3935,
      "feeb": 3936,
      "feeble": 3937,
      "fetters": 3938,
      "club": 3939,
      "stretched": 3940,
      "stretching": 3941,
      "slaughtered": 3942,
      "Book": 3943,
      "Cronos": 3944,
      "Have": 3945,
      "WORD": 3946,
      "crime": 3947,
      "circ": 3948,
      "crossed": 3949,
      "linen": 3950,
      "lordly": 3951,
      "highest": 3952,
      "asphode": 3953,
      "deftly": 3954,
      "solemn": 3955,
      "plenty": 3956,
      "pieces": 3957,
      "Sinon": 3958,
      "fisher": 3959,
      "frame": 3960,
      "mourning": 3961,
      "ranged": 3962,
      "sickness": 3963,
      "girlhood": 3964,
      "Phoenician": 3965,
      "firm": 3966,
      "parent": 3967,
      "snatched": 3968,
      "travell": 3969,
      "invited": 3970,
      "issue": 3971,
      "hoofs": 3972,
      "deemed": 3973,
      "spindle": 3974,
      "appeared": 3975,
      "perfidious": 3976,
      "prosper": 3977,
      "wrinkled": 3978,
      "judgment": 3979,
      "Actæon": 3980,
      "Casta": 3981,
      "Capture": 3982,
      "Dardan": 3983,
      "Dodona": 3984,
      "Farewell": 3985,
      "Glaucus": 3986,
      "GOLDEN": 3987,
      "Indeed": 3988,
      "Naiads": 3989,
      "Next": 3990,
      "Quick": 3991,
      "Rhadamanthus": 3992,
      "Thieves": 3993,
      "Terrible": 3994,
      "Tilphussa": 3995,
      "Zacynthus": 3996,
      "awoke": 3997,
      "babes": 3998,
      "flayed": 3999,
      "sworn": 4000,
      "twenty": 4001,
      "reasons": 4002,
      "ashamed": 4003,
      "astonished": 4004,
      "weighed": 4005,
      "allotted": 4006,
      "unseemly": 4007,
      "middle": 4008,
      "foreign": 4009,
      "ruddy": 4010,
      "translations": 4011,
      "Laomedon": 4012,
      "courtyard": 4013,
      "marvellous": 4014,
      "22": 4015,
      "225": 4016,
      "44": 4017,
      "55": 4018,
      "56": 4019,
      "91": 4020,
      "92": 4021,
      "99": 4022,
      "AC": 4023,
      "AG": 4024,
      "AU": 4025,
      "Ah": 4026,
      "Abo": 4027,
      "Ares": 4028,
      "Around": 4029,
      "AGE": 4030,
      "BO": 4031,
      "BY": 4032,
      "Blest": 4033,
      "Bring": 4034,
      "CO": 4035,
      "Call": 4036,
      "Char": 4037,
      "Cop": 4038,
      "End": 4039,
      "Erich": 4040,
      "EHER": 4041,
      "Ethi": 4042,
      "Eryman": 4043,
      "FO": 4044,
      "Fo": 4045,
      "Fu": 4046,
      "Fle": 4047,
      "Fam": 4048,
      "Five": 4049,
      "Gr": 4050,
      "Gray": 4051,
      "Hi": 4052,
      "Had": 4053,
      "Hast": 4054,
      "Hap": 4055,
      "Hail": 4056,
      "IX": 4057,
      "Ke": 4058,
      "KING": 4059,
      "Le": 4060,
      "MO": 4061,
      "Mo": 4062,
      "Mis": 4063,
      "Much": 4064,
      "More": 4065,
      "Macha": 4066,
      "Ne": 4067,
      "Ned": 4068,
      "None": 4069,
      "Nere": 4070,
      "Neither": 4071,
      "Of": 4072,
      "Other": 4073,
      "OLL": 4074,
      "Phy": 4075,
      "Pray": 4076,
      "PER": 4077,
      "RA": 4078,
      "Ri": 4079,
      "Ro": 4080,
      "Right": 4081,
      "SI": 4082,
      "Si": 4083,
      "Su": 4084,
      "Sist": 4085,
      "Spart": 4086,
      "Sidon": 4087,
      "Swine": 4088,
      "Sty": 4089,
      "SON": 4090,
      "South": 4091,
      "SWIN": 4092,
      "Tho": 4093,
      "Tay": 4094,
      "That": 4095,
      "Thund": 4096,
      "Wo": 4097,
      "Wor": 4098,
      "XXI": 4099,
      "].": 4100,
      "_S": 4101,
      "av": 4102,
      "bas": 4103,
      "bond": 4104,
      "bull": 4105,
      "bide": 4106,
      "bdis": 4107,
      "cr": 4108,
      "cro": 4109,
      "cti": 4110,
      "cic": 4111,
      "crest": 4112,
      "cuse": 4113,
      "cris": 4114,
      "cities": 4115,
      "curious": 4116,
      "du": 4117,
      "dain": 4118,
      "dam": 4119,
      "dag": 4120,
      "ders": 4121,
      "dia": 4122,
      "dge": 4123,
      "danc": 4124,
      "ee": 4125,
      "ek": 4126,
      "eis": 4127,
      "ece": 4128,
      "eur": 4129,
      "eft": 4130,
      "ege": 4131,
      "fy": 4132,
      "fth": 4133,
      "fac": 4134,
      "fli": 4135,
      "fun": 4136,
      "fest": 4137,
      "frow": 4138,
      "flight": 4139,
      "flit": 4140,
      "grou": 4141,
      "gorg": 4142,
      "hulled": 4143,
      "io": 4144,
      "ival": 4145,
      "jus": 4146,
      "lp": 4147,
      "lor": 4148,
      "mag": 4149,
      "mult": 4150,
      "miles": 4151,
      "mares": 4152,
      "nus": 4153,
      "ners": 4154,
      "nigh": 4155,
      "oves": 4156,
      "opi": 4157,
      "obed": 4158,
      "ocean": 4159,
      "ointed": 4160,
      "pæ": 4161,
      "pon": 4162,
      "por": 4163,
      "pear": 4164,
      "pang": 4165,
      "pill": 4166,
      "pack": 4167,
      "ram": 4168,
      "rare": 4169,
      "rling": 4170,
      "rash": 4171,
      "ses": 4172,
      "slope": 4173,
      "sallied": 4174,
      "salt": 4175,
      "swore": 4176,
      "tto": 4177,
      "tance": 4178,
      "twit": 4179,
      "tasted": 4180,
      "ude": 4181,
      "umes": 4182,
      "udd": 4183,
      "uated": 4184,
      "van": 4185,
      "var": 4186,
      "vir": 4187,
      "vig": 4188,
      "vio": 4189,
      "wond": 4190,
      "wane": 4191,
      "wares": 4192,
      "yc": 4193,
      "yoke": 4194,
      "yore": 4195,
      "ybdis": 4196,
      "zz": 4197,
      "ēdes": 4198,
      "Œta": 4199,
      "heus": 4200,
      "thest": 4201,
      "anions": 4202,
      "anchor": 4203,
      "anointed": 4204,
      "inha": 4205,
      "inal": 4206,
      "invent": 4207,
      "innu": 4208,
      "andise": 4209,
      "rend": 4210,
      "real": 4211,
      "reco": 4212,
      "repe": 4213,
      "remind": 4214,
      "removed": 4215,
      "remain": 4216,
      "tone": 4217,
      "tood": 4218,
      "edge": 4219,
      "ens": 4220,
      "ench": 4221,
      "enched": 4222,
      "erst": 4223,
      "erable": 4224,
      "asle": 4225,
      "ashore": 4226,
      "atue": 4227,
      "attend": 4228,
      "attered": 4229,
      "orn": 4230,
      "orned": 4231,
      "orig": 4232,
      "hap": 4233,
      "roar": 4234,
      "roll": 4235,
      "rode": 4236,
      "root": 4237,
      "roaring": 4238,
      "isk": 4239,
      "meia": 4240,
      "mellow": 4241,
      "leg": 4242,
      "league": 4243,
      "lder": 4244,
      "withered": 4245,
      "bees": 4246,
      "beho": 4247,
      "befall": 4248,
      "bewit": 4249,
      "hopes": 4250,
      "stant": 4251,
      "strew": 4252,
      "stature": 4253,
      "statue": 4254,
      "ition": 4255,
      "itude": 4256,
      "acus": 4257,
      "acqu": 4258,
      "acked": 4259,
      "acious": 4260,
      "accus": 4261,
      "accent": 4262,
      "accor": 4263,
      "ria": 4264,
      "ripe": 4265,
      "riding": 4266,
      "riches": 4267,
      "nook": 4268,
      "nobil": 4269,
      "forms": 4270,
      "former": 4271,
      "forced": 4272,
      "withhold": 4273,
      "liant": 4274,
      "liked": 4275,
      "lilies": 4276,
      "lose": 4277,
      "loaded": 4278,
      "lodge": 4279,
      "Thebes": 4280,
      "ute": 4281,
      "thera": 4282,
      "irs": 4283,
      "iring": 4284,
      "def": 4285,
      "demand": 4286,
      "althy": 4287,
      "entert": 4288,
      "verance": 4289,
      "version": 4290,
      "upper": 4291,
      "herb": 4292,
      "herbs": 4293,
      "ower": 4294,
      "ung": 4295,
      "unless": 4296,
      "untold": 4297,
      "unfriendly": 4298,
      "unerring": 4299,
      "soared": 4300,
      "solid": 4301,
      "amid": 4302,
      "amber": 4303,
      "feed": 4304,
      "fect": 4305,
      "feeding": 4306,
      "ferer": 4307,
      "aste": 4308,
      "nephe": 4309,
      "necess": 4310,
      "goes": 4311,
      "etern": 4312,
      "cot": 4313,
      "cove": 4314,
      "colu": 4315,
      "coals": 4316,
      "notes": 4317,
      "manly": 4318,
      "manship": 4319,
      "manage": 4320,
      "manners": 4321,
      "foster": 4322,
      "folded": 4323,
      "ysician": 4324,
      "spo": 4325,
      "space": 4326,
      "spits": 4327,
      "spacious": 4328,
      "outwit": 4329,
      "shears": 4330,
      "plu": 4331,
      "plat": 4332,
      "plunder": 4333,
      "bol": 4334,
      "boaster": 4335,
      "kings": 4336,
      "kingly": 4337,
      "kingship": 4338,
      "rous": 4339,
      "fame": 4340,
      "till": 4341,
      "tile": 4342,
      "tice": 4343,
      "tors": 4344,
      "torches": 4345,
      "torments": 4346,
      "odam": 4347,
      "acelets": 4348,
      "doors": 4349,
      "shru": 4350,
      "shine": 4351,
      "peal": 4352,
      "pleaded": 4353,
      "ender": 4354,
      "cken": 4355,
      "ange": 4356,
      "angered": 4357,
      "wayfarers": 4358,
      "siege": 4359,
      "seafarers": 4360,
      "seafaring": 4361,
      "ravines": 4362,
      "quar": 4363,
      "quarter": 4364,
      "quenched": 4365,
      "chieft": 4366,
      "gia": 4367,
      "laught": 4368,
      "oked": 4369,
      "evermore": 4370,
      "poor": 4371,
      "poet": 4372,
      "lessons": 4373,
      "istly": 4374,
      "bleating": 4375,
      "bleeding": 4376,
      "fairer": 4377,
      "wherewith": 4378,
      "whereby": 4379,
      "foremost": 4380,
      "mpath": 4381,
      "suddenly": 4382,
      "aths": 4383,
      "mbled": 4384,
      "hate": 4385,
      "hatred": 4386,
      "comely": 4387,
      "comeliness": 4388,
      "gazing": 4389,
      "oted": 4390,
      "daw": 4391,
      "dazz": 4392,
      "readily": 4393,
      "abund": 4394,
      "abroad": 4395,
      "appro": 4396,
      "appointed": 4397,
      "farm": 4398,
      "farthest": 4399,
      "Hero": 4400,
      "gras": 4401,
      "grateful": 4402,
      "Tros": 4403,
      "aken": 4404,
      "Hellen": 4405,
      "Hellene": 4406,
      "warlike": 4407,
      "talons": 4408,
      ".’\"": 4409,
      "likely": 4410,
      "prizes": 4411,
      "waits": 4412,
      "broke": 4413,
      "broidered": 4414,
      "overlooking": 4415,
      "beauteous": 4416,
      "homeward": 4417,
      "brings": 4418,
      "briny": 4419,
      "brisk": 4420,
      "bracelets": 4421,
      "bristly": 4422,
      "msman": 4423,
      "guess": 4424,
      "resting": 4425,
      "restless": 4426,
      "watered": 4427,
      "Ithacan": 4428,
      "hastily": 4429,
      "sunless": 4430,
      "sunshine": 4431,
      "canst": 4432,
      "calls": 4433,
      "calling": 4434,
      "els": 4435,
      "merc": 4436,
      "merable": 4437,
      "Therefore": 4438,
      "perform": 4439,
      "perfect": 4440,
      "dipped": 4441,
      "pleasing": 4442,
      "afternoon": 4443,
      "commen": 4444,
      "common": 4445,
      "command": 4446,
      "claiming": 4447,
      "treat": 4448,
      "treacher": 4449,
      "trembled": 4450,
      "oftentimes": 4451,
      "kindled": 4452,
      "trun": 4453,
      "trade": 4454,
      "track": 4455,
      "trink": 4456,
      "trained": 4457,
      "blushing": 4458,
      "bows": 4459,
      "Python": 4460,
      "desired": 4461,
      "lifeless": 4462,
      "swim": 4463,
      "shared": 4464,
      "shaft": 4465,
      "shaken": 4466,
      "besee": 4467,
      "borders": 4468,
      "Helenus": 4469,
      "Lake": 4470,
      "Laodam": 4471,
      "harvest": 4472,
      "tower": 4473,
      "happiest": 4474,
      "happier": 4475,
      "thoughtfully": 4476,
      "childhood": 4477,
      "dding": 4478,
      "richly": 4479,
      "pilot": 4480,
      "headed": 4481,
      "headlong": 4482,
      "headland": 4483,
      "grandeur": 4484,
      "party": 4485,
      "sweetly": 4486,
      "helper": 4487,
      "helmsman": 4488,
      "cheeks": 4489,
      "goodliest": 4490,
      "setting": 4491,
      "settled": 4492,
      "plainly": 4493,
      "dwellings": 4494,
      "fertile": 4495,
      "aboard": 4496,
      "peopled": 4497,
      "oped": 4498,
      "strongest": 4499,
      "lists": 4500,
      "chased": 4501,
      "honest": 4502,
      "sadness": 4503,
      "pastured": 4504,
      "insult": 4505,
      "Auge": 4506,
      "driving": 4507,
      "sooner": 4508,
      "bards": 4509,
      "heaving": 4510,
      "wisely": 4511,
      "strangely": 4512,
      "clean": 4513,
      "glance": 4514,
      "glanced": 4515,
      "marched": 4516,
      "situated": 4517,
      "forty": 4518,
      "darkened": 4519,
      "returning": 4520,
      "dispute": 4521,
      "falls": 4522,
      "tribes": 4523,
      "bathed": 4524,
      "risen": 4525,
      "rens": 4526,
      "leader": 4527,
      "carelessly": 4528,
      "gentler": 4529,
      "gentleness": 4530,
      "hurl": 4531,
      "fearing": 4532,
      "sufferer": 4533,
      "breast": 4534,
      "misfortune": 4535,
      "misery": 4536,
      "misfortunes": 4537,
      "error": 4538,
      "charge": 4539,
      "charged": 4540,
      "humb": 4541,
      "closely": 4542,
      "145": 4543,
      "physician": 4544,
      "tues": 4545,
      "tuous": 4546,
      "roadside": 4547,
      "155": 4548,
      "bloomed": 4549,
      "ripened": 4550,
      "rippling": 4551,
      "companions": 4552,
      "160": 4553,
      "166": 4554,
      "169": 4555,
      "Without": 4556,
      "itors": 4557,
      "voices": 4558,
      "Coryc": 4559,
      "TER": 4560,
      "hinder": 4561,
      "sloping": 4562,
      "stern": 4563,
      "priceless": 4564,
      "101": 4565,
      "109": 4566,
      "131": 4567,
      "134": 4568,
      "139": 4569,
      "181": 4570,
      "182": 4571,
      "softly": 4572,
      "thonius": 4573,
      "gotten": 4574,
      "shrewdly": 4575,
      "groom": 4576,
      "walking": 4577,
      "hesis": 4578,
      "playing": 4579,
      "fruitful": 4580,
      "blessings": 4581,
      "dreamed": 4582,
      "twink": 4583,
      "rified": 4584,
      "176": 4585,
      "tending": 4586,
      "strife": 4587,
      "striking": 4588,
      "stricken": 4589,
      "delights": 4590,
      "sufferings": 4591,
      "hopeful": 4592,
      "wearied": 4593,
      "workmanship": 4594,
      "Lydia": 4595,
      "curse": 4596,
      "curls": 4597,
      "dropped": 4598,
      "draw": 4599,
      "draught": 4600,
      "drawing": 4601,
      "ffed": 4602,
      "hunger": 4603,
      "justly": 4604,
      "sounding": 4605,
      "healing": 4606,
      "looms": 4607,
      "exceeding": 4608,
      "messengers": 4609,
      "dashed": 4610,
      "gging": 4611,
      "growing": 4612,
      "rays": 4613,
      "trouble": 4614,
      "twelfth": 4615,
      "coasts": 4616,
      "descend": 4617,
      "opening": 4618,
      "counc": 4619,
      "Lachesis": 4620,
      "fresh": 4621,
      "reaching": 4622,
      "steps": 4623,
      "stepfather": 4624,
      "spreading": 4625,
      "springtime": 4626,
      "quietly": 4627,
      "fitted": 4628,
      "senseless": 4629,
      "trying": 4630,
      "valiant": 4631,
      "valor": 4632,
      "Odyssey_": 4633,
      "bitterly": 4634,
      "persuade": 4635,
      "Like": 4636,
      "Oceanus": 4637,
      "lambs": 4638,
      "sinking": 4639,
      "caverns": 4640,
      "peaks": 4641,
      "blows": 4642,
      "oaks": 4643,
      "pale": 4644,
      "scars": 4645,
      "scarcely": 4646,
      "venture": 4647,
      "threats": 4648,
      "secrets": 4649,
      "stirring": 4650,
      "point": 4651,
      "points": 4652,
      "birthright": 4653,
      "breathing": 4654,
      "Cyclo": 4655,
      "Cythera": 4656,
      "Islands": 4657,
      "burst": 4658,
      "calm": 4659,
      "calves": 4660,
      "jects": 4661,
      "numbers": 4662,
      "prowed": 4663,
      "vainly": 4664,
      "Theseus": 4665,
      "merchandise": 4666,
      "contest": 4667,
      "servant": 4668,
      "wanderings": 4669,
      "hungry": 4670,
      "captives": 4671,
      "MED": 4672,
      "cousins": 4673,
      "certainly": 4674,
      "faint": 4675,
      "knee": 4676,
      "knees": 4677,
      "latter": 4678,
      "coverings": 4679,
      "shelter": 4680,
      "sheltered": 4681,
      "fleeing": 4682,
      "Acarnanians": 4683,
      "cutting": 4684,
      "glimp": 4685,
      "monger": 4686,
      "swan": 4687,
      "swam": 4688,
      "reign": 4689,
      "shouted": 4690,
      "priestess": 4691,
      "merrily": 4692,
      "training": 4693,
      "steady": 4694,
      "shadowy": 4695,
      "secretly": 4696,
      "Locris": 4697,
      "Syria": 4698,
      "Three": 4699,
      "dangerous": 4700,
      "galley": 4701,
      "innocence": 4702,
      "weakness": 4703,
      "devour": 4704,
      "delays": 4705,
      "fettered": 4706,
      "teachers": 4707,
      "pierc": 4708,
      "prophecy": 4709,
      "slaughter": 4710,
      "Cronus": 4711,
      "WORLD": 4712,
      "dragged": 4713,
      "lines": 4714,
      "supposed": 4715,
      "twigs": 4716,
      "wret": 4717,
      "higher": 4718,
      "wickedness": 4719,
      "bearded": 4720,
      "stalwart": 4721,
      "utterly": 4722,
      "bestowed": 4723,
      "piece": 4724,
      "contentment": 4725,
      "questioned": 4726,
      "Siegfried_": 4727,
      "Cephallen": 4728,
      "Cepheus": 4729,
      "Perse": 4730,
      "darting": 4731,
      "equal": 4732,
      "gleamed": 4733,
      "purified": 4734,
      "picture": 4735,
      "sympath": 4736,
      "twain": 4737,
      "twist": 4738,
      "assuaged": 4739,
      "belongs": 4740,
      "believed": 4741,
      "advance": 4742,
      "advised": 4743,
      "torrents": 4744,
      "subjects": 4745,
      "thankless": 4746,
      "tenderly": 4747,
      "APOLL": 4748,
      "coward": 4749,
      "fancied": 4750,
      "mirth": 4751,
      "thrice": 4752,
      "tossed": 4753,
      "arrayed": 4754,
      "admire": 4755,
      "plunged": 4756,
      "taunted": 4757,
      "understood": 4758,
      "harnessed": 4759,
      "Messenian": 4760,
      "Phœbus": 4761,
      "breathed": 4762,
      "victim": 4763,
      "continued": 4764,
      "directed": 4765,
      "fashioned": 4766,
      "Jove": 4767,
      "Wherever": 4768,
      "balmy": 4769,
      "knife": 4770,
      "mounted": 4771,
      "pirate": 4772,
      "praises": 4773,
      "radiant": 4774,
      "smelling": 4775,
      "vulture": 4776,
      "roomy": 4777,
      "deliverance": 4778,
      "skirted": 4779,
      "explained": 4780,
      "bloodshed": 4781,
      "embarked": 4782,
      "jewels": 4783,
      "circled": 4784,
      "asphodels": 4785,
      "fisherman": 4786,
      "parents": 4787,
      "travellers": 4788,
      "Castalian": 4789,
      "Dardanus": 4790,
      "Above": 4791,
      "Charybdis": 4792,
      "Endeis": 4793,
      "Erichthonius": 4794,
      "EHERD": 4795,
      "Furies": 4796,
      "Fleece": 4797,
      "Hipp": 4798,
      "Most": 4799,
      "Misfortune": 4800,
      "Machaon": 4801,
      "Nedon": 4802,
      "Others": 4803,
      "Phylace": 4804,
      "Sirens": 4805,
      "Sisters": 4806,
      "Sparta": 4807,
      "Swineherd": 4808,
      "SWINEHERD": 4809,
      "Thoas": 4810,
      "Tayget": 4811,
      "Thunderer": 4812,
      "Woman": 4813,
      "World": 4814,
      "ctions": 4815,
      "cicad": 4816,
      "dagger": 4817,
      "funeral": 4818,
      "group": 4819,
      "gorges": 4820,
      "justice": 4821,
      "obedient": 4822,
      "pæans": 4823,
      "pondered": 4824,
      "ramble": 4825,
      "virtues": 4826,
      "innumerable": 4827,
      "recogn": 4828,
      "erstwhile": 4829,
      "asleep": 4830,
      "original": 4831,
      "behooves": 4832,
      "bewitching": 4833,
      "acquain": 4834,
      "accents": 4835,
      "according": 4836,
      "nobility": 4837,
      "entertained": 4838,
      "nephew": 4839,
      "necessary": 4840,
      "eternal": 4841,
      "abundance": 4842,
      "trinkets": 4843,
      "Cephallenia": 4844,
      "sympathy": 4845,
      "APOLLO": 4846,
      ",[": 4847,
      ".,": 4848,
      "119": 4849,
      "216": 4850,
      "219": 4851,
      "217": 4852,
      "227": 4853,
      "224": 4854,
      "36": 4855,
      "40": 4856,
      "48": 4857,
      "49": 4858,
      "50": 4859,
      "61": 4860,
      "65": 4861,
      "71": 4862,
      "79": 4863,
      "80": 4864,
      "95": 4865,
      ";\"": 4866,
      "AF": 4867,
      "AL": 4868,
      "Ara": 4869,
      "Ama": 4870,
      "ARE": 4871,
      "ALD": 4872,
      "BE": 4873,
      "BN": 4874,
      "Bes": 4875,
      "Bet": 4876,
      "Back": 4877,
      "Bore": 4878,
      "Black": 4879,
      "BALD": 4880,
      "Ch": 4881,
      "Chi": 4882,
      "Cer": 4883,
      "Cad": 4884,
      "Cir": 4885,
      "Cith": 4886,
      "CENT": 4887,
      "CON": 4888,
      "CRI": 4889,
      "Dis": 4890,
      "Dry": 4891,
      "Eris": 4892,
      "FA": 4893,
      "Fear": 4894,
      "FOR": 4895,
      "Fore": 4896,
      "GH": 4897,
      "Gany": 4898,
      "GAR": 4899,
      "Glimp": 4900,
      "GLI": 4901,
      "HO": 4902,
      "Har": 4903,
      "Hard": 4904,
      "Hours": 4905,
      "IF": 4906,
      "IT": 4907,
      "IV": 4908,
      "ILL": 4909,
      "ICE": 4910,
      "Jup": 4911,
      "JAMES": 4912,
      "LV": 4913,
      "Ler": 4914,
      "List": 4915,
      "LON": 4916,
      "LIS": 4917,
      "MP": 4918,
      "May": 4919,
      "Mountain": 4920,
      "Mars": 4921,
      "NE": 4922,
      "Nay": 4923,
      "Nine": 4924,
      "Night": 4925,
      "NES": 4926,
      "NAMES": 4927,
      "Oft": 4928,
      "Omphal": 4929,
      "PH": 4930,
      "Pē": 4931,
      "Put": 4932,
      "Pind": 4933,
      "RY": 4934,
      "Rhip": 4935,
      "Ref": 4936,
      "SU": 4937,
      "St": 4938,
      "Sand": 4939,
      "Swe": 4940,
      "Sil": 4941,
      "Stre": 4942,
      "Stop": 4943,
      "Speak": 4944,
      "SCRI": 4945,
      "TS": 4946,
      "Ti": 4947,
      "Tar": 4948,
      "Tened": 4949,
      "Thy": 4950,
      "Take": 4951,
      "Tĕl": 4952,
      "Talthy": 4953,
      "UN": 4954,
      "Un": 4955,
      "VI": 4956,
      "Vain": 4957,
      "VES": 4958,
      "WO": 4959,
      "Whe": 4960,
      "War": 4961,
      "West": 4962,
      "Wel": 4963,
      "Wilt": 4964,
      "Waste": 4965,
      "XX": 4966,
      "Xan": 4967,
      "XII": 4968,
      "XIII": 4969,
      "Ye": 4970,
      "Years": 4971,
      "_Who": 4972,
      "_Odyssey_": 4973,
      "az": 4974,
      "ais": 4975,
      "ave": 4976,
      "alo": 4977,
      "aves": 4978,
      "afar": 4979,
      "alive": 4980,
      "alighted": 4981,
      "auth": 4982,
      "ameia": 4983,
      "bt": 4984,
      "ball": 4985,
      "bag": 4986,
      "bone": 4987,
      "bend": 4988,
      "bans": 4989,
      "bread": 4990,
      "bill": 4991,
      "bask": 4992,
      "bius": 4993,
      "bought": 4994,
      "bending": 4995,
      "batt": 4996,
      "ci": 4997,
      "cas": 4998,
      "cis": 4999
    },
    "merges": [
      [
        "h",
        "e"
      ],
      [
        "t",
        "he"
      ],
      [
        "a",
        "n"
      ],
      [
        "i",
        "n"
      ],
      [
        "an",
        "d"
      ],
      [
        "r",
        "e"
      ],
      [
        "t",
        "h"
      ],
      [
        "o",
        "f"
      ],
      [
        "t",
        "o"
      ],
      [
        "h",
        "i"
      ],
      [
        "o",
        "u"
      ],
      [
        "o",
        "n"
      ],
      [
        "e",
        "d"
      ],
      [
        "e",
        "n"
      ],
      [
        "e",
        "r"
      ],
      [
        "e",
        "s"
      ],
      [
        "a",
        "s"
      ],
      [
        "a",
        "r"
      ],
      [
        "l",
        "l"
      ],
      [
        "a",
        "t"
      ],
      [
        "o",
        "r"
      ],
      [
        "in",
        "g"
      ],
      [
        "u",
        "s"
      ],
      [
        "s",
        "e"
      ],
      [
        "h",
        "a"
      ],
      [
        "r",
        "o"
      ],
      [
        "i",
        "s"
      ],
      [
        "m",
        "e"
      ],
      [
        "l",
        "e"
      ],
      [
        "l",
        "d"
      ],
      [
        "w",
        "i"
      ],
      [
        "hi",
        "s"
      ],
      [
        "b",
        "e"
      ],
      [
        "h",
        "o"
      ],
      [
        "s",
        "t"
      ],
      [
        "g",
        "h"
      ],
      [
        "i",
        "t"
      ],
      [
        "a",
        "c"
      ],
      [
        "r",
        "i"
      ],
      [
        "w",
        "e"
      ],
      [
        "n",
        "o"
      ],
      [
        "a",
        "i"
      ],
      [
        "v",
        "e"
      ],
      [
        "a",
        "y"
      ],
      [
        "l",
        "y"
      ],
      [
        "a",
        "d"
      ],
      [
        "c",
        "h"
      ],
      [
        "f",
        "or"
      ],
      [
        "wi",
        "th"
      ],
      [
        "gh",
        "t"
      ],
      [
        "w",
        "as"
      ],
      [
        "th",
        "at"
      ],
      [
        "n",
        "d"
      ],
      [
        "l",
        "i"
      ],
      [
        "l",
        "o"
      ],
      [
        "T",
        "he"
      ],
      [
        "y",
        "ou"
      ],
      [
        "u",
        "t"
      ],
      [
        "the",
        "r"
      ],
      [
        "hi",
        "m"
      ],
      [
        "i",
        "r"
      ],
      [
        "d",
        "e"
      ],
      [
        "a",
        "l"
      ],
      [
        "a",
        "ll"
      ],
      [
        "ha",
        "d"
      ],
      [
        "en",
        "t"
      ],
      [
        "v",
        "er"
      ],
      [
        "u",
        "p"
      ],
      [
        "w",
        "hi"
      ],
      [
        "he",
        "r"
      ],
      [
        "a",
        "in"
      ],
      [
        "o",
        "w"
      ],
      [
        "u",
        "n"
      ],
      [
        "s",
        "o"
      ],
      [
        "re",
        "d"
      ],
      [
        "on",
        "g"
      ],
      [
        "c",
        "e"
      ],
      [
        "a",
        "m"
      ],
      [
        "a",
        "g"
      ],
      [
        "the",
        "y"
      ],
      [
        "f",
        "e"
      ],
      [
        "ro",
        "m"
      ],
      [
        "es",
        "s"
      ],
      [
        "as",
        "t"
      ],
      [
        "n",
        "e"
      ],
      [
        "ou",
        "ld"
      ],
      [
        "ar",
        "d"
      ],
      [
        "c",
        "a"
      ],
      [
        "ai",
        "d"
      ],
      [
        "g",
        "o"
      ],
      [
        "e",
        "t"
      ],
      [
        "on",
        "e"
      ],
      [
        "c",
        "o"
      ],
      [
        "w",
        "he"
      ],
      [
        "u",
        "r"
      ],
      [
        "f",
        "rom"
      ],
      [
        "w",
        "ho"
      ],
      [
        "m",
        "o"
      ],
      [
        "H",
        "e"
      ],
      [
        "no",
        "t"
      ],
      [
        "A",
        "nd"
      ],
      [
        "es",
        "t"
      ],
      [
        "whi",
        "ch"
      ],
      [
        "m",
        "y"
      ],
      [
        "up",
        "on"
      ],
      [
        "m",
        "an"
      ],
      [
        "t",
        "e"
      ],
      [
        "i",
        "l"
      ],
      [
        "the",
        "m"
      ],
      [
        "f",
        "o"
      ],
      [
        "k",
        "e"
      ],
      [
        "er",
        "s"
      ],
      [
        "the",
        "ir"
      ],
      [
        "d",
        "s"
      ],
      [
        "y",
        "s"
      ],
      [
        "s",
        "p"
      ],
      [
        "f",
        "t"
      ],
      [
        "b",
        "y"
      ],
      [
        "g",
        "re"
      ],
      [
        "ha",
        "ll"
      ],
      [
        "we",
        "re"
      ],
      [
        "m",
        "en"
      ],
      [
        "ou",
        "t"
      ],
      [
        "s",
        "he"
      ],
      [
        "n",
        "t"
      ],
      [
        "ha",
        "ve"
      ],
      [
        "The",
        "n"
      ],
      [
        "p",
        "l"
      ],
      [
        "no",
        "w"
      ],
      [
        "O",
        "d"
      ],
      [
        "s",
        "aid"
      ],
      [
        "ys",
        "se"
      ],
      [
        "Od",
        "ysse"
      ],
      [
        "b",
        "o"
      ],
      [
        "k",
        "ing"
      ],
      [
        "r",
        "ou"
      ],
      [
        "ou",
        "r"
      ],
      [
        "f",
        "a"
      ],
      [
        "m",
        "i"
      ],
      [
        "Odysse",
        "us"
      ],
      [
        "t",
        "i"
      ],
      [
        "to",
        "r"
      ],
      [
        "th",
        "is"
      ],
      [
        "o",
        "d"
      ],
      [
        "ac",
        "e"
      ],
      [
        "v",
        "en"
      ],
      [
        "w",
        "or"
      ],
      [
        "gre",
        "at"
      ],
      [
        ".",
        "\""
      ],
      [
        "u",
        "l"
      ],
      [
        "s",
        "a"
      ],
      [
        "b",
        "ut"
      ],
      [
        "ou",
        "nt"
      ],
      [
        "d",
        "o"
      ],
      [
        "e",
        "ar"
      ],
      [
        "in",
        "d"
      ],
      [
        "a",
        "re"
      ],
      [
        "s",
        "h"
      ],
      [
        "whe",
        "n"
      ],
      [
        "p",
        "e"
      ],
      [
        "th",
        "ou"
      ],
      [
        ")",
        ","
      ],
      [
        "ar",
        "t"
      ],
      [
        "p",
        "le"
      ],
      [
        "d",
        "ay"
      ],
      [
        "in",
        "to"
      ],
      [
        "en",
        "d"
      ],
      [
        "fa",
        "ther"
      ],
      [
        "B",
        "ut"
      ],
      [
        "c",
        "k"
      ],
      [
        "l",
        "ong"
      ],
      [
        "an",
        "g"
      ],
      [
        "ro",
        "w"
      ],
      [
        "w",
        "ay"
      ],
      [
        "the",
        "re"
      ],
      [
        "f",
        "i"
      ],
      [
        "o",
        "ld"
      ],
      [
        "ow",
        "n"
      ],
      [
        ",",
        "\""
      ],
      [
        "l",
        "and"
      ],
      [
        "l",
        "ed"
      ],
      [
        "s",
        "i"
      ],
      [
        "wi",
        "ll"
      ],
      [
        "w",
        "o"
      ],
      [
        "se",
        "l"
      ],
      [
        "ca",
        "me"
      ],
      [
        "w",
        "ould"
      ],
      [
        "st",
        "r"
      ],
      [
        "s",
        "on"
      ],
      [
        "v",
        "es"
      ],
      [
        "t",
        "a"
      ],
      [
        "se",
        "a"
      ],
      [
        "an",
        "s"
      ],
      [
        "-",
        "-"
      ],
      [
        "r",
        "a"
      ],
      [
        "q",
        "u"
      ],
      [
        "s",
        "hall"
      ],
      [
        "c",
        "hi"
      ],
      [
        "u",
        "re"
      ],
      [
        "i",
        "d"
      ],
      [
        "s",
        "to"
      ],
      [
        "g",
        "i"
      ],
      [
        "ou",
        "nd"
      ],
      [
        "l",
        "a"
      ],
      [
        "o",
        "k"
      ],
      [
        "e",
        "ver"
      ],
      [
        "p",
        "o"
      ],
      [
        "se",
        "e"
      ],
      [
        "l",
        "ess"
      ],
      [
        "he",
        "d"
      ],
      [
        "the",
        "n"
      ],
      [
        "ho",
        "w"
      ],
      [
        "en",
        "e"
      ],
      [
        "is",
        "t"
      ],
      [
        "b",
        "le"
      ],
      [
        "f",
        "ai"
      ],
      [
        "he",
        "ro"
      ],
      [
        "whe",
        "re"
      ],
      [
        "fo",
        "re"
      ],
      [
        "w",
        "ard"
      ],
      [
        "you",
        "r"
      ],
      [
        "r",
        "y"
      ],
      [
        "m",
        "p"
      ],
      [
        "f",
        "ul"
      ],
      [
        "s",
        "u"
      ],
      [
        "l",
        "es"
      ],
      [
        "hi",
        "p"
      ],
      [
        "a",
        "th"
      ],
      [
        "e",
        "p"
      ],
      [
        "an",
        "t"
      ],
      [
        "ur",
        "n"
      ],
      [
        "o",
        "ther"
      ],
      [
        "c",
        "ar"
      ],
      [
        "u",
        "ght"
      ],
      [
        "m",
        "b"
      ],
      [
        "t",
        "er"
      ],
      [
        "we",
        "ll"
      ],
      [
        "h",
        "at"
      ],
      [
        "p",
        "r"
      ],
      [
        "ou",
        "s"
      ],
      [
        "co",
        "me"
      ],
      [
        "ag",
        "ain"
      ],
      [
        "h",
        "and"
      ],
      [
        "be",
        "en"
      ],
      [
        "g",
        "a"
      ],
      [
        "n",
        "g"
      ],
      [
        "s",
        "hip"
      ],
      [
        "mi",
        "ght"
      ],
      [
        "r",
        "u"
      ],
      [
        "ad",
        "e"
      ],
      [
        "o",
        "t"
      ],
      [
        "d",
        "a"
      ],
      [
        "k",
        "now"
      ],
      [
        "i",
        "on"
      ],
      [
        "o",
        "se"
      ],
      [
        "as",
        "s"
      ],
      [
        "i",
        "a"
      ],
      [
        "in",
        "e"
      ],
      [
        "re",
        "ad"
      ],
      [
        "re",
        "s"
      ],
      [
        "ag",
        "e"
      ],
      [
        "ri",
        "ed"
      ],
      [
        "g",
        "e"
      ],
      [
        "it",
        "s"
      ],
      [
        "a",
        "b"
      ],
      [
        "a",
        "p"
      ],
      [
        "t",
        "urn"
      ],
      [
        "us",
        "t"
      ],
      [
        "f",
        "ar"
      ],
      [
        "m",
        "or"
      ],
      [
        "ount",
        "ain"
      ],
      [
        "m",
        "ed"
      ],
      [
        "man",
        "y"
      ],
      [
        "H",
        "er"
      ],
      [
        "g",
        "r"
      ],
      [
        "so",
        "me"
      ],
      [
        "sh",
        "ould"
      ],
      [
        "e",
        "le"
      ],
      [
        "i",
        "c"
      ],
      [
        "k",
        "ed"
      ],
      [
        "th",
        "an"
      ],
      [
        "ac",
        "h"
      ],
      [
        "un",
        "t"
      ],
      [
        "mo",
        "re"
      ],
      [
        "m",
        "ountain"
      ],
      [
        "l",
        "en"
      ],
      [
        "th",
        "ing"
      ],
      [
        "ti",
        "me"
      ],
      [
        "w",
        "ent"
      ],
      [
        "fai",
        "r"
      ],
      [
        "t",
        "le"
      ],
      [
        "v",
        "ed"
      ],
      [
        "lo",
        "w"
      ],
      [
        "am",
        "ong"
      ],
      [
        "T",
        "ro"
      ],
      [
        "s",
        "ho"
      ],
      [
        "a",
        "k"
      ],
      [
        "He",
        "ll"
      ],
      [
        "i",
        "ll"
      ],
      [
        "p",
        "p"
      ],
      [
        "w",
        "ar"
      ],
      [
        "d",
        "own"
      ],
      [
        "a",
        "ut"
      ],
      [
        "e",
        "y"
      ],
      [
        "w",
        "hat"
      ],
      [
        "an",
        "y"
      ],
      [
        "be",
        "fore"
      ],
      [
        "\"",
        "’"
      ],
      [
        "A",
        "r"
      ],
      [
        "f",
        "ri"
      ],
      [
        "t",
        "al"
      ],
      [
        "en",
        "ed"
      ],
      [
        ",",
        "--"
      ],
      [
        "it",
        "y"
      ],
      [
        "ac",
        "k"
      ],
      [
        "e",
        "ven"
      ],
      [
        ".",
        "’"
      ],
      [
        "li",
        "ke"
      ],
      [
        "m",
        "es"
      ],
      [
        "on",
        "d"
      ],
      [
        "ar",
        "k"
      ],
      [
        "sel",
        "f"
      ],
      [
        "ab",
        "out"
      ],
      [
        "c",
        "ould"
      ],
      [
        "l",
        "ad"
      ],
      [
        "m",
        "on"
      ],
      [
        "p",
        "ri"
      ],
      [
        "w",
        "a"
      ],
      [
        "he",
        "art"
      ],
      [
        "ac",
        "les"
      ],
      [
        "b",
        "ro"
      ],
      [
        "re",
        "e"
      ],
      [
        "you",
        "ng"
      ],
      [
        "o",
        "ver"
      ],
      [
        "be",
        "aut"
      ],
      [
        "n",
        "ess"
      ],
      [
        "re",
        "w"
      ],
      [
        "u",
        "nd"
      ],
      [
        "ho",
        "me"
      ],
      [
        "Her",
        "acles"
      ],
      [
        "P",
        "ar"
      ],
      [
        "s",
        "ai"
      ],
      [
        "s",
        "k"
      ],
      [
        "li",
        "ght"
      ],
      [
        "b",
        "r"
      ],
      [
        "the",
        "se"
      ],
      [
        "whi",
        "le"
      ],
      [
        "ft",
        "er"
      ],
      [
        "o",
        "s"
      ],
      [
        "v",
        "ing"
      ],
      [
        "rou",
        "gh"
      ],
      [
        "ll",
        "ow"
      ],
      [
        "i",
        "f"
      ],
      [
        "m",
        "s"
      ],
      [
        "th",
        "y"
      ],
      [
        "we",
        "red"
      ],
      [
        "rou",
        "ght"
      ],
      [
        "g",
        "u"
      ],
      [
        "n",
        "ing"
      ],
      [
        "he",
        "n"
      ],
      [
        "ear",
        "th"
      ],
      [
        "ever",
        "y"
      ],
      [
        "A",
        "po"
      ],
      [
        "e",
        "us"
      ],
      [
        "o",
        "l"
      ],
      [
        "ll",
        "o"
      ],
      [
        "or",
        "s"
      ],
      [
        "Apo",
        "llo"
      ],
      [
        "I",
        "t"
      ],
      [
        "a",
        "way"
      ],
      [
        "l",
        "t"
      ],
      [
        "l",
        "it"
      ],
      [
        "th",
        "rough"
      ],
      [
        "go",
        "ld"
      ],
      [
        "da",
        "ught"
      ],
      [
        "re",
        "st"
      ],
      [
        "I",
        "th"
      ],
      [
        "w",
        "at"
      ],
      [
        "te",
        "ll"
      ],
      [
        "ans",
        "wered"
      ],
      [
        "Ith",
        "ac"
      ],
      [
        "e",
        "f"
      ],
      [
        "h",
        "ast"
      ],
      [
        "m",
        "ent"
      ],
      [
        "s",
        "un"
      ],
      [
        "?",
        "\""
      ],
      [
        "b",
        "ack"
      ],
      [
        "c",
        "an"
      ],
      [
        "c",
        "all"
      ],
      [
        "m",
        "ade"
      ],
      [
        "mo",
        "st"
      ],
      [
        "tor",
        "y"
      ],
      [
        ",",
        "’"
      ],
      [
        "e",
        "l"
      ],
      [
        "m",
        "er"
      ],
      [
        "u",
        "ll"
      ],
      [
        "to",
        "ld"
      ],
      [
        "ho",
        "ld"
      ],
      [
        "ne",
        "w"
      ],
      [
        "wor",
        "ds"
      ],
      [
        "c",
        "ha"
      ],
      [
        "he",
        "ard"
      ],
      [
        "The",
        "re"
      ],
      [
        "sto",
        "od"
      ],
      [
        "Z",
        "eus"
      ],
      [
        "b",
        "rought"
      ],
      [
        "h",
        "as"
      ],
      [
        "i",
        "an"
      ],
      [
        "m",
        "a"
      ],
      [
        "p",
        "er"
      ],
      [
        "as",
        "ked"
      ],
      [
        "ri",
        "ght"
      ],
      [
        "Ithac",
        "a"
      ],
      [
        "c",
        "ity"
      ],
      [
        "d",
        "i"
      ],
      [
        "ple",
        "as"
      ],
      [
        "W",
        "hen"
      ],
      [
        "a",
        "fter"
      ],
      [
        "h",
        "us"
      ],
      [
        "ver",
        "y"
      ],
      [
        "co",
        "m"
      ],
      [
        "hero",
        "es"
      ],
      [
        "pr",
        "ay"
      ],
      [
        "c",
        "l"
      ],
      [
        "t",
        "re"
      ],
      [
        "on",
        "s"
      ],
      [
        "st",
        "re"
      ],
      [
        "ac",
        "ed"
      ],
      [
        "c",
        "t"
      ],
      [
        "e",
        "ld"
      ],
      [
        "p",
        "hi"
      ],
      [
        "s",
        "ay"
      ],
      [
        "t",
        "us"
      ],
      [
        "the",
        "e"
      ],
      [
        "of",
        "t"
      ],
      [
        "te",
        "m"
      ],
      [
        "sa",
        "w"
      ],
      [
        "s",
        "at"
      ],
      [
        "y",
        "et"
      ],
      [
        "Tro",
        "y"
      ],
      [
        "Hell",
        "as"
      ],
      [
        "ey",
        "es"
      ],
      [
        "b",
        "u"
      ],
      [
        "d",
        "id"
      ],
      [
        "k",
        "ind"
      ],
      [
        "t",
        "r"
      ],
      [
        "er",
        "t"
      ],
      [
        "us",
        "e"
      ],
      [
        "pl",
        "ace"
      ],
      [
        "b",
        "l"
      ],
      [
        "n",
        "or"
      ],
      [
        "o",
        "y"
      ],
      [
        "on",
        "ce"
      ],
      [
        "ed",
        "s"
      ],
      [
        "ne",
        "ver"
      ],
      [
        "b",
        "ow"
      ],
      [
        "ear",
        "s"
      ],
      [
        "str",
        "ang"
      ],
      [
        "daught",
        "er"
      ],
      [
        "P",
        "y"
      ],
      [
        "d",
        "ist"
      ],
      [
        "n",
        "ed"
      ],
      [
        "mo",
        "ther"
      ],
      [
        "read",
        "y"
      ],
      [
        "ele",
        "us"
      ],
      [
        "H",
        "E"
      ],
      [
        "d",
        "es"
      ],
      [
        "p",
        "ass"
      ],
      [
        "z",
        "e"
      ],
      [
        "to",
        "ok"
      ],
      [
        "hi",
        "gh"
      ],
      [
        "li",
        "fe"
      ],
      [
        "ir",
        "st"
      ],
      [
        "sp",
        "e"
      ],
      [
        "sai",
        "l"
      ],
      [
        "I",
        "n"
      ],
      [
        "K",
        "ing"
      ],
      [
        "s",
        "wi"
      ],
      [
        "th",
        "us"
      ],
      [
        "at",
        "e"
      ],
      [
        "him",
        "self"
      ],
      [
        "who",
        "m"
      ],
      [
        "lit",
        "tle"
      ],
      [
        "m",
        "ay"
      ],
      [
        "m",
        "aid"
      ],
      [
        "s",
        "il"
      ],
      [
        "ar",
        "row"
      ],
      [
        "c",
        "es"
      ],
      [
        "s",
        "ha"
      ],
      [
        "s",
        "we"
      ],
      [
        "w",
        "is"
      ],
      [
        "ing",
        "s"
      ],
      [
        "lo",
        "s"
      ],
      [
        "mb",
        "er"
      ],
      [
        "b",
        "es"
      ],
      [
        "b",
        "or"
      ],
      [
        "be",
        "g"
      ],
      [
        "ast",
        "er"
      ],
      [
        "He",
        "len"
      ],
      [
        "si",
        "de"
      ],
      [
        "maid",
        "en"
      ],
      [
        "F",
        "or"
      ],
      [
        "L",
        "a"
      ],
      [
        "P",
        "e"
      ],
      [
        "S",
        "o"
      ],
      [
        "c",
        "ount"
      ],
      [
        "h",
        "ar"
      ],
      [
        "i",
        "ck"
      ],
      [
        "s",
        "tory"
      ],
      [
        "an",
        "ce"
      ],
      [
        "to",
        "w"
      ],
      [
        "on",
        "ly"
      ],
      [
        "ha",
        "pp"
      ],
      [
        "le",
        "ft"
      ],
      [
        "go",
        "ds"
      ],
      [
        "wor",
        "ld"
      ],
      [
        "thou",
        "ght"
      ],
      [
        "chi",
        "ld"
      ],
      [
        "swi",
        "ft"
      ],
      [
        "c",
        "ho"
      ],
      [
        "d",
        "d"
      ],
      [
        "f",
        "irst"
      ],
      [
        "i",
        "ght"
      ],
      [
        "w",
        "in"
      ],
      [
        "ri",
        "ch"
      ],
      [
        "might",
        "y"
      ],
      [
        "sho",
        "re"
      ],
      [
        "M",
        "y"
      ],
      [
        "k",
        "s"
      ],
      [
        "p",
        "i"
      ],
      [
        "he",
        "ad"
      ],
      [
        "ar",
        "s"
      ],
      [
        "de",
        "ath"
      ],
      [
        "chi",
        "ll"
      ],
      [
        "gr",
        "and"
      ],
      [
        "und",
        "er"
      ],
      [
        "A",
        "chill"
      ],
      [
        "c",
        "our"
      ],
      [
        "f",
        "ull"
      ],
      [
        "i",
        "ful"
      ],
      [
        "n",
        "a"
      ],
      [
        "p",
        "t"
      ],
      [
        "p",
        "al"
      ],
      [
        "p",
        "art"
      ],
      [
        "wi",
        "fe"
      ],
      [
        "we",
        "l"
      ],
      [
        "li",
        "os"
      ],
      [
        "am",
        "ed"
      ],
      [
        "fo",
        "ot"
      ],
      [
        "res",
        "s"
      ],
      [
        "swe",
        "et"
      ],
      [
        "Achill",
        "es"
      ],
      [
        "L",
        "aced"
      ],
      [
        "i",
        "ous"
      ],
      [
        "l",
        "ay"
      ],
      [
        "æ",
        "mon"
      ],
      [
        "he",
        "l"
      ],
      [
        "st",
        "ill"
      ],
      [
        "lo",
        "ve"
      ],
      [
        "unt",
        "il"
      ],
      [
        "beaut",
        "iful"
      ],
      [
        "Laced",
        "æmon"
      ],
      [
        "c",
        "he"
      ],
      [
        "u",
        "e"
      ],
      [
        "me",
        "m"
      ],
      [
        "le",
        "t"
      ],
      [
        "li",
        "on"
      ],
      [
        "go",
        "od"
      ],
      [
        "day",
        "s"
      ],
      [
        "turn",
        "ed"
      ],
      [
        "fri",
        "end"
      ],
      [
        "c",
        "lo"
      ],
      [
        "k",
        "en"
      ],
      [
        "s",
        "ent"
      ],
      [
        "to",
        "ward"
      ],
      [
        "ll",
        "ed"
      ],
      [
        "se",
        "t"
      ],
      [
        "pl",
        "ain"
      ],
      [
        "mi",
        "us"
      ],
      [
        "gold",
        "en"
      ],
      [
        "call",
        "ed"
      ],
      [
        ".",
        "*"
      ],
      [
        "P",
        "he"
      ],
      [
        "c",
        "us"
      ],
      [
        "d",
        "well"
      ],
      [
        "e",
        "x"
      ],
      [
        "f",
        "er"
      ],
      [
        "st",
        "e"
      ],
      [
        "hand",
        "s"
      ],
      [
        "Phe",
        "mius"
      ],
      [
        "E",
        "ur"
      ],
      [
        "a",
        "bo"
      ],
      [
        "h",
        "ou"
      ],
      [
        "s",
        "s"
      ],
      [
        "t",
        "wo"
      ],
      [
        "en",
        "ds"
      ],
      [
        "lo",
        "ok"
      ],
      [
        "ca",
        "use"
      ],
      [
        "fo",
        "llow"
      ],
      [
        "pe",
        "o"
      ],
      [
        "ship",
        "s"
      ],
      [
        "ma",
        "ke"
      ],
      [
        "pal",
        "ace"
      ],
      [
        "P",
        "eleus"
      ],
      [
        "i",
        "de"
      ],
      [
        "l",
        "ast"
      ],
      [
        "m",
        "ust"
      ],
      [
        "o",
        "p"
      ],
      [
        "s",
        "and"
      ],
      [
        "w",
        "all"
      ],
      [
        "ar",
        "ound"
      ],
      [
        "wi",
        "ld"
      ],
      [
        "il",
        "t"
      ],
      [
        "hall",
        "s"
      ],
      [
        "wor",
        "d"
      ],
      [
        "str",
        "ong"
      ],
      [
        "Par",
        "is"
      ],
      [
        "!",
        "\""
      ],
      [
        "N",
        "es"
      ],
      [
        "T",
        "HE"
      ],
      [
        "i",
        "ther"
      ],
      [
        "th",
        "ose"
      ],
      [
        "ro",
        "ck"
      ],
      [
        "st",
        "and"
      ],
      [
        "her",
        "a"
      ],
      [
        "ta",
        "ke"
      ],
      [
        "gi",
        "ve"
      ],
      [
        "ga",
        "ve"
      ],
      [
        "Nes",
        "tor"
      ],
      [
        "c",
        "on"
      ],
      [
        "c",
        "ried"
      ],
      [
        "f",
        "ound"
      ],
      [
        "n",
        "y"
      ],
      [
        "t",
        "ed"
      ],
      [
        "y",
        "ears"
      ],
      [
        "whi",
        "te"
      ],
      [
        "ves",
        "sel"
      ],
      [
        "pr",
        "in"
      ],
      [
        "peo",
        "ple"
      ],
      [
        "A",
        "t"
      ],
      [
        "h",
        "y"
      ],
      [
        "i",
        "ce"
      ],
      [
        "l",
        "ist"
      ],
      [
        "p",
        "ut"
      ],
      [
        "ch",
        "as"
      ],
      [
        "rou",
        "nd"
      ],
      [
        "la",
        "us"
      ],
      [
        "mor",
        "tal"
      ],
      [
        "bro",
        "ther"
      ],
      [
        "M",
        "ene"
      ],
      [
        "S",
        "e"
      ],
      [
        "f",
        "lo"
      ],
      [
        "h",
        "unt"
      ],
      [
        "l",
        "ing"
      ],
      [
        "m",
        "aster"
      ],
      [
        "at",
        "es"
      ],
      [
        "at",
        "ion"
      ],
      [
        "land",
        "s"
      ],
      [
        "bu",
        "ilt"
      ],
      [
        "I",
        "phi"
      ],
      [
        "h",
        "on"
      ],
      [
        "s",
        "er"
      ],
      [
        "no",
        "ble"
      ],
      [
        "her",
        "d"
      ],
      [
        "do",
        "m"
      ],
      [
        "ert",
        "es"
      ],
      [
        "La",
        "ertes"
      ],
      [
        "na",
        "me"
      ],
      [
        "Mene",
        "laus"
      ],
      [
        "M",
        "ess"
      ],
      [
        "c",
        "re"
      ],
      [
        "c",
        "ou"
      ],
      [
        "p",
        "ro"
      ],
      [
        "s",
        "le"
      ],
      [
        "s",
        "ad"
      ],
      [
        "u",
        "ch"
      ],
      [
        "an",
        "c"
      ],
      [
        "be",
        "t"
      ],
      [
        "ai",
        "r"
      ],
      [
        "The",
        "y"
      ],
      [
        "you",
        "th"
      ],
      [
        "ag",
        "er"
      ],
      [
        "chi",
        "ef"
      ],
      [
        "car",
        "ried"
      ],
      [
        "ond",
        "er"
      ],
      [
        "toward",
        "s"
      ],
      [
        "f",
        "low"
      ],
      [
        "p",
        "ast"
      ],
      [
        "s",
        "m"
      ],
      [
        "s",
        "ou"
      ],
      [
        "t",
        "ing"
      ],
      [
        "in",
        "s"
      ],
      [
        "en",
        "ce"
      ],
      [
        "le",
        "a"
      ],
      [
        "qu",
        "e"
      ],
      [
        "again",
        "st"
      ],
      [
        "fri",
        "ends"
      ],
      [
        "A",
        "u"
      ],
      [
        "A",
        "then"
      ],
      [
        "A",
        "ga"
      ],
      [
        "M",
        "ount"
      ],
      [
        "d",
        "ri"
      ],
      [
        "n",
        "on"
      ],
      [
        "n",
        "one"
      ],
      [
        "ro",
        "ss"
      ],
      [
        "so",
        "on"
      ],
      [
        "thou",
        "gh"
      ],
      [
        "mp",
        "h"
      ],
      [
        "know",
        "n"
      ],
      [
        "mem",
        "non"
      ],
      [
        "Eur",
        "y"
      ],
      [
        "abo",
        "ve"
      ],
      [
        "que",
        "en"
      ],
      [
        "Aga",
        "memnon"
      ],
      [
        "b",
        "and"
      ],
      [
        "b",
        "ir"
      ],
      [
        "b",
        "ard"
      ],
      [
        "g",
        "ri"
      ],
      [
        "i",
        "th"
      ],
      [
        "m",
        "at"
      ],
      [
        "t",
        "ru"
      ],
      [
        "w",
        "on"
      ],
      [
        "he",
        "a"
      ],
      [
        "at",
        "tle"
      ],
      [
        "for",
        "th"
      ],
      [
        "bo",
        "y"
      ],
      [
        "br",
        "ing"
      ],
      [
        "count",
        "ry"
      ],
      [
        "E",
        "N"
      ],
      [
        "e",
        "ach"
      ],
      [
        "k",
        "new"
      ],
      [
        "n",
        "ass"
      ],
      [
        "t",
        "en"
      ],
      [
        "w",
        "onder"
      ],
      [
        "he",
        "re"
      ],
      [
        "wi",
        "se"
      ],
      [
        "be",
        "ast"
      ],
      [
        "she",
        "p"
      ],
      [
        "ure",
        "s"
      ],
      [
        "gi",
        "ven"
      ],
      [
        "thing",
        "s"
      ],
      [
        "wa",
        "it"
      ],
      [
        "Par",
        "nass"
      ],
      [
        "strang",
        "e"
      ],
      [
        "pass",
        "ed"
      ],
      [
        "Parnass",
        "us"
      ],
      [
        "P",
        "h"
      ],
      [
        "b",
        "ri"
      ],
      [
        "c",
        "le"
      ],
      [
        "f",
        "ace"
      ],
      [
        "g",
        "l"
      ],
      [
        "m",
        "ar"
      ],
      [
        "m",
        "ind"
      ],
      [
        "s",
        "it"
      ],
      [
        "w",
        "r"
      ],
      [
        "to",
        "ly"
      ],
      [
        "is",
        "hed"
      ],
      [
        "for",
        "t"
      ],
      [
        "li",
        "ve"
      ],
      [
        "ir",
        "on"
      ],
      [
        "fe",
        "ll"
      ],
      [
        "pleas",
        "ant"
      ],
      [
        "Au",
        "toly"
      ],
      [
        "Autoly",
        "cus"
      ],
      [
        "D",
        "e"
      ],
      [
        "c",
        "hed"
      ],
      [
        "d",
        "ing"
      ],
      [
        "d",
        "ark"
      ],
      [
        "n",
        "ight"
      ],
      [
        "o",
        "m"
      ],
      [
        "o",
        "ds"
      ],
      [
        "t",
        "ent"
      ],
      [
        "re",
        "turn"
      ],
      [
        "as",
        "on"
      ],
      [
        "ar",
        "ms"
      ],
      [
        "is",
        "h"
      ],
      [
        "is",
        "ed"
      ],
      [
        "be",
        "y"
      ],
      [
        "sp",
        "r"
      ],
      [
        "beaut",
        "y"
      ],
      [
        "beg",
        "an"
      ],
      [
        "Mess",
        "ene"
      ],
      [
        "Athen",
        "é"
      ],
      [
        "C",
        "a"
      ],
      [
        "E",
        "u"
      ],
      [
        "l",
        "aid"
      ],
      [
        "p",
        "re"
      ],
      [
        "s",
        "ong"
      ],
      [
        "en",
        "es"
      ],
      [
        "se",
        "en"
      ],
      [
        "be",
        "ar"
      ],
      [
        "with",
        "in"
      ],
      [
        "de",
        "ed"
      ],
      [
        "de",
        "ep"
      ],
      [
        "al",
        "one"
      ],
      [
        "fe",
        "ast"
      ],
      [
        "fi",
        "re"
      ],
      [
        "qu",
        "ick"
      ],
      [
        "id",
        "on"
      ],
      [
        "Ar",
        "go"
      ],
      [
        "wa",
        "ves"
      ],
      [
        "wat",
        "er"
      ],
      [
        "hou",
        "se"
      ],
      [
        "M",
        "ele"
      ],
      [
        "P",
        "ro"
      ],
      [
        "T",
        "y"
      ],
      [
        "d",
        "is"
      ],
      [
        "f",
        "all"
      ],
      [
        "f",
        "ind"
      ],
      [
        "i",
        "m"
      ],
      [
        "i",
        "es"
      ],
      [
        "j",
        "o"
      ],
      [
        "o",
        "ke"
      ],
      [
        "t",
        "ri"
      ],
      [
        "the",
        "us"
      ],
      [
        "or",
        "t"
      ],
      [
        "fe",
        "et"
      ],
      [
        "co",
        "s"
      ],
      [
        "est",
        "s"
      ],
      [
        "ti",
        "mes"
      ],
      [
        "fi",
        "lled"
      ],
      [
        "gi",
        "ft"
      ],
      [
        "Tro",
        "j"
      ],
      [
        "pp",
        "ed"
      ],
      [
        "hus",
        "band"
      ],
      [
        "tre",
        "es"
      ],
      [
        "happ",
        "y"
      ],
      [
        "ny",
        "mph"
      ],
      [
        "C",
        "he"
      ],
      [
        "I",
        "ol"
      ],
      [
        "e",
        "re"
      ],
      [
        "h",
        "ard"
      ],
      [
        "v",
        "oy"
      ],
      [
        "he",
        "ld"
      ],
      [
        "in",
        "k"
      ],
      [
        "at",
        "ed"
      ],
      [
        "ac",
        "ross"
      ],
      [
        "lo",
        "p"
      ],
      [
        "lo",
        "ved"
      ],
      [
        "fe",
        "red"
      ],
      [
        "ne",
        "ar"
      ],
      [
        "war",
        "ri"
      ],
      [
        "hast",
        "ened"
      ],
      [
        "grand",
        "father"
      ],
      [
        "Iol",
        "cos"
      ],
      [
        "2",
        "5"
      ],
      [
        "N",
        "o"
      ],
      [
        "P",
        "ose"
      ],
      [
        "R",
        "E"
      ],
      [
        "Y",
        "et"
      ],
      [
        "b",
        "a"
      ],
      [
        "b",
        "ra"
      ],
      [
        "d",
        "rew"
      ],
      [
        "g",
        "ed"
      ],
      [
        "j",
        "our"
      ],
      [
        "m",
        "us"
      ],
      [
        "r",
        "is"
      ],
      [
        "s",
        "or"
      ],
      [
        "z",
        "ed"
      ],
      [
        "in",
        "ess"
      ],
      [
        "re",
        "n"
      ],
      [
        "le",
        "ad"
      ],
      [
        "be",
        "ach"
      ],
      [
        "be",
        "cause"
      ],
      [
        "ca",
        "re"
      ],
      [
        "go",
        "d"
      ],
      [
        "end",
        "ed"
      ],
      [
        "long",
        "er"
      ],
      [
        "su",
        "ch"
      ],
      [
        "pri",
        "ze"
      ],
      [
        "Mele",
        "ager"
      ],
      [
        "Che",
        "iron"
      ],
      [
        "Pose",
        "idon"
      ],
      [
        "!",
        "’"
      ],
      [
        "A",
        "s"
      ],
      [
        "O",
        "r"
      ],
      [
        "b",
        "ade"
      ],
      [
        "c",
        "ast"
      ],
      [
        "e",
        "v"
      ],
      [
        "g",
        "ent"
      ],
      [
        "h",
        "ur"
      ],
      [
        "j",
        "oy"
      ],
      [
        "p",
        "rom"
      ],
      [
        "r",
        "ace"
      ],
      [
        "s",
        "ac"
      ],
      [
        "an",
        "other"
      ],
      [
        "or",
        "d"
      ],
      [
        "fe",
        "ar"
      ],
      [
        "ne",
        "y"
      ],
      [
        "sp",
        "oke"
      ],
      [
        "wo",
        "od"
      ],
      [
        "su",
        "f"
      ],
      [
        "cha",
        "mber"
      ],
      [
        "sil",
        "ver"
      ],
      [
        "hera",
        "ld"
      ],
      [
        "jour",
        "ney"
      ],
      [
        "P",
        "all"
      ],
      [
        "b",
        "re"
      ],
      [
        "d",
        "ed"
      ],
      [
        "f",
        "ru"
      ],
      [
        "m",
        "is"
      ],
      [
        "r",
        "ag"
      ],
      [
        "s",
        "ang"
      ],
      [
        "v",
        "is"
      ],
      [
        "w",
        "est"
      ],
      [
        "w",
        "ind"
      ],
      [
        "in",
        "deed"
      ],
      [
        "er",
        "r"
      ],
      [
        "ar",
        "ose"
      ],
      [
        "is",
        "land"
      ],
      [
        "le",
        "ar"
      ],
      [
        "ai",
        "ght"
      ],
      [
        "ad",
        "es"
      ],
      [
        "ch",
        "ar"
      ],
      [
        "with",
        "out"
      ],
      [
        "He",
        "re"
      ],
      [
        "Hell",
        "enes"
      ],
      [
        "Py",
        "los"
      ],
      [
        "Pe",
        "lion"
      ],
      [
        "tow",
        "n"
      ],
      [
        "look",
        "ed"
      ],
      [
        "quick",
        "ly"
      ],
      [
        "Ty",
        "nd"
      ],
      [
        "sor",
        "row"
      ],
      [
        "A",
        "l"
      ],
      [
        "I",
        "I"
      ],
      [
        "d",
        "on"
      ],
      [
        "e",
        "red"
      ],
      [
        "f",
        "le"
      ],
      [
        "h",
        "u"
      ],
      [
        "i",
        "ve"
      ],
      [
        "m",
        "uch"
      ],
      [
        "w",
        "ed"
      ],
      [
        "to",
        "ge"
      ],
      [
        "ch",
        "us"
      ],
      [
        "sa",
        "fe"
      ],
      [
        "are",
        "us"
      ],
      [
        "pe",
        "ace"
      ],
      [
        "other",
        "s"
      ],
      [
        "car",
        "ry"
      ],
      [
        "mor",
        "ning"
      ],
      [
        "mountain",
        "s"
      ],
      [
        "wat",
        "ers"
      ],
      [
        "tem",
        "ple"
      ],
      [
        "spe",
        "ak"
      ],
      [
        "dd",
        "en"
      ],
      [
        "clo",
        "se"
      ],
      [
        "wall",
        "s"
      ],
      [
        "Tynd",
        "areus"
      ],
      [
        "toge",
        "ther"
      ],
      [
        "1",
        "4"
      ],
      [
        "P",
        "ri"
      ],
      [
        "a",
        "ur"
      ],
      [
        "c",
        "ent"
      ],
      [
        "g",
        "et"
      ],
      [
        "m",
        "ing"
      ],
      [
        "o",
        "th"
      ],
      [
        "p",
        "h"
      ],
      [
        "s",
        "ing"
      ],
      [
        "s",
        "mo"
      ],
      [
        "t",
        "u"
      ],
      [
        "t",
        "ar"
      ],
      [
        "w",
        "and"
      ],
      [
        "w",
        "ine"
      ],
      [
        "th",
        "ree"
      ],
      [
        "ro",
        "ad"
      ],
      [
        "no",
        "thing"
      ],
      [
        "lo",
        "pe"
      ],
      [
        "lo",
        "chus"
      ],
      [
        "her",
        "ds"
      ],
      [
        "am",
        "es"
      ],
      [
        "He",
        "lios"
      ],
      [
        "sa",
        "me"
      ],
      [
        "way",
        "s"
      ],
      [
        "fi",
        "eld"
      ],
      [
        "str",
        "aight"
      ],
      [
        "ta",
        "ken"
      ],
      [
        "ng",
        "th"
      ],
      [
        "Ar",
        "tem"
      ],
      [
        "hel",
        "p"
      ],
      [
        "list",
        "en"
      ],
      [
        "Iphi",
        "tus"
      ],
      [
        "shep",
        "herd"
      ],
      [
        "bri",
        "de"
      ],
      [
        "ba",
        "be"
      ],
      [
        "Pri",
        "am"
      ],
      [
        "Artem",
        "is"
      ],
      [
        "1",
        "5"
      ],
      [
        "b",
        "lo"
      ],
      [
        "b",
        "right"
      ],
      [
        "c",
        "li"
      ],
      [
        "d",
        "y"
      ],
      [
        "g",
        "lad"
      ],
      [
        "i",
        "g"
      ],
      [
        "i",
        "ly"
      ],
      [
        "j",
        "a"
      ],
      [
        "n",
        "er"
      ],
      [
        "o",
        "med"
      ],
      [
        "s",
        "how"
      ],
      [
        "w",
        "ra"
      ],
      [
        "he",
        "ar"
      ],
      [
        "to",
        "o"
      ],
      [
        "as",
        "k"
      ],
      [
        "ac",
        "es"
      ],
      [
        "ri",
        "p"
      ],
      [
        "de",
        "ar"
      ],
      [
        "ard",
        "s"
      ],
      [
        "co",
        "mp"
      ],
      [
        "sp",
        "ok"
      ],
      [
        "mi",
        "d"
      ],
      [
        "pray",
        "ed"
      ],
      [
        "che",
        "s"
      ],
      [
        "prin",
        "ce"
      ],
      [
        "Se",
        "e"
      ],
      [
        "flo",
        "ck"
      ],
      [
        "Ca",
        "ly"
      ],
      [
        "warri",
        "ors"
      ],
      [
        "spok",
        "en"
      ],
      [
        "1",
        "6"
      ],
      [
        "A",
        "D"
      ],
      [
        "B",
        "e"
      ],
      [
        "O",
        "ne"
      ],
      [
        "P",
        "o"
      ],
      [
        "P",
        "al"
      ],
      [
        "W",
        "ith"
      ],
      [
        "b",
        "ene"
      ],
      [
        "d",
        "one"
      ],
      [
        "g",
        "ates"
      ],
      [
        "i",
        "tor"
      ],
      [
        "p",
        "s"
      ],
      [
        "p",
        "he"
      ],
      [
        "p",
        "ur"
      ],
      [
        "s",
        "ed"
      ],
      [
        "s",
        "sa"
      ],
      [
        "v",
        "o"
      ],
      [
        "x",
        "t"
      ],
      [
        "of",
        "fered"
      ],
      [
        "ou",
        "d"
      ],
      [
        "ha",
        "l"
      ],
      [
        "ri",
        "es"
      ],
      [
        "we",
        "en"
      ],
      [
        "de",
        "ad"
      ],
      [
        "al",
        "so"
      ],
      [
        "gre",
        "w"
      ],
      [
        "son",
        "s"
      ],
      [
        "see",
        "med"
      ],
      [
        "bro",
        "ad"
      ],
      [
        "sai",
        "led"
      ],
      [
        "sk",
        "y"
      ],
      [
        "sk",
        "ill"
      ],
      [
        "com",
        "r"
      ],
      [
        "stre",
        "ngth"
      ],
      [
        "dist",
        "ant"
      ],
      [
        "amed",
        "es"
      ],
      [
        "sle",
        "w"
      ],
      [
        "EN",
        "T"
      ],
      [
        "mus",
        "ic"
      ],
      [
        "Caly",
        "don"
      ],
      [
        "C",
        "or"
      ],
      [
        "C",
        "ent"
      ],
      [
        "P",
        "ene"
      ],
      [
        "T",
        "E"
      ],
      [
        "Y",
        "ou"
      ],
      [
        "a",
        "red"
      ],
      [
        "b",
        "ed"
      ],
      [
        "b",
        "us"
      ],
      [
        "b",
        "id"
      ],
      [
        "c",
        "ad"
      ],
      [
        "d",
        "we"
      ],
      [
        "h",
        "or"
      ],
      [
        "h",
        "ind"
      ],
      [
        "h",
        "ors"
      ],
      [
        "i",
        "le"
      ],
      [
        "i",
        "ent"
      ],
      [
        "s",
        "lop"
      ],
      [
        "hi",
        "ll"
      ],
      [
        "us",
        "hed"
      ],
      [
        "st",
        "er"
      ],
      [
        "it",
        "e"
      ],
      [
        "ri",
        "ble"
      ],
      [
        "ch",
        "ang"
      ],
      [
        "ne",
        "xt"
      ],
      [
        "il",
        "ed"
      ],
      [
        "ti",
        "on"
      ],
      [
        "ang",
        "er"
      ],
      [
        "sel",
        "ves"
      ],
      [
        "qu",
        "est"
      ],
      [
        "Ar",
        "cad"
      ],
      [
        "pri",
        "ce"
      ],
      [
        "So",
        "me"
      ],
      [
        "ste",
        "eds"
      ],
      [
        "mortal",
        "s"
      ],
      [
        "hon",
        "or"
      ],
      [
        "Eury",
        "tus"
      ],
      [
        "wonder",
        "ful"
      ],
      [
        "bey",
        "ond"
      ],
      [
        "jo",
        "in"
      ],
      [
        "Po",
        "ly"
      ],
      [
        "Pal",
        "amedes"
      ],
      [
        "Pene",
        "lope"
      ],
      [
        "dwe",
        "lt"
      ],
      [
        "hors",
        "es"
      ],
      [
        "1",
        "0"
      ],
      [
        "1",
        "3"
      ],
      [
        "1",
        "8"
      ],
      [
        "A",
        "ja"
      ],
      [
        "C",
        "re"
      ],
      [
        "D",
        "el"
      ],
      [
        "I",
        "lios"
      ],
      [
        "N",
        "ow"
      ],
      [
        "O",
        "F"
      ],
      [
        "a",
        "f"
      ],
      [
        "b",
        "est"
      ],
      [
        "c",
        "her"
      ],
      [
        "f",
        "l"
      ],
      [
        "n",
        "s"
      ],
      [
        "n",
        "est"
      ],
      [
        "p",
        "ed"
      ],
      [
        "s",
        "oft"
      ],
      [
        "s",
        "word"
      ],
      [
        "t",
        "all"
      ],
      [
        "u",
        "ces"
      ],
      [
        "th",
        "on"
      ],
      [
        "of",
        "f"
      ],
      [
        "me",
        "et"
      ],
      [
        "ho",
        "st"
      ],
      [
        "ac",
        "hed"
      ],
      [
        "li",
        "a"
      ],
      [
        "de",
        "eds"
      ],
      [
        "de",
        "uces"
      ],
      [
        "ag",
        "ed"
      ],
      [
        "ne",
        "ed"
      ],
      [
        "ne",
        "ither"
      ],
      [
        "go",
        "t"
      ],
      [
        "who",
        "se"
      ],
      [
        "mo",
        "ment"
      ],
      [
        "ke",
        "ep"
      ],
      [
        "sh",
        "rew"
      ],
      [
        "ta",
        "ught"
      ],
      [
        "maiden",
        "s"
      ],
      [
        "gl",
        "or"
      ],
      [
        "gift",
        "s"
      ],
      [
        "AD",
        "V"
      ],
      [
        "bene",
        "ath"
      ],
      [
        "Cent",
        "aur"
      ],
      [
        "Poly",
        "deuces"
      ],
      [
        "Aja",
        "x"
      ],
      [
        "shrew",
        "d"
      ],
      [
        "I",
        "o"
      ],
      [
        "I",
        "da"
      ],
      [
        "O",
        "n"
      ],
      [
        "T",
        "o"
      ],
      [
        "U",
        "S"
      ],
      [
        "U",
        "RE"
      ],
      [
        "W",
        "hat"
      ],
      [
        "g",
        "er"
      ],
      [
        "g",
        "ro"
      ],
      [
        "g",
        "round"
      ],
      [
        "i",
        "us"
      ],
      [
        "m",
        "ess"
      ],
      [
        "r",
        "ul"
      ],
      [
        "s",
        "l"
      ],
      [
        "s",
        "ist"
      ],
      [
        "v",
        "in"
      ],
      [
        "w",
        "al"
      ],
      [
        "th",
        "ia"
      ],
      [
        "of",
        "fer"
      ],
      [
        "er",
        "ing"
      ],
      [
        "at",
        "s"
      ],
      [
        "se",
        "i"
      ],
      [
        "me",
        "t"
      ],
      [
        "bo",
        "ard"
      ],
      [
        "king",
        "dom"
      ],
      [
        "sa",
        "ve"
      ],
      [
        "thou",
        "sand"
      ],
      [
        "str",
        "u"
      ],
      [
        "su",
        "itor"
      ],
      [
        "sho",
        "res"
      ],
      [
        "gu",
        "ests"
      ],
      [
        "can",
        "not"
      ],
      [
        "oft",
        "en"
      ],
      [
        "arrow",
        "s"
      ],
      [
        "follow",
        "ed"
      ],
      [
        "rock",
        "s"
      ],
      [
        "fort",
        "un"
      ],
      [
        "voy",
        "age"
      ],
      [
        "ENT",
        "URE"
      ],
      [
        "Del",
        "phi"
      ],
      [
        "ADV",
        "ENTURE"
      ],
      [
        "2",
        "3"
      ],
      [
        "A",
        "tal"
      ],
      [
        "C",
        "as"
      ],
      [
        "L",
        "et"
      ],
      [
        "P",
        "hi"
      ],
      [
        "S",
        "c"
      ],
      [
        "T",
        "his"
      ],
      [
        "h",
        "und"
      ],
      [
        "l",
        "s"
      ],
      [
        "s",
        "la"
      ],
      [
        "t",
        "y"
      ],
      [
        "w",
        "er"
      ],
      [
        "w",
        "ound"
      ],
      [
        "he",
        "s"
      ],
      [
        "an",
        "ta"
      ],
      [
        "in",
        "th"
      ],
      [
        "ou",
        "ght"
      ],
      [
        "me",
        "theus"
      ],
      [
        "for",
        "m"
      ],
      [
        "li",
        "ved"
      ],
      [
        "ca",
        "ve"
      ],
      [
        "et",
        "es"
      ],
      [
        "who",
        "le"
      ],
      [
        "pl",
        "ay"
      ],
      [
        "wo",
        "ods"
      ],
      [
        "ans",
        "wer"
      ],
      [
        "ure",
        "ly"
      ],
      [
        "hand",
        "some"
      ],
      [
        "bet",
        "ween"
      ],
      [
        "dri",
        "ven"
      ],
      [
        "gri",
        "ef"
      ],
      [
        "Pro",
        "metheus"
      ],
      [
        "ev",
        "il"
      ],
      [
        "Pall",
        "as"
      ],
      [
        "fru",
        "it"
      ],
      [
        "Atal",
        "anta"
      ],
      [
        "Cas",
        "tor"
      ],
      [
        "1",
        "9"
      ],
      [
        "E",
        "S"
      ],
      [
        "H",
        "y"
      ],
      [
        "I",
        "N"
      ],
      [
        "I",
        "f"
      ],
      [
        "N",
        "O"
      ],
      [
        "S",
        "he"
      ],
      [
        "W",
        "e"
      ],
      [
        "b",
        "it"
      ],
      [
        "b",
        "ound"
      ],
      [
        "b",
        "less"
      ],
      [
        "d",
        "re"
      ],
      [
        "d",
        "est"
      ],
      [
        "f",
        "in"
      ],
      [
        "g",
        "en"
      ],
      [
        "h",
        "our"
      ],
      [
        "n",
        "es"
      ],
      [
        "p",
        "ow"
      ],
      [
        "p",
        "ath"
      ],
      [
        "r",
        "an"
      ],
      [
        "s",
        "c"
      ],
      [
        "t",
        "is"
      ],
      [
        "t",
        "win"
      ],
      [
        "w",
        "n"
      ],
      [
        "hi",
        "dden"
      ],
      [
        "or",
        "ch"
      ],
      [
        "us",
        "ed"
      ],
      [
        "be",
        "hind"
      ],
      [
        "ri",
        "ver"
      ],
      [
        "ri",
        "fi"
      ],
      [
        "for",
        "ward"
      ],
      [
        "for",
        "got"
      ],
      [
        "li",
        "ft"
      ],
      [
        "li",
        "ving"
      ],
      [
        "lo",
        "ct"
      ],
      [
        "The",
        "ssa"
      ],
      [
        "ag",
        "o"
      ],
      [
        "fo",
        "od"
      ],
      [
        "gre",
        "en"
      ],
      [
        "pl",
        "an"
      ],
      [
        "bo",
        "ar"
      ],
      [
        "fa",
        "re"
      ],
      [
        "do",
        "or"
      ],
      [
        "qu",
        "i"
      ],
      [
        "su",
        "m"
      ],
      [
        "ant",
        "s"
      ],
      [
        "ion",
        "s"
      ],
      [
        "pleas",
        "ed"
      ],
      [
        "kind",
        "ly"
      ],
      [
        "wis",
        "dom"
      ],
      [
        "child",
        "ren"
      ],
      [
        "foot",
        "ed"
      ],
      [
        "flow",
        "ers"
      ],
      [
        "wait",
        "ing"
      ],
      [
        "prom",
        "ised"
      ],
      [
        "field",
        "s"
      ],
      [
        "Cor",
        "inth"
      ],
      [
        "slop",
        "es"
      ],
      [
        "Phi",
        "loct"
      ],
      [
        ".",
        "--"
      ],
      [
        "1",
        "7"
      ],
      [
        "J",
        "ason"
      ],
      [
        "b",
        "œ"
      ],
      [
        "b",
        "an"
      ],
      [
        "d",
        "en"
      ],
      [
        "i",
        "ed"
      ],
      [
        "p",
        "ain"
      ],
      [
        "p",
        "res"
      ],
      [
        "p",
        "hus"
      ],
      [
        "t",
        "end"
      ],
      [
        "w",
        "hy"
      ],
      [
        "re",
        "ached"
      ],
      [
        "st",
        "ri"
      ],
      [
        "li",
        "ves"
      ],
      [
        "The",
        "tis"
      ],
      [
        "de",
        "light"
      ],
      [
        "ain",
        "ed"
      ],
      [
        "sp",
        "ear"
      ],
      [
        "si",
        "lochus"
      ],
      [
        "wo",
        "man"
      ],
      [
        "sto",
        "ne"
      ],
      [
        "ter",
        "rible"
      ],
      [
        "Her",
        "mes"
      ],
      [
        "len",
        "g"
      ],
      [
        "bl",
        "ue"
      ],
      [
        "cour",
        "se"
      ],
      [
        "full",
        "y"
      ],
      [
        "wel",
        "come"
      ],
      [
        "bet",
        "ter"
      ],
      [
        "bir",
        "ds"
      ],
      [
        "wr",
        "ong"
      ],
      [
        "Troj",
        "ans"
      ],
      [
        "bra",
        "ve"
      ],
      [
        "Or",
        "silochus"
      ],
      [
        "suf",
        "fer"
      ],
      [
        "err",
        "and"
      ],
      [
        "wra",
        "th"
      ],
      [
        "hal",
        "f"
      ],
      [
        "Thessa",
        "ly"
      ],
      [
        "Philoct",
        "etes"
      ],
      [
        "A",
        "nt"
      ],
      [
        "H",
        "es"
      ],
      [
        "O",
        "ly"
      ],
      [
        "W",
        "hi"
      ],
      [
        "b",
        "urn"
      ],
      [
        "c",
        "ond"
      ],
      [
        "c",
        "attle"
      ],
      [
        "d",
        "ou"
      ],
      [
        "f",
        "ur"
      ],
      [
        "f",
        "led"
      ],
      [
        "i",
        "gh"
      ],
      [
        "l",
        "is"
      ],
      [
        "m",
        "in"
      ],
      [
        "v",
        "ic"
      ],
      [
        "the",
        "d"
      ],
      [
        "an",
        "x"
      ],
      [
        "ou",
        "gh"
      ],
      [
        "as",
        "e"
      ],
      [
        "ar",
        "mor"
      ],
      [
        "le",
        "ap"
      ],
      [
        "ho",
        "pe"
      ],
      [
        "ho",
        "mes"
      ],
      [
        "we",
        "ar"
      ],
      [
        "ir",
        "a"
      ],
      [
        "ow",
        "s"
      ],
      [
        "fe",
        "w"
      ],
      [
        "ca",
        "red"
      ],
      [
        "mo",
        "on"
      ],
      [
        "gre",
        "et"
      ],
      [
        "she",
        "ep"
      ],
      [
        "bo",
        "th"
      ],
      [
        "wor",
        "k"
      ],
      [
        "mp",
        "us"
      ],
      [
        "heart",
        "s"
      ],
      [
        "sha",
        "lt"
      ],
      [
        "har",
        "bor"
      ],
      [
        "hea",
        "ven"
      ],
      [
        "beast",
        "s"
      ],
      [
        "wood",
        "ed"
      ],
      [
        "tu",
        "tor"
      ],
      [
        "Arcad",
        "ia"
      ],
      [
        "vin",
        "es"
      ],
      [
        "sei",
        "zed"
      ],
      [
        "hund",
        "red"
      ],
      [
        "NO",
        "TE"
      ],
      [
        "bœ",
        "a"
      ],
      [
        "Oly",
        "mpus"
      ],
      [
        "2",
        "0"
      ],
      [
        ":",
        "--"
      ],
      [
        "H",
        "ow"
      ],
      [
        "L",
        "y"
      ],
      [
        "_",
        "P"
      ],
      [
        "b",
        "b"
      ],
      [
        "c",
        "ur"
      ],
      [
        "c",
        "ry"
      ],
      [
        "d",
        "ro"
      ],
      [
        "d",
        "ra"
      ],
      [
        "e",
        "ira"
      ],
      [
        "f",
        "f"
      ],
      [
        "g",
        "ar"
      ],
      [
        "h",
        "un"
      ],
      [
        "j",
        "ust"
      ],
      [
        "m",
        "ark"
      ],
      [
        "n",
        "arrow"
      ],
      [
        "o",
        "ars"
      ],
      [
        "r",
        "r"
      ],
      [
        "r",
        "un"
      ],
      [
        "s",
        "end"
      ],
      [
        "s",
        "ound"
      ],
      [
        "t",
        "s"
      ],
      [
        "u",
        "me"
      ],
      [
        "v",
        "all"
      ],
      [
        "v",
        "ol"
      ],
      [
        "æ",
        "an"
      ],
      [
        "he",
        "al"
      ],
      [
        "th",
        "s"
      ],
      [
        "to",
        "p"
      ],
      [
        "as",
        "us"
      ],
      [
        "ar",
        "cher"
      ],
      [
        "at",
        "en"
      ],
      [
        "ha",
        "ir"
      ],
      [
        "ha",
        "ving"
      ],
      [
        "me",
        "mber"
      ],
      [
        "be",
        "ing"
      ],
      [
        "be",
        "hold"
      ],
      [
        "we",
        "pt"
      ],
      [
        "ai",
        "l"
      ],
      [
        "for",
        "get"
      ],
      [
        "lo",
        "o"
      ],
      [
        "so",
        "oth"
      ],
      [
        "whe",
        "ther"
      ],
      [
        "sp",
        "ot"
      ],
      [
        "ft",
        "y"
      ],
      [
        "bo",
        "re"
      ],
      [
        "see",
        "k"
      ],
      [
        "age",
        "_"
      ],
      [
        "mor",
        "row"
      ],
      [
        "ian",
        "eira"
      ],
      [
        "after",
        "ward"
      ],
      [
        "com",
        "ing"
      ],
      [
        "ex",
        "ce"
      ],
      [
        "anc",
        "ient"
      ],
      [
        "chief",
        "s"
      ],
      [
        "lea",
        "ve"
      ],
      [
        "mat",
        "ch"
      ],
      [
        "hea",
        "v"
      ],
      [
        "De",
        "ianeira"
      ],
      [
        "im",
        "mortals"
      ],
      [
        "flock",
        "s"
      ],
      [
        "mess",
        "en"
      ],
      [
        "suitor",
        "s"
      ],
      [
        "leng",
        "th"
      ],
      [
        "Whi",
        "le"
      ],
      [
        "anx",
        "ious"
      ],
      [
        "vol",
        "ume"
      ],
      [
        "sooth",
        "say"
      ],
      [
        "?",
        "’"
      ],
      [
        "C",
        "al"
      ],
      [
        "G",
        "ree"
      ],
      [
        "H",
        "o"
      ],
      [
        "H",
        "is"
      ],
      [
        "N",
        "ot"
      ],
      [
        "O",
        "R"
      ],
      [
        "O",
        "ine"
      ],
      [
        "P",
        "hera"
      ],
      [
        "T",
        "e"
      ],
      [
        "T",
        "it"
      ],
      [
        "T",
        "ele"
      ],
      [
        "c",
        "ra"
      ],
      [
        "c",
        "ru"
      ],
      [
        "d",
        "as"
      ],
      [
        "f",
        "ree"
      ],
      [
        "g",
        "g"
      ],
      [
        "g",
        "s"
      ],
      [
        "g",
        "one"
      ],
      [
        "g",
        "row"
      ],
      [
        "g",
        "ames"
      ],
      [
        "i",
        "red"
      ],
      [
        "i",
        "ot"
      ],
      [
        "m",
        "ad"
      ],
      [
        "p",
        "ers"
      ],
      [
        "p",
        "ure"
      ],
      [
        "p",
        "ity"
      ],
      [
        "r",
        "ay"
      ],
      [
        "s",
        "had"
      ],
      [
        "s",
        "tor"
      ],
      [
        "t",
        "rou"
      ],
      [
        "t",
        "wel"
      ],
      [
        "u",
        "d"
      ],
      [
        "v",
        "or"
      ],
      [
        "y",
        "e"
      ],
      [
        "y",
        "ear"
      ],
      [
        "re",
        "nt"
      ],
      [
        "on",
        "es"
      ],
      [
        "er",
        "n"
      ],
      [
        "at",
        "ing"
      ],
      [
        "at",
        "ure"
      ],
      [
        "ro",
        "d"
      ],
      [
        "me",
        "an"
      ],
      [
        "ho",
        "od"
      ],
      [
        "ve",
        "red"
      ],
      [
        "al",
        "ong"
      ],
      [
        "ce",
        "an"
      ],
      [
        "co",
        "ast"
      ],
      [
        "co",
        "med"
      ],
      [
        "te",
        "red"
      ],
      [
        "them",
        "selves"
      ],
      [
        "ul",
        "t"
      ],
      [
        "pe",
        "er"
      ],
      [
        "wo",
        "men"
      ],
      [
        "sto",
        "pped"
      ],
      [
        "fai",
        "rest"
      ],
      [
        "ap",
        "ple"
      ],
      [
        "tre",
        "as"
      ],
      [
        "Py",
        "rr"
      ],
      [
        "des",
        "c"
      ],
      [
        "wis",
        "h"
      ],
      [
        "win",
        "ds"
      ],
      [
        "op",
        "en"
      ],
      [
        "ation",
        "s"
      ],
      [
        "cou",
        "n"
      ],
      [
        "cou",
        "ch"
      ],
      [
        "sou",
        "th"
      ],
      [
        "sou",
        "ght"
      ],
      [
        "dark",
        "ness"
      ],
      [
        "No",
        "te"
      ],
      [
        "sac",
        "rifi"
      ],
      [
        "lear",
        "ned"
      ],
      [
        "char",
        "iot"
      ],
      [
        "fle",
        "et"
      ],
      [
        "cli",
        "mb"
      ],
      [
        "comp",
        "any"
      ],
      [
        "chang",
        "ed"
      ],
      [
        "dre",
        "am"
      ],
      [
        "_P",
        "age_"
      ],
      [
        "Ho",
        "mer"
      ],
      [
        "Oine",
        "us"
      ],
      [
        "Phera",
        "e"
      ],
      [
        "A",
        "N"
      ],
      [
        "A",
        "ll"
      ],
      [
        "B",
        "y"
      ],
      [
        "L",
        "ac"
      ],
      [
        "N",
        "eleus"
      ],
      [
        "a",
        "ble"
      ],
      [
        "b",
        "ar"
      ],
      [
        "b",
        "attle"
      ],
      [
        "c",
        "en"
      ],
      [
        "c",
        "row"
      ],
      [
        "c",
        "rew"
      ],
      [
        "c",
        "rag"
      ],
      [
        "e",
        "thon"
      ],
      [
        "f",
        "re"
      ],
      [
        "i",
        "est"
      ],
      [
        "i",
        "ans"
      ],
      [
        "l",
        "one"
      ],
      [
        "o",
        "red"
      ],
      [
        "p",
        "it"
      ],
      [
        "r",
        "ushed"
      ],
      [
        "the",
        "red"
      ],
      [
        "re",
        "gi"
      ],
      [
        "re",
        "ach"
      ],
      [
        "re",
        "member"
      ],
      [
        "th",
        "r"
      ],
      [
        "th",
        "rew"
      ],
      [
        "as",
        "ide"
      ],
      [
        "wi",
        "t"
      ],
      [
        "st",
        "ep"
      ],
      [
        "ch",
        "ing"
      ],
      [
        "lo",
        "ving"
      ],
      [
        "de",
        "red"
      ],
      [
        "de",
        "part"
      ],
      [
        "al",
        "ready"
      ],
      [
        "fe",
        "llow"
      ],
      [
        "ke",
        "pt"
      ],
      [
        "sp",
        "read"
      ],
      [
        "out",
        "side"
      ],
      [
        "pl",
        "ess"
      ],
      [
        "great",
        "er"
      ],
      [
        "fi",
        "ght"
      ],
      [
        "ust",
        "r"
      ],
      [
        "far",
        "ther"
      ],
      [
        "daught",
        "ers"
      ],
      [
        "di",
        "e"
      ],
      [
        "di",
        "ed"
      ],
      [
        "stre",
        "am"
      ],
      [
        "tr",
        "ust"
      ],
      [
        "strang",
        "er"
      ],
      [
        "dist",
        "ress"
      ],
      [
        "bor",
        "n"
      ],
      [
        "prin",
        "ces"
      ],
      [
        "Iphi",
        "gen"
      ],
      [
        "mat",
        "ter"
      ],
      [
        "tru",
        "e"
      ],
      [
        "sit",
        "ting"
      ],
      [
        "spr",
        "ing"
      ],
      [
        "cent",
        "re"
      ],
      [
        "pur",
        "ple"
      ],
      [
        "comr",
        "ades"
      ],
      [
        "glor",
        "ious"
      ],
      [
        "fortun",
        "e"
      ],
      [
        "lift",
        "ed"
      ],
      [
        "qui",
        "et"
      ],
      [
        "dou",
        "b"
      ],
      [
        "match",
        "less"
      ],
      [
        "soothsay",
        "er"
      ],
      [
        "Cal",
        "chas"
      ],
      [
        "A",
        "fter"
      ],
      [
        "A",
        "ph"
      ],
      [
        "D",
        "o"
      ],
      [
        "I",
        "ll"
      ],
      [
        "P",
        "ha"
      ],
      [
        "T",
        "hou"
      ],
      [
        "b",
        "ay"
      ],
      [
        "b",
        "ors"
      ],
      [
        "c",
        "or"
      ],
      [
        "e",
        "m"
      ],
      [
        "e",
        "ag"
      ],
      [
        "f",
        "at"
      ],
      [
        "f",
        "it"
      ],
      [
        "g",
        "n"
      ],
      [
        "g",
        "ard"
      ],
      [
        "i",
        "e"
      ],
      [
        "i",
        "ld"
      ],
      [
        "l",
        "k"
      ],
      [
        "l",
        "est"
      ],
      [
        "o",
        "me"
      ],
      [
        "p",
        "ha"
      ],
      [
        "p",
        "ent"
      ],
      [
        "s",
        "en"
      ],
      [
        "t",
        "ry"
      ],
      [
        "v",
        "a"
      ],
      [
        "v",
        "al"
      ],
      [
        "w",
        "ing"
      ],
      [
        "Œ",
        "cha"
      ],
      [
        "the",
        "a"
      ],
      [
        "an",
        "ion"
      ],
      [
        "re",
        "turned"
      ],
      [
        "th",
        "row"
      ],
      [
        "th",
        "ick"
      ],
      [
        "er",
        "y"
      ],
      [
        "ar",
        "p"
      ],
      [
        "me",
        "ad"
      ],
      [
        "be",
        "came"
      ],
      [
        "no",
        "bl"
      ],
      [
        "ai",
        "m"
      ],
      [
        "ly",
        "re"
      ],
      [
        "al",
        "th"
      ],
      [
        "al",
        "though"
      ],
      [
        "so",
        "re"
      ],
      [
        "ast",
        "ed"
      ],
      [
        "ca",
        "p"
      ],
      [
        "te",
        "ars"
      ],
      [
        "fo",
        "lk"
      ],
      [
        "Odysse",
        "y"
      ],
      [
        "fa",
        "vor"
      ],
      [
        "will",
        "ing"
      ],
      [
        "wo",
        "o"
      ],
      [
        "ter",
        "ing"
      ],
      [
        "even",
        "ing"
      ],
      [
        "mon",
        "ster"
      ],
      [
        "new",
        "s"
      ],
      [
        "cl",
        "ou"
      ],
      [
        "bu",
        "ild"
      ],
      [
        "nor",
        "th"
      ],
      [
        "sil",
        "ent"
      ],
      [
        "har",
        "p"
      ],
      [
        "My",
        "cen"
      ],
      [
        "hel",
        "pless"
      ],
      [
        "love",
        "ly"
      ],
      [
        "dwell",
        "ing"
      ],
      [
        "chas",
        "e"
      ],
      [
        "Se",
        "a"
      ],
      [
        "anc",
        "ed"
      ],
      [
        "past",
        "ures"
      ],
      [
        "Ph",
        "thia"
      ],
      [
        "spr",
        "ang"
      ],
      [
        "Eu",
        "bœa"
      ],
      [
        "song",
        "s"
      ],
      [
        "Troj",
        "an"
      ],
      [
        "gent",
        "le"
      ],
      [
        "sac",
        "red"
      ],
      [
        "vis",
        "it"
      ],
      [
        "blo",
        "od"
      ],
      [
        "phe",
        "us"
      ],
      [
        "Cre",
        "te"
      ],
      [
        "Io",
        "le"
      ],
      [
        "sist",
        "er"
      ],
      [
        "bit",
        "ter"
      ],
      [
        "orch",
        "ards"
      ],
      [
        "messen",
        "ger"
      ],
      [
        "pers",
        "u"
      ],
      [
        "Iphigen",
        "ia"
      ],
      [
        "Aph",
        "rod"
      ],
      [
        "Ill",
        "ustr"
      ],
      [
        "Pha",
        "ethon"
      ],
      [
        "Œcha",
        "lia"
      ],
      [
        "Mycen",
        "æ"
      ],
      [
        ".",
        "]"
      ],
      [
        "A",
        "ul"
      ],
      [
        "C",
        "ly"
      ],
      [
        "C",
        "ol"
      ],
      [
        "L",
        "i"
      ],
      [
        "O",
        "cean"
      ],
      [
        "W",
        "ho"
      ],
      [
        "b",
        "ree"
      ],
      [
        "c",
        "his"
      ],
      [
        "e",
        "mb"
      ],
      [
        "e",
        "ither"
      ],
      [
        "f",
        "am"
      ],
      [
        "f",
        "our"
      ],
      [
        "g",
        "ir"
      ],
      [
        "l",
        "am"
      ],
      [
        "l",
        "oft"
      ],
      [
        "p",
        "un"
      ],
      [
        "p",
        "rou"
      ],
      [
        "s",
        "in"
      ],
      [
        "s",
        "now"
      ],
      [
        "t",
        "ree"
      ],
      [
        "v",
        "ice"
      ],
      [
        "w",
        "his"
      ],
      [
        "he",
        "ark"
      ],
      [
        "on",
        "ia"
      ],
      [
        "se",
        "cond"
      ],
      [
        "ha",
        "ired"
      ],
      [
        "ro",
        "y"
      ],
      [
        "ro",
        "bb"
      ],
      [
        "me",
        "al"
      ],
      [
        "st",
        "ay"
      ],
      [
        "ai",
        "led"
      ],
      [
        "li",
        "ps"
      ],
      [
        "de",
        "al"
      ],
      [
        "al",
        "ways"
      ],
      [
        "ca",
        "ver"
      ],
      [
        "ca",
        "pt"
      ],
      [
        "co",
        "vered"
      ],
      [
        "il",
        "ing"
      ],
      [
        "pl",
        "aces"
      ],
      [
        "wor",
        "thy"
      ],
      [
        "are",
        "r"
      ],
      [
        "sh",
        "arp"
      ],
      [
        "pe",
        "ak"
      ],
      [
        "ck",
        "ed"
      ],
      [
        "ta",
        "king"
      ],
      [
        "ta",
        "ble"
      ],
      [
        "la",
        "bor"
      ],
      [
        "ep",
        "ing"
      ],
      [
        "car",
        "n"
      ],
      [
        "gr",
        "ass"
      ],
      [
        "should",
        "ers"
      ],
      [
        "war",
        "m"
      ],
      [
        "hast",
        "e"
      ],
      [
        "ma",
        "king"
      ],
      [
        "eld",
        "ers"
      ],
      [
        "tow",
        "ers"
      ],
      [
        "pi",
        "us"
      ],
      [
        "list",
        "ened"
      ],
      [
        "hunt",
        "ress"
      ],
      [
        "ser",
        "ve"
      ],
      [
        "dri",
        "ve"
      ],
      [
        "bring",
        "ing"
      ],
      [
        "cle",
        "pius"
      ],
      [
        "As",
        "clepius"
      ],
      [
        "ord",
        "er"
      ],
      [
        "lear",
        "n"
      ],
      [
        "show",
        "ed"
      ],
      [
        "hill",
        "s"
      ],
      [
        "quest",
        "ions"
      ],
      [
        "Sc",
        "y"
      ],
      [
        "pow",
        "ers"
      ],
      [
        "leap",
        "ed"
      ],
      [
        "dro",
        "ve"
      ],
      [
        "loo",
        "king"
      ],
      [
        "cru",
        "el"
      ],
      [
        "trou",
        "b"
      ],
      [
        "twel",
        "ve"
      ],
      [
        "Aphrod",
        "ite"
      ],
      [
        "Illustr",
        "ation"
      ],
      [
        "Aul",
        "is"
      ],
      [
        "loft",
        "y"
      ],
      [
        "prou",
        "d"
      ],
      [
        "capt",
        "ain"
      ],
      [
        "A",
        "re"
      ],
      [
        "A",
        "cast"
      ],
      [
        "D",
        "i"
      ],
      [
        "E",
        "R"
      ],
      [
        "E",
        "none"
      ],
      [
        "F",
        "ates"
      ],
      [
        "I",
        "das"
      ],
      [
        "L",
        "ong"
      ],
      [
        "N",
        "or"
      ],
      [
        "O",
        "N"
      ],
      [
        "O",
        "Enone"
      ],
      [
        "S",
        "E"
      ],
      [
        "S",
        "urely"
      ],
      [
        "T",
        "ir"
      ],
      [
        "a",
        "ven"
      ],
      [
        "b",
        "row"
      ],
      [
        "b",
        "la"
      ],
      [
        "b",
        "low"
      ],
      [
        "c",
        "ys"
      ],
      [
        "e",
        "ast"
      ],
      [
        "g",
        "ain"
      ],
      [
        "g",
        "ra"
      ],
      [
        "g",
        "len"
      ],
      [
        "h",
        "ing"
      ],
      [
        "i",
        "re"
      ],
      [
        "i",
        "er"
      ],
      [
        "i",
        "se"
      ],
      [
        "n",
        "ur"
      ],
      [
        "n",
        "ine"
      ],
      [
        "o",
        "ak"
      ],
      [
        "p",
        "a"
      ],
      [
        "p",
        "li"
      ],
      [
        "p",
        "ort"
      ],
      [
        "r",
        "on"
      ],
      [
        "s",
        "car"
      ],
      [
        "s",
        "low"
      ],
      [
        "t",
        "ers"
      ],
      [
        "u",
        "red"
      ],
      [
        "v",
        "ent"
      ],
      [
        "v",
        "est"
      ],
      [
        "y",
        "ns"
      ],
      [
        "z",
        "ing"
      ],
      [
        "Æ",
        "to"
      ],
      [
        "re",
        "mem"
      ],
      [
        "th",
        "re"
      ],
      [
        "ou",
        "th"
      ],
      [
        "ed",
        "ing"
      ],
      [
        "as",
        "ks"
      ],
      [
        "or",
        "ac"
      ],
      [
        "or",
        "cys"
      ],
      [
        "se",
        "am"
      ],
      [
        "se",
        "cre"
      ],
      [
        "be",
        "red"
      ],
      [
        "st",
        "ir"
      ],
      [
        "we",
        "ap"
      ],
      [
        "we",
        "alth"
      ],
      [
        "li",
        "es"
      ],
      [
        "un",
        "known"
      ],
      [
        "go",
        "dd"
      ],
      [
        "et",
        "s"
      ],
      [
        "co",
        "ld"
      ],
      [
        "te",
        "am"
      ],
      [
        "il",
        "ess"
      ],
      [
        "sp",
        "ark"
      ],
      [
        "bo",
        "ld"
      ],
      [
        "bo",
        "ys"
      ],
      [
        "do",
        "es"
      ],
      [
        "sh",
        "ort"
      ],
      [
        "led",
        "ge"
      ],
      [
        "si",
        "ght"
      ],
      [
        "sto",
        "len"
      ],
      [
        "po",
        "in"
      ],
      [
        "see",
        "ing"
      ],
      [
        "ga",
        "thered"
      ],
      [
        "turn",
        "ing"
      ],
      [
        "some",
        "times"
      ],
      [
        "ach",
        "us"
      ],
      [
        "sho",
        "ot"
      ],
      [
        "lad",
        "y"
      ],
      [
        "gu",
        "ard"
      ],
      [
        "pray",
        "er"
      ],
      [
        "ert",
        "ain"
      ],
      [
        "bow",
        "ed"
      ],
      [
        "sail",
        "ing"
      ],
      [
        "bes",
        "ide"
      ],
      [
        "beg",
        "in"
      ],
      [
        "cho",
        "ose"
      ],
      [
        "cho",
        "ice"
      ],
      [
        "My",
        "r"
      ],
      [
        "under",
        "stand"
      ],
      [
        "cour",
        "t"
      ],
      [
        "ress",
        "ed"
      ],
      [
        "plain",
        "s"
      ],
      [
        "stand",
        "s"
      ],
      [
        "vessel",
        "s"
      ],
      [
        "brother",
        "s"
      ],
      [
        "bir",
        "th"
      ],
      [
        "Ph",
        "orcys"
      ],
      [
        "De",
        "u"
      ],
      [
        "bear",
        "ing"
      ],
      [
        "tri",
        "al"
      ],
      [
        "nymph",
        "s"
      ],
      [
        "bre",
        "ath"
      ],
      [
        "west",
        "ern"
      ],
      [
        "Be",
        "hold"
      ],
      [
        "hor",
        "se"
      ],
      [
        "sl",
        "ain"
      ],
      [
        "fin",
        "ished"
      ],
      [
        "forgot",
        "ten"
      ],
      [
        "sum",
        "mer"
      ],
      [
        "pres",
        "ent"
      ],
      [
        "min",
        "stre"
      ],
      [
        "Te",
        "ll"
      ],
      [
        "Tit",
        "an"
      ],
      [
        "coun",
        "sel"
      ],
      [
        "sacrifi",
        "ce"
      ],
      [
        "Lac",
        "onia"
      ],
      [
        "gard",
        "en"
      ],
      [
        "clou",
        "ds"
      ],
      [
        "Col",
        "chis"
      ],
      [
        "Acast",
        "us"
      ],
      [
        "Tir",
        "yns"
      ],
      [
        "remem",
        "bered"
      ],
      [
        "orac",
        "le"
      ],
      [
        "godd",
        "ess"
      ],
      [
        "A",
        "mp"
      ],
      [
        "A",
        "carn"
      ],
      [
        "C",
        "y"
      ],
      [
        "E",
        "ven"
      ],
      [
        "H",
        "ades"
      ],
      [
        "I",
        "S"
      ],
      [
        "I",
        "s"
      ],
      [
        "I",
        "car"
      ],
      [
        "I",
        "asus"
      ],
      [
        "L",
        "D"
      ],
      [
        "L",
        "ap"
      ],
      [
        "T",
        "el"
      ],
      [
        "W",
        "hy"
      ],
      [
        "X",
        "I"
      ],
      [
        "b",
        "s"
      ],
      [
        "b",
        "ur"
      ],
      [
        "c",
        "al"
      ],
      [
        "c",
        "ons"
      ],
      [
        "c",
        "ious"
      ],
      [
        "d",
        "r"
      ],
      [
        "f",
        "ing"
      ],
      [
        "f",
        "la"
      ],
      [
        "j",
        "e"
      ],
      [
        "j",
        "ud"
      ],
      [
        "l",
        "iness"
      ],
      [
        "n",
        "u"
      ],
      [
        "o",
        "x"
      ],
      [
        "o",
        "bey"
      ],
      [
        "p",
        "up"
      ],
      [
        "p",
        "row"
      ],
      [
        "r",
        "aid"
      ],
      [
        "s",
        "ur"
      ],
      [
        "v",
        "ain"
      ],
      [
        "v",
        "ine"
      ],
      [
        "z",
        "es"
      ],
      [
        "re",
        "ason"
      ],
      [
        "th",
        "ink"
      ],
      [
        "hi",
        "ther"
      ],
      [
        "on",
        "ed"
      ],
      [
        "ar",
        "m"
      ],
      [
        "se",
        "at"
      ],
      [
        "ro",
        "se"
      ],
      [
        "ac",
        "her"
      ],
      [
        "ly",
        "ing"
      ],
      [
        "for",
        "ce"
      ],
      [
        "li",
        "e"
      ],
      [
        "li",
        "as"
      ],
      [
        "The",
        "se"
      ],
      [
        "al",
        "oud"
      ],
      [
        "ce",
        "i"
      ],
      [
        "am",
        "on"
      ],
      [
        "ca",
        "lion"
      ],
      [
        "co",
        "mes"
      ],
      [
        "mo",
        "ved"
      ],
      [
        "man",
        "ner"
      ],
      [
        "sp",
        "ed"
      ],
      [
        "bo",
        "dy"
      ],
      [
        "pe",
        "ct"
      ],
      [
        "si",
        "des"
      ],
      [
        "id",
        "ed"
      ],
      [
        "la",
        "u"
      ],
      [
        "la",
        "w"
      ],
      [
        "Ar",
        "g"
      ],
      [
        "hast",
        "en"
      ],
      [
        "ment",
        "s"
      ],
      [
        "mer",
        "ch"
      ],
      [
        "tem",
        "nest"
      ],
      [
        "strang",
        "ers"
      ],
      [
        "sail",
        "s"
      ],
      [
        "bes",
        "ought"
      ],
      [
        "Pe",
        "lias"
      ],
      [
        "swift",
        "ly"
      ],
      [
        "wel",
        "comed"
      ],
      [
        "let",
        "ter"
      ],
      [
        "sand",
        "y"
      ],
      [
        "con",
        "t"
      ],
      [
        "ser",
        "v"
      ],
      [
        "sm",
        "all"
      ],
      [
        "sm",
        "iled"
      ],
      [
        "lea",
        "ves"
      ],
      [
        "tru",
        "th"
      ],
      [
        "vis",
        "ion"
      ],
      [
        "wed",
        "ding"
      ],
      [
        "wed",
        "ded"
      ],
      [
        "safe",
        "ly"
      ],
      [
        "smo",
        "te"
      ],
      [
        "wand",
        "er"
      ],
      [
        "omed",
        "e"
      ],
      [
        "mid",
        "ons"
      ],
      [
        "vo",
        "ice"
      ],
      [
        "stru",
        "ck"
      ],
      [
        "Hy",
        "per"
      ],
      [
        "bless",
        "ed"
      ],
      [
        "hour",
        "s"
      ],
      [
        "hun",
        "g"
      ],
      [
        "vall",
        "ey"
      ],
      [
        "heav",
        "y"
      ],
      [
        "crag",
        "s"
      ],
      [
        "doub",
        "t"
      ],
      [
        "cap",
        "ti"
      ],
      [
        "Cly",
        "temnest"
      ],
      [
        "Di",
        "omede"
      ],
      [
        "Myr",
        "midons"
      ],
      [
        "Deu",
        "calion"
      ],
      [
        "minstre",
        "l"
      ],
      [
        "Icar",
        "ius"
      ],
      [
        "Lap",
        "ith"
      ],
      [
        "Tel",
        "amon"
      ],
      [
        "pup",
        "il"
      ],
      [
        "Clytemnest",
        "ra"
      ],
      [
        "2",
        "7"
      ],
      [
        "C",
        "lo"
      ],
      [
        "C",
        "ris"
      ],
      [
        "C",
        "ome"
      ],
      [
        "F",
        "a"
      ],
      [
        "G",
        "old"
      ],
      [
        "I",
        "li"
      ],
      [
        "M",
        "E"
      ],
      [
        "R",
        "O"
      ],
      [
        "T",
        "hus"
      ],
      [
        "U",
        "p"
      ],
      [
        "V",
        "II"
      ],
      [
        "a",
        "king"
      ],
      [
        "b",
        "los"
      ],
      [
        "c",
        "er"
      ],
      [
        "c",
        "ous"
      ],
      [
        "c",
        "lad"
      ],
      [
        "c",
        "ertain"
      ],
      [
        "d",
        "ut"
      ],
      [
        "d",
        "ust"
      ],
      [
        "e",
        "as"
      ],
      [
        "e",
        "aster"
      ],
      [
        "f",
        "ed"
      ],
      [
        "f",
        "ain"
      ],
      [
        "g",
        "ate"
      ],
      [
        "k",
        "is"
      ],
      [
        "k",
        "ne"
      ],
      [
        "l",
        "u"
      ],
      [
        "l",
        "ar"
      ],
      [
        "l",
        "at"
      ],
      [
        "l",
        "us"
      ],
      [
        "l",
        "ate"
      ],
      [
        "m",
        "ur"
      ],
      [
        "n",
        "at"
      ],
      [
        "o",
        "re"
      ],
      [
        "r",
        "ing"
      ],
      [
        "s",
        "wine"
      ],
      [
        "t",
        "asks"
      ],
      [
        "w",
        "rought"
      ],
      [
        "Œ",
        "none"
      ],
      [
        "re",
        "l"
      ],
      [
        "th",
        "ir"
      ],
      [
        "th",
        "ine"
      ],
      [
        "th",
        "under"
      ],
      [
        "hi",
        "de"
      ],
      [
        "en",
        "ough"
      ],
      [
        "ar",
        "y"
      ],
      [
        "us",
        "es"
      ],
      [
        "ro",
        "be"
      ],
      [
        "is",
        "y"
      ],
      [
        "is",
        "lands"
      ],
      [
        "me",
        "lo"
      ],
      [
        "le",
        "op"
      ],
      [
        "ho",
        "we"
      ],
      [
        "st",
        "ro"
      ],
      [
        "ri",
        "d"
      ],
      [
        "ad",
        "s"
      ],
      [
        "ad",
        "ed"
      ],
      [
        "de",
        "er"
      ],
      [
        "ow",
        "ed"
      ],
      [
        "fe",
        "lt"
      ],
      [
        "fe",
        "el"
      ],
      [
        "ne",
        "igh"
      ],
      [
        "co",
        "ver"
      ],
      [
        "my",
        "self"
      ],
      [
        "she",
        "l"
      ],
      [
        "bo",
        "lt"
      ],
      [
        "sa",
        "ved"
      ],
      [
        "do",
        "om"
      ],
      [
        "are",
        "st"
      ],
      [
        "pe",
        "red"
      ],
      [
        "si",
        "a"
      ],
      [
        "id",
        "es"
      ],
      [
        "see",
        "king"
      ],
      [
        "less",
        "ly"
      ],
      [
        "ous",
        "ly"
      ],
      [
        "know",
        "ledge"
      ],
      [
        "gr",
        "ay"
      ],
      [
        "gr",
        "ain"
      ],
      [
        "ey",
        "e"
      ],
      [
        "bro",
        "ken"
      ],
      [
        "br",
        "and"
      ],
      [
        "gu",
        "est"
      ],
      [
        "mer",
        "ry"
      ],
      [
        "di",
        "re"
      ],
      [
        "com",
        "fort"
      ],
      [
        "sil",
        "ence"
      ],
      [
        "wis",
        "hed"
      ],
      [
        "happ",
        "ened"
      ],
      [
        "cour",
        "age"
      ],
      [
        "ex",
        "pect"
      ],
      [
        "follow",
        "ing"
      ],
      [
        "hunt",
        "s"
      ],
      [
        "sle",
        "ep"
      ],
      [
        "past",
        "ure"
      ],
      [
        "tru",
        "ly"
      ],
      [
        "shep",
        "herds"
      ],
      [
        "wait",
        "ed"
      ],
      [
        "mar",
        "ble"
      ],
      [
        "pre",
        "v"
      ],
      [
        "Argo",
        "s"
      ],
      [
        "Argo",
        "lis"
      ],
      [
        "god",
        "like"
      ],
      [
        "Al",
        "thea"
      ],
      [
        "Al",
        "pheus"
      ],
      [
        "fle",
        "e"
      ],
      [
        "comr",
        "ade"
      ],
      [
        "bus",
        "y"
      ],
      [
        "Centaur",
        "s"
      ],
      [
        "wal",
        "ked"
      ],
      [
        "stru",
        "gg"
      ],
      [
        "play",
        "ed"
      ],
      [
        "IN",
        "G"
      ],
      [
        "dest",
        "roy"
      ],
      [
        "path",
        "way"
      ],
      [
        "fare",
        "well"
      ],
      [
        "cra",
        "fty"
      ],
      [
        "fre",
        "ed"
      ],
      [
        "pit",
        "iless"
      ],
      [
        "thr",
        "one"
      ],
      [
        "mead",
        "ows"
      ],
      [
        "nobl",
        "est"
      ],
      [
        "Li",
        "chas"
      ],
      [
        "fam",
        "ous"
      ],
      [
        "lam",
        "ent"
      ],
      [
        "whis",
        "pered"
      ],
      [
        "robb",
        "ers"
      ],
      [
        "caver",
        "n"
      ],
      [
        "nur",
        "se"
      ],
      [
        "seam",
        "en"
      ],
      [
        "Acarn",
        "an"
      ],
      [
        "Lapith",
        "s"
      ],
      [
        "Cris",
        "sa"
      ],
      [
        "blos",
        "so"
      ],
      [
        "cer",
        "ning"
      ],
      [
        "easter",
        "n"
      ],
      [
        "howe",
        "ver"
      ],
      [
        ".",
        "["
      ],
      [
        "2",
        "4"
      ],
      [
        "2",
        "6"
      ],
      [
        "A",
        "sia"
      ],
      [
        "E",
        "ar"
      ],
      [
        "M",
        "il"
      ],
      [
        "P",
        "ho"
      ],
      [
        "S",
        "isy"
      ],
      [
        "T",
        "r"
      ],
      [
        "Y",
        "es"
      ],
      [
        "a",
        "it"
      ],
      [
        "c",
        "ed"
      ],
      [
        "c",
        "ut"
      ],
      [
        "d",
        "are"
      ],
      [
        "d",
        "read"
      ],
      [
        "f",
        "al"
      ],
      [
        "f",
        "ate"
      ],
      [
        "g",
        "li"
      ],
      [
        "i",
        "one"
      ],
      [
        "k",
        "in"
      ],
      [
        "k",
        "ill"
      ],
      [
        "m",
        "n"
      ],
      [
        "m",
        "ong"
      ],
      [
        "m",
        "ine"
      ],
      [
        "m",
        "ak"
      ],
      [
        "m",
        "outh"
      ],
      [
        "n",
[...]
